<pad>	0
<s>	0
</s>	0
<unk>	0
��	-0
▁��	-1
▁����	-2
▁�	-3
▁������	-4
���	-5
▁���	-6
����	-7
▁�����	-8
▁��������	-9
�����	-10
▁����������	-11
������	-12
�,	-13
▁2	-14
�������	-15
▁1	-16
�.	-17
▁�������	-18
▁20	-19
▁����,	-20
▁200	-21
▁ä	-22
▁��1	-23
��������	-24
▁3	-25
▁ȸ	-26
▁�׷	-27
▁������������	-28
�)	-29
▁�߻	-30
▁����.	-31
▁���������	-32
▁����(	-33
▁Ư	-34
���,	-35
يٴ	-36
▁��2	-37
���������	-38
▁������,	-39
▁x	-40
▁���߾	-41
▁Ȯ	-42
��)	-43
▁û	-44
��,	-45
▁���߾�	-46
▁��3	-47
׿�	-48
▁[	-49
�(	-50
▁ȯ	-51
5.	-52
▁����)	-53
▁4	-54
7.	-55
8.	-56
▁�	-57
6.	-58
���(	-59
9.	-60
0.	-61
1.	-62
00	-63
▁(	-64
▁201	-65
▁�׷���	-66
▁��,	-67
1]	-68
2]	-69
▁[1]	-70
▁��������������	-71
2.	-72
▁1��	-73
���.	-74
▁�߻���	-75
▁1.	-76
����������	-77
▁19	-78
▁å	-79
▁ü	-80
ǽû	-81
Ƿr	-82
▁ħ	-83
▁�ʿ	-84
[2]	-85
▁3.	-86
▁ǥ	-87
DZ	-88
▁2.	-89
▁����(����	-90
▁��.	-91
0��	-92
���(��)	-93
�����,	-94
▁�߻��	-95
▁2��	-96
▁����).	-97
�)��	-98
▁�׿�	-99
3.	-100
▁4.	-101
4.	-102
5��	-103
▁����(����)	-104
▁�׷��	-105
▁199	-106
▁ó	-107
▁ȿ	-108
�.����	-109
(����	-110
▁12.	-111
·�	-112
▁5.	-113
9��	-114
6��	-115
▁��1��	-116
▁��4	-117
ۇٴ	-118
▁ܰ	-119
▁�޾	-120
�����������	-121
8��	-122
▁�����������	-123
������)	-124
▁��1�	-125
�.������	-126
▁10.	-127
7��	-128
▁11.	-129
᡼��	-130
▁�޸	-131
▁�׼	-132
▁9	-133
▁��������,	-134
▁7.	-135
▁��1����	-136
▁�ʿ���	-137
▁����(�	-138
)��	-139
▁��7	-140
▁6.	-141
▁8.	-142
▁5	-143
3]	-144
▁��6	-145
▁(�	-146
▁�ʾ	-147
▁������(	-148
▁Ÿ	-149
3��	-150
▁�׸	-151
4��	-152
1��	-153
▁9.	-154
,00	-155
▁��3�	-156
▁́	-157
0����	-158
2��	-159
▁�޸�	-160
▁2007.	-161
׿���	-162
▁��2��	-163
▁3��	-164
▁���¿	-165
▁��2����	-166
ǽÿ	-167
▁ȭ	-168
▁2008.	-169
[3]	-170
▁�׸���	-171
鿡��	-172
▁2009.	-173
200	-174
������������	-175
▁ġ	-176
▁6	-177
▁��5	-178
▁��3����	-179
▁1,	-180
��(	-181
▁�	-182
▁2005.	-183
▁�߿	-184
▁��1���	-185
01	-186
▁�׷�����	-187
▁8	-188
▁26.	-189
1�,	-190
�(�	-191
▁2006.	-192
▁2010.	-193
࿡��	-194
▁����[2]	-195
▁����(��	-196
▁�˻	-197
▁ö	-198
▁���⿡	-199
▁��)	-200
▁�߻�	-201
▁1����	-202
��	-203
▁�׷�	-204
▁�3	-205
�.[2]	-206
▁��1�׿�	-207
▁7	-208
%��	-209
⁄4	-210
▁��9	-211
▁ȣ	-212
ŸŰ	-213
▁¡	-214
▁2009��	-215
▁�԰	-216
▁��8	-217
4]	-218
▁28.	-219
▁27.	-220
▁��2�	-221
▁25.	-222
▁[2]	-223
dz	-224
▁â	-225
▁2,	-226
▁29.	-227
1����	-228
▁���࿡	-229
¿�	-230
▁2004.	-231
▁30.	-232
▁���޹	-233
▁3����	-234
▁����),	-235
19	-236
▁4��	-237
▁��������(	-238
▁�������������	-239
6����	-240
▁�޴	-241
▁��	-242
°�	-243
▁2����	-244
▁2008��	-245
▁���	-246
▁���¿���	-247
▁/	-248
׷���	-249
▁�׺	-250
▁2003.	-251
����,	-252
޾�	-253
▁ٰ́	-254
▁13.	-255
��)�������	-256
(�	-257
▁̧	-258
3����	-259
·���	-260
[4]	-261
▁�˾	-262
,000	-263
▁23.	-264
10	-265
▁���¿�	-266
▁��1��,	-267
35	-268
▁14.	-269
▁�߿���	-270
25	-271
▁�	-272
▁���׿�	-273
▁�3⁄4	-274
˰�	-275
▁10	-276
23	-277
▁22.	-278
▁�԰�	-279
▁24.	-280
▁31.	-281
16	-282
�(����	-283
▁���	-284
▁���	-285
▁2011.	-286
▁ũ	-287
▁�׼���	-288
�(������	-289
▁2002.	-290
▁��1�׿���	-291
00��	-292
27	-293
ǥȸ	-294
▁3,	-295
▁������(�	-296
50	-297
▁��3��	-298
▁�˰�	-299
▁198	-300
▁21.	-301
,000��	-302
),	-303
޿���	-304
▁�׺���	-305
ǹǷ	-306
▁�߽	-307
▁5��	-308
▁2007��	-309
��(����	-310
24	-311
Θμ	-312
201	-313
▁1�	-314
ǰų	-315
ʿ�	-316
�������������	-317
26	-318
▁��2�׿�	-319
20	-320
ʹ�	-321
▁�⿩	-322
��),	-323
���(�	-324
õǾ	-325
Ϻθ	-326
��)��	-327
14	-328
▁��76	-329
▁����[3]	-330
��)���	-331
▁2010��	-332
29	-333
13	-334
▁�˷	-335
���(������)	-336
15	-337
28	-338
65	-339
▁�°	-340
▁�޼	-341
ȯû	-342
▁��10	-343
▁2006��	-344
77	-345
▁������(������)	-346
˻�	-347
▁H	-348
▁�޴�	-349
2����	-350
▁2001.	-351
18	-352
▁�����鿡	-353
�������,	-354
(200	-355
▁��9��	-356
▁����(����)[2]	-357
34	-358
▁15.	-359
▁���޵	-360
▁������)��	-361
17	-362
69	-363
▁�˸	-364
▁2005��	-365
ŸŴ	-366
߿�	-367
�)[2]	-368
▁2003��	-369
1,	-370
38	-371
▁(��)	-372
48	-373
▁�޶	-374
▁16.	-375
5����	-376
�(������)	-377
1)	-378
ðǼ	-379
4����	-380
▁2004��	-381
▁��39	-382
޿�	-383
▁Ȱ	-384
▁18.	-385
▁���๰	-386
2,	-387
4,	-388
47	-389
5,	-390
�),	-391
▁�������࿡	-392
▁4,	-393
▁�	-394
▁(1)	-395
▁�ʿ�	-396
▁�࿡��	-397
��1�,	-398
2)	-399
3,	-400
▁20.	-401
,000����	-402
▁���޹���	-403
58	-404
▁���	-405
▁���·�	-406
��������������	-407
37	-408
▁��67	-409
▁(2)	-410
▁�޾�	-411
�)����	-412
▁1999.	-413
▁����)��	-414
��(������)	-415
30	-416
��(�	-417
▁2002��	-418
40	-419
5]	-420
▁öȸ	-421
▁�߻�����	-422
▁�����鿡��	-423
▁�1	-424
▁1998.	-425
▁2000.	-426
▁�����߾	-427
6,	-428
ij	-429
39	-430
÷�	-431
0%��	-432
��).	-433
▁��4��	-434
▁����(=	-435
▁����������,	-436
49	-437
▁s	-438
�(��	-439
▁���	-440
▁��4����	-441
▁��������(����	-442
▁Ⱦ	-443
▁�޺	-444
▁[3]	-445
▁C	-446
▁ȥ	-447
▁�͸	-448
45	-449
▁�߾	-450
(������)	-451
▁5,	-452
▁�׵	-453
��࿡	-454
▁���	-455
▁��75	-456
▁��2��,	-457
���(����	-458
68	-459
IV	-460
▁ô	-461
▁ǰ	-462
▁�޸��	-463
▁�¿	-464
▁7��	-465
▁��9����	-466
▁�	-467
▁(����	-468
60	-469
67	-470
▁B	-471
▁ͅ	-472
▁��(	-473
▁���⿡��	-474
▁ã	-475
��.	-476
▁�ʾ�	-477
▁��5��	-478
▁����[	-479
▁�����޾	-480
▁���������������	-481
▁HIV	-482
�.[3]	-483
▁17.	-484
▁2012.	-485
▁���°�	-486
on	-487
ȭå	-488
▁2�	-489
޹���	-490
▁6��	-491
2007.	-492
▁2015.	-493
������,	-494
▁�򰡵	-495
▁19.	-496
▁�߿�	-497
)����	-498
▁98��	-499
70	-500
��鿡	-501
▁10��	-502
▁�ʿ��	-503
▁2013.	-504
▁�޶���	-505
8,	-506
▁A	-507
߻���	-508
▁�޼��	-509
▁�������������⸦	-510
޴�	-511
8����	-512
▁��766��	-513
er	-514
»��	-515
▁��17	-516
▁5����	-517
▁�˸���	-518
▁��10��	-519
▁1��)�������	-520
,	-521
▁��	-522
▁��16	-523
߻�����	-524
▁1992.	-525
▁10����	-526
▁2000��	-527
▁���߾�,	-528
▁�����޾�	-529
▁�����޿���	-530
���࿡	-531
▁������)	-532
Ϻΰ	-533
▁2014.	-534
▁�˷���	-535
▁���ʿ�	-536
▁1996.	-537
▁���߾���	-538
▁����[4]	-539
▁������(����	-540
53	-541
in	-542
ǰŷ	-543
▁�׶	-544
��׿�	-545
▁�����˻�	-546
9,	-547
԰�	-548
▁I	-549
▁S	-550
(��	-551
▁15	-552
��鿡��	-553
���),	-554
▁���࿡��	-555
▁������.	-556
12	-557
7,	-558
89	-559
ti	-560
▁M	-561
▁��6����	-562
▁��������(����)	-563
3)	-564
en	-565
޽�	-566
▁Ȥ	-567
▁�󰡰	-568
▁(3)	-569
▁���޺	-570
▁�3���	-571
▁�˻���	-572
▁2001��	-573
▁2011��	-574
▁��5����	-575
51	-576
▁0	-577
▁�˱	-578
߿���	-579
▁197	-580
���)	-581
▁4����	-582
▁��6��	-583
▁����¡	-584
▁����(200	-585
59	-586
Ϸκ	-587
ڴٴ	-588
▁���޸	-589
▁���޻	-590
▁6����	-591
▁��)��	-592
▁����	-593
0,	-594
7����	-595
▁��1,	-596
▁1997.	-597
▁��2�׿���	-598
ǵǾ	-599
ǽð	-600
󿡼�	-601
▁��11	-602
▁���⹰	-603
▁��7��	-604
▁��7����	-605
63	-606
ǽŰ	-607
67��	-608
▁100	-609
�)[3]	-610
▁�3⁄4���	-611
%,	-612
򰡸�	-613
▁¡��	-614
▁�׸�	-615
▁�⿩��	-616
▁1991.	-617
▁���߿�	-618
▁2012��	-619
▁�����˻	-620
21	-621
99	-622
Ϻο	-623
▁ū	-624
▁dz	-625
�[2]	-626
▁��20	-627
▁��21	-628
▁2016.	-629
▁�׵���	-630
▁�⿩����	-631
▁����.[2]	-632
▁����.[3]	-633
▁��671����	-634
▁�������¿�	-635
85	-636
˷�	-637
񽺸�	-638
199	-639
▁¡����	-640
▁���޵�	-641
▁��65��	-642
▁��667��	-643
▁��16����	-644
11	-645
36	-646
57	-647
وٴ	-648
▁Ǫ	-649
▁�߼	-650
▁1994.	-651
▁1995.	-652
���������������	-653
75	-654
▁Ż	-655
▁11	-656
▁30	-657
�.�	-658
▁[4]	-659
:00��	-660
▁93��	-661
▁���⸦	-662
▁1993.	-663
▁��10����	-664
▁����(����)��	-665
▁����(����)[3]	-666
46	-667
80	-668
׷�	-669
صم	-670
▁.	-671
▁ij	-672
�¿�	-673
�׿�	-674
▁�򰡸�	-675
▁99��	-676
▁��18	-677
▁��3�׿�	-678
▁���๰��	-679
▁1��)���	-680
,000,000����	-681
▁Ȩ	-682
▁22	-683
▁�¿�����	-684
22	-685
or	-686
Ǹž	-687
▁�ʼ	-688
�.[	-689
▁[��	-690
▁�˻�	-691
▁��40	-692
▁���⵵	-693
���)��	-694
▁�׶�����	-695
���(��)��	-696
ǽɹ	-697
޵�	-698
߻�	-699
࡯�	-700
▁D	-701
50��	-702
tion	-703
▁8��	-704
2011.	-705
▁���ʿ	-706
����࿡	-707
޿�����	-708
▁20%��	-709
▁�޴���	-710
▁��3��,	-711
▁��760��	-712
�������࿡	-713
▁�����߾�����	-714
44	-715
an	-716
߰ߵ	-717
�).	-718
÷���	-719
⁄4��	-720
▁194	-721
▁�׼�	-722
▁�°��	-723
▁���鿡	-724
▁�°���	-725
▁��28��	-726
▁�߻�������	-727
42	-728
56	-729
al	-730
ۡۡ	-731
▁16	-732
�(=	-733
°���	-734
▁��¡	-735
▁97��	-736
(2005.	-737
▁�����	-738
������⸦	-739
▁¡��������	-740
▁2��)�������	-741
33	-742
üå	-743
κΰ	-744
▁0.	-745
▁�࿡	-746
⿡��	-747
�ʹ�	-748
▁196	-749
▁91��	-750
▁94��	-751
▁96��	-752
▁��69	-753
�.[4]	-754
▁��33��	-755
▁2��)���	-756
����(����	-757
���(��)�����	-758
ǸŴ	-759
޹�	-760
▁L	-761
⁄4�	-762
▁6,	-763
▁��12	-764
▁��86	-765
▁���޴	-766
▁���	-767
��࿡��	-768
▁2017.	-769
▁�ʾ���	-770
▁��23��	-771
▁�������	-772
41	-773
6]	-774
▁ī	-775
�]	-776
򰡿�	-777
▁÷�	-778
9����	-779
▁20��	-780
▁3.��	-781
�׿���	-782
▁29.��	-783
▁�޼���	-784
�����(	-785
▁2013��	-786
▁��11��	-787
▁��12��	-788
▁��36��	-789
▁2�������	-790
72	-791
رݿ	-792
▁-	-793
▁:	-794
▁17	-795
▁7,	-796
▁��22	-797
▁���׹	-798
׿�����	-799
▁31.����	-800
▁�͸�����	-801
▁��13����	-802
▁��1������	-803
31	-804
88	-805
͸�	-806
ۡ۰	-807
▁�÷	-808
▁�˻��	-809
▁����1	-810
▁��31��	-811
▁���ʿ��	-812
▁��1��),	-813
▁�����޴�	-814
▁�����޿�	-815
,000������	-816
▁�����߾���������	-817
09	-818
PS	-819
׵�	-820
١١	-821
▁P	-822
��	-823
▁92��	-824
��(��	-825
00����	-826
▁50%��	-827
▁1.����	-828
▁�ʾ�����	-829
▁����[5]	-830
▁(��)����	-831
▁������(200	-832
▁3��)�������	-833
ar	-834
ŵǾ	-835
ǰȭ	-836
�޾	-837
502	-838
▁CT	-839
��¿�	-840
▁���𰡾	-841
����(	-842
▁����]	-843
▁���񽺸�	-844
▁�1⁄4��	-845
▁����)[2]	-846
▁����(������	-847
(=	-848
0%	-849
32	-850
43	-851
61	-852
76	-853
NR	-854
ȯä	-855
񿡼�	-856
[5]	-857
▁�	-858
▁�	-859
▁���	-860
▁��25	-861
▁��38	-862
�(200	-863
▁��14��	-864
▁¡������	-865
▁�׺�����	-866
▁��671��	-867
▁�����ʹ�	-868
▁�������⸦	-869
54	-870
90	-871
es	-872
ǸŸ	-873
ǽñ	-874
▁õ	-875
�⵵	-876
▁18	-877
▁�󼺰	-878
�)�	-879
��󿬱	-880
3��,	-881
▁INR	-882
▁�׵�	-883
��˻�	-884
ation	-885
▁15��	-886
▁16��	-887
▁95��	-888
▁÷���	-889
▁�3��	-890
▁�߿��	-891
▁�󰡰��	-892
▁�͸����	-893
▁��24��	-894
����࿡��	-895
������࿡	-896
▁��(����	-897
:3	-898
ed	-899
om	-900
ur	-901
õǴ	-902
˿�	-903
Һи	-904
▁O	-905
▁ģ	-906
101	-907
OPS	-908
[��	-909
▁�񱳴	-910
▁195	-911
▁�˱��	-912
▁���˵	-913
▁���˻	-914
▁���޽	-915
▁���⸻	-916
(2003.	-917
▁1989.	-918
▁28.��	-919
▁���׹�	-920
▁���޿�	-921
�߻�����	-922
)�������	-923
▁1������	-924
▁�׼�����	-925
▁���𰡾���	-926
����׿���	-927
▁��35����	-928
▁�ʿ�������	-929
���������(	-930
04	-931
73	-932
78	-933
IL	-934
▁K	-935
▁ȫ	-936
¡��	-937
·��	-938
▁3�	-939
▁�¶	-940
▁�˼	-941
▁�׿	-942
)���	-943
▁�°�	-944
▁�޹�	-945
▁�⿩�	-946
⁄4���	-947
▁2.��	-948
▁�׼��	-949
▁��2,	-950
▁30.��	-951
▁8����	-952
󾾿�����	-953
▁2016��	-954
▁33����	-955
▁��16��	-956
▁��8635	-957
▁�����	-958
▁��758��	-959
07	-960
83	-961
84	-962
95	-963
:2	-964
hų	-965
ic	-966
Źȸ	-967
žȱ	-968
▁ž	-969
�鿡	-970
�	-971
23,	-972
▁21	-973
�޾�	-974
▁[5]	-975
▁�򰡵�	-976
񼭸���	-977
▁12��	-978
▁30��	-979
▁5.��	-980
▁MOPS	-981
▁�޾��	-982
▁��53	-983
▁��68	-984
▁���߽	-985
▁1990.	-986
▁�3⁄4�	-987
▁��7��,	-988
▁�˷�����	-989
▁����¡���	-990
▁�׼�������	-991
▁��2������	-992
▁������)�������	-993
55	-994
96	-995
SE	-996
▁+	-997
▁Ž	-998
ter	-999
▁12	-1000
▁¡�	-1001
500��	-1002
▁26.��	-1003
▁�׿���	-1004
▁��200	-1005
,000��,	-1006
▁2014��	-1007
▁��17��	-1008
▁��5��,	-1009
▁2������	-1010
▁�޾�����	-1011
▁��401��	-1012
).	-1013
)�	-1014
52	-1015
PE	-1016
he	-1017
it	-1018
üȭ	-1019
߾�	-1020
▁N	-1021
�⿡	-1022
600	-1023
▁5�	-1024
▁�	-1025
24��	-1026
4��,	-1027
▁��]	-1028
��޾�	-1029
▁3���	-1030
▁�¶��	-1031
▁��45	-1032
▁���˰	-1033
▁���	-1034
3����2	-1035
▁(��)�	-1036
▁�߽���	-1037
▁��13��	-1038
▁��15��	-1039
▁��30��	-1040
▁���޹޾�	-1041
▁�����򰡱	-1042
▁����(=�	-1043
▁�����ʿ�	-1044
�������(	-1045
▁��46����	-1046
▁���޸�����	-1047
▁�����߻���	-1048
3�	-1049
81	-1050
EL	-1051
hp	-1052
lo	-1053
ol	-1054
ǰŰ	-1055
Ǹź	-1056
׸�	-1057
اٴ	-1058
ޡޡ	-1059
▁Ʈ	-1060
󰡸�	-1061
ޡޡޡ	-1062
▁28	-1063
▁40	-1064
▁�๰	-1065
��๰	-1066
׺���	-1067
▁10�	-1068
▁��23	-1069
▁��96	-1070
▁11.��	-1071
▁���߽�	-1072
▁��38��	-1073
▁���⹰��	-1074
▁(��)�񿡼�	-1075
▁30.����	-1076
▁6������	-1077
▁��170��	-1078
▁���޸���	-1079
▁��11����	-1080
▁��186����	-1081
▁������)���	-1082
▁����]������	-1083
▁����(����������	-1084
79	-1085
7]	-1086
86	-1087
¡�	-1088
ưǼ	-1089
ǽõ	-1090
ȸó	-1091
˸�	-1092
َّ	-1093
100	-1094
PEX	-1095
▁23	-1096
▁�⵵	-1097
ʿ���	-1098
˿���	-1099
׸���	-1100
޵���	-1101
▁15,	-1102
▁9��	-1103
▁OIL	-1104
▁�3�	-1105
▁�˱�	-1106
2010.	-1107
¡����	-1108
▁2005	-1109
▁60��	-1110
▁�԰��	-1111
▁���3	-1112
▁���±	-1113
▁���ـ	-1114
�)���	-1115
͸�����	-1116
׻�����	-1117
▁�¿���	-1118
▁���˷�	-1119
▁(��)��	-1120
▁OILPEX	-1121
▁��19��	-1122
▁��32��	-1123
▁�����޼	-1124
޿�������	-1125
▁2008��1	-1126
▁5,000��	-1127
▁����(���	-1128
▁��750����	-1129
▁�������,	-1130
▁�������°�	-1131
▁�����޿�����	-1132
�������(����	-1133
66	-1134
93	-1135
98	-1136
CP	-1137
DD	-1138
IT	-1139
LO	-1140
TY	-1141
et	-1142
Ʒú	-1143
▁U	-1144
�	-1145
󼭴�	-1146
500	-1147
࡯��	-1148
ELLO	-1149
ITTY	-1150
¿���	-1151
▁�򰡿�	-1152
򰡾���	-1153
󼼺���	-1154
▁11��	-1155
▁2007	-1156
▁4.��	-1157
▁��13	-1158
▁��26	-1159
▁���1	-1160
▁���ʽ	-1161
�)[4]	-1162
���ʹ�	-1163
����԰	-1164
׷�����	-1165
޻�����	-1166
▁12.��	-1167
▁1950.	-1168
▁1987.	-1169
▁1988.	-1170
▁KITTY	-1171
▁�޿���	-1172
▁���˸�	-1173
▁����	-1174
▁���󼭴�	-1175
����׿�	-1176
▁��29��	-1177
▁��46��	-1178
▁��4��,	-1179
▁��7502	-1180
▁��91��	-1181
▁���߾��	-1182
▁���⸻��	-1183
��)����	-1184
߻�������	-1185
▁100����	-1186
▁��)����	-1187
▁��1��).	-1188
▁�����˷�	-1189
▁�����԰�	-1190
▁�ʾ�����,	-1191
▁��14����	-1192
�����(����	-1193
▁����(2007.	-1194
▁����(2009.	-1195
▁����(2011.	-1196
▁��1��������	-1197
▁����������(	-1198
▁����(������)	-1199
����������������	-1200
03	-1201
4)	-1202
64	-1203
94	-1204
VD	-1205
ac	-1206
cm	-1207
ŸŸ	-1208
ǸŰ	-1209
Ϻκ	-1210
ڱؼ	-1211
޷�	-1212
▁ź	-1213
165	-1214
▁2)	-1215
▁45	-1216
▁4�	-1217
▁MP	-1218
▁�⵶	-1219
▁�	-1220
��޴	-1221
��޾	-1222
޷���	-1223
▁(4)	-1224
▁11,	-1225
▁119	-1226
▁800	-1227
▁DVD	-1228
▁�˷�	-1229
▁�࿡�	-1230
▁1���	-1231
▁6.��	-1232
▁8.��	-1233
▁��19	-1234
▁���߼	-1235
▁���߿	-1236
���󿡼�	-1237
▁20.��	-1238
▁21.��	-1239
▁25.��	-1240
▁�1⁄4�	-1241
▁�߾���	-1242
▁��201	-1243
▁����:	-1244
▁�󼼺���	-1245
▁�����	-1246
▁��18��	-1247
▁��20��	-1248
▁��34��	-1249
▁��9��,	-1250
▁2010��9	-1251
▁25.����	-1252
▁4,000��	-1253
▁��10��,	-1254
▁���3⁄4�	-1255
▁������(=	-1256
▁��530����	-1257
▁���׻�����	-1258
▁����.����	-1259
▁����(2005.	-1260
▁4��)�������	-1261
▁������(2007.	-1262
▁����(����)[4]	-1263
02	-1264
62	-1265
91	-1266
97	-1267
at	-1268
tr	-1269
žȵ	-1270
ǽɵ	-1271
鿡�	-1272
�1	-1273
�[	-1274
24,	-1275
29,	-1276
58,	-1277
77,	-1278
com	-1279
ent	-1280
ing	-1281
▁1)	-1282
▁1]	-1283
▁�	-1284
▁�򰡹	-1285
(���	-1286
▁17,	-1287
▁5%,	-1288
600��	-1289
▁90��	-1290
▁�԰�,	-1291
▁�޸�,	-1292
▁�߼��	-1293
▁��14	-1294
▁��24	-1295
▁��27	-1296
▁��48	-1297
▁���¶	-1298
▁���ʼ	-1299
▁���͹	-1300
▁���ࡤ	-1301
27����	-1302
▁10���	-1303
▁�޺���	-1304
▁��135	-1305
▁���޽�	-1306
�.[[��	-1307
▁2015��	-1308
▁60����	-1309
▁��48��	-1310
▁�����	-1311
▁�����򰡹	-1312
▁1,000��	-1313
▁2009��8	-1314
▁26.����	-1315
▁3��)���	-1316
▁��162��	-1317
▁��724��	-1318
▁���׿���	-1319
▁�����׿�	-1320
▁2002����	-1321
▁8001����	-1322
▁���޻����	-1323
▁����.[4]	-1324
���(2007.	-1325
▁��53����2	-1326
���������,	-1327
▁�������޻�����	-1328
▁���޺�����������	-1329
05	-1330
4�	-1331
87	-1332
ag	-1333
am	-1334
of	-1335
⁄2	-1336
▁ƴ	-1337
▁Ȳ	-1338
�ʹ	-1339
67,	-1340
900	-1341
end	-1342
׻��	-1343
޹޾�	-1344
޿��	-1345
▁8,	-1346
▁of	-1347
▁�˰	-1348
▁�׻	-1349
▁�޽	-1350
▁�⿬	-1351
▁�	-1352
▁�񱳡	-1353
⸸��	-1354
��˻	-1355
tern	-1356
▁14,	-1357
▁22:	-1358
▁50%	-1359
▁�޺�	-1360
▁�󰡸�	-1361
2013.	-1362
:30��	-1363
▁1.��	-1364
▁2��,	-1365
▁32��	-1366
▁84��	-1367
▁¡���	-1368
▁�׸��	-1369
▁���	-1370
▁���￴	-1371
▁���񽺿	-1372
▁100��	-1373
▁14.��	-1374
▁1975.	-1375
▁1977.	-1376
▁70%��	-1377
▁�͸���	-1378
▁�޸���	-1379
▁�߼���	-1380
▁���׵�	-1381
(������	-1382
▁(����)	-1383
▁�߻����	-1384
▁��49��	-1385
▁��50��	-1386
▁��56��	-1387
▁��6916	-1388
▁��75��	-1389
▁��9648	-1390
▁���鿡��	-1391
▁2,000��	-1392
▁�ʿ�����	-1393
▁�߽�����	-1394
▁��451��	-1395
▁��¡����	-1396
▁��3�����	-1397
��������,	-1398
▁�߿�������	-1399
▁��391����	-1400
▁���˰�����	-1401
▁����)����	-1402
▁�����˻���	-1403
▁������(��	-1404
82	-1405
8�	-1406
Hg	-1407
de	-1408
eb	-1409
il	-1410
ǰṮ	-1411
Ƿɹ	-1412
Ǹŷ	-1413
ȭä	-1414
ȿȮ	-1415
Ϻη	-1416
ٴڿ	-1417
ڱݴ	-1418
▁p	-1419
▁Ŭ	-1420
'��	-1421
105	-1422
207	-1423
330	-1424
๮��	-1425
▁(5	-1426
��⸦	-1427
)[2]	-1428
14��	-1429
2��,	-1430
5%��	-1431
7735	-1432
▁150	-1433
▁�׻�	-1434
▁��°	-1435
��,	-1436
��)�	-1437
���	-1438
2014.	-1439
2015.	-1440
ntern	-1441
׷����	-1442
▁2006	-1443
▁7.��	-1444
▁86��	-1445
▁��),	-1446
▁��58	-1447
▁��84	-1448
▁���»	-1449
�.���	-1450
���׿�	-1451
����)	-1452
޾�����	-1453
▁10.��	-1454
▁�ʼ���	-1455
▁�޾���	-1456
▁���÷�	-1457
▁����5	-1458
��(200	-1459
▁11����	-1460
▁23����	-1461
▁5.����	-1462
▁�3⁄4�,	-1463
▁��44��	-1464
27������	-1465
▁2009��9	-1466
▁27.����	-1467
▁4��)���	-1468
▁5������	-1469
▁��166��	-1470
▁���޿���	-1471
▁2005��58	-1472
▁����(��)	-1473
▁�������鿡	-1474
������࿡��	-1475
▁��756����	-1476
▁����¡����	-1477
▁�����޹���	-1478
▁�������׿�	-1479
▁����(2003.	-1480
▁���������⿡	-1481
▁��186����5,	-1482
▁���޻�������	-1483
����������),	-1484
�������(2003.	-1485
▁�߾�������������	-1486
-1	-1487
1�	-1488
MA	-1489
mm	-1490
st	-1491
um	-1492
õǵ	-1493
Ǹż	-1494
ҼҼ	-1495
޺�	-1496
߼�	-1497
▁W	-1498
▁a	-1499
▁v	-1500
▁Ķ	-1501
▁Ǯ	-1502
▁Ƚ	-1503
�¡	-1504
12,	-1505
14,	-1506
158	-1507
218	-1508
25,	-1509
465	-1510
501	-1511
725	-1512
]��	-1513
׷��	-1514
رۇٴ	-1515
▁00	-1516
▁29	-1517
▁3)	-1518
▁�ʻ	-1519
15��	-1520
1��,	-1521
3%��	-1522
3469	-1523
ʺ���	-1524
▁�˸�	-1525
43165	-1526
▁2000	-1527
▁9.��	-1528
▁�˷��	-1529
▁�߻�,	-1530
▁���׼	-1531
▁���⿹	-1532
���͸�	-1533
����⸦	-1534
(2009.	-1535
(�����	-1536
▁1945.	-1537
▁500��	-1538
▁80%��	-1539
▁��(��	-1540
▁��415	-1541
���(��	-1542
����޽�	-1543
▁1(����	-1544
▁�°����	-1545
▁��6925	-1546
▁�����࿡	-1547
�޾�����	-1548
▁13.����	-1549
▁21.����	-1550
▁8,000��	-1551
▁��385��	-1552
▁���߿���	-1553
��޴�����	-1554
▁10������	-1555
▁2003��49	-1556
▁2009��10	-1557
▁��3�׿���	-1558
▁���±����	-1559
▁����(=��	-1560
▁����)[4]	-1561
▁200������	-1562
▁31.������	-1563
▁��13����5	-1564
▁���޻�����	-1565
▁���߻�����	-1566
▁2000��7735	-1567
▁����(�����	-1568
▁2002��43165	-1569
08	-1570
8]	-1571
:4	-1572
],	-1573
se	-1574
un	-1575
up	-1576
óġ	-1577
ǵǴ	-1578
κδ	-1579
мҺ	-1580
׼�	-1581
ضج	-1582
▁G	-1583
▁T	-1584
▁f	-1585
󰡿�	-1586
󹰿�	-1587
118	-1588
16,	-1589
167	-1590
17,	-1591
374	-1592
413	-1593
474	-1594
51-	-1595
566	-1596
700	-1597
SEP	-1598
ink	-1599
ľǵǾ	-1600
ۡۡۡ	-1601
▁13	-1602
▁14	-1603
▁7�	-1604
▁8�	-1605
▁9,	-1606
▁[�	-1607
▁ħŻ	-1608
▁�򰡱	-1609
��	-1610
�޴�	-1611
2439	-1612
9��,	-1613
˹���	-1614
▁(5)	-1615
▁�߾�	-1616
▁��	-1617
�.��	-1618
���	-1619
��԰�	-1620
ender	-1621
÷����	-1622
▁17��	-1623
▁1998	-1624
▁2���	-1625
▁5%��	-1626
▁50��	-1627
▁751-	-1628
▁���	-1629
▁��36	-1630
▁��80	-1631
▁���·	-1632
���°�	-1633
(����)	-1634
6����4	-1635
»�����	-1636
▁1960.	-1637
▁1980.	-1638
▁1984.	-1639
▁2005�	-1640
▁27.��	-1641
▁31.��	-1642
▁��214	-1643
▁��8��	-1644
▁���԰�	-1645
▁���޾�	-1646
��¿���	-1647
�����;	-1648
��󿬱���	-1649
¡������	-1650
▁4.����	-1651
▁6.����	-1652
▁��35��	-1653
▁��58��	-1654
▁��80��	-1655
▁�����⿡	-1656
�(2006.	-1657
��๰����	-1658
▁11.����	-1659
▁20.����	-1660
▁2008��9	-1661
▁305����	-1662
▁3������	-1663
▁�޿�����	-1664
▁��212��	-1665
▁��256��	-1666
▁��2��),	-1667
▁��403��	-1668
▁���޴���	-1669
▁�����˿�	-1670
�����)��	-1671
▁�޾�����,	-1672
▁��30����	-1673
▁��4�׿���	-1674
▁�������߿	-1675
▁�����򰡹��	-1676
▁�񱳡������	-1677
,000,000��	-1678
▁26.������	-1679
▁30.������	-1680
▁��35����2	-1681
▁��399����	-1682
▁���޴�����	-1683
▁���߾�����	-1684
▁�׿��������	-1685
▁�������鿡��	-1686
▁���޺�������	-1687
▁����.������	-1688
▁����¡������	-1689
������(2005.	-1690
,3	-1691
6)	-1692
74	-1693
:1	-1694
CO	-1695
DS	-1696
GI	-1697
NL	-1698
ss	-1699
ƼL	-1700
ƽɹ	-1701
Ǹs	-1702
Ҽӵ	-1703
▁E	-1704
▁l	-1705
𸣴�	-1706
񼭸�	-1707
󵵸�	-1708
󿩱�	-1709
(19	-1710
130	-1711
20,	-1712
226	-1713
28,	-1714
365	-1715
426	-1716
551	-1717
800	-1718
852	-1719
CDD	-1720
ECP	-1721
[6]	-1722
hpw	-1723
the	-1724
urr	-1725
£��	-1726
°��	-1727
١١١	-1728
▁PF	-1729
�͸�	-1730
��׼	-1731
��⿡	-1732
0��,	-1733
9009	-1734
١١١١	-1735
ۡۡۡۡ	-1736
▁107	-1737
▁15�	-1738
▁34,	-1739
▁�¿�	-1740
▁�޶�	-1741
▁�⵶�	-1742
▁��¥	-1743
▁�𸣴�	-1744
���	-1745
���޴	-1746
��󿡼�	-1747
%����	-1748
1994.	-1749
33070	-1750
33469	-1751
:20��	-1752
ECPNL	-1753
HELLO	-1754
hpweb	-1755
▁14��	-1756
▁1997	-1757
▁1��,	-1758
▁21��	-1759
▁29��	-1760
▁40��	-1761
▁88��	-1762
▁89��	-1763
▁SSEP	-1764
▁�⿬��	-1765
▁��32	-1766
▁��34	-1767
鿩����	-1768
�.[5]	-1769
(2007.	-1770
▁1981.	-1771
▁2018.	-1772
▁7����	-1773
▁�˿���	-1774
▁���޹޾	-1775
▁���޻�	-1776
▁���ࡤ�	-1777
▁���࡯�	-1778
▁����	-1779
▁���󿡼�	-1780
1������	-1781
3������	-1782
9������	-1783
١١١١١١١	-1784
▁20����	-1785
▁�˼����	-1786
▁��21��	-1787
▁��27��	-1788
▁��2���	-1789
▁��4817	-1790
▁��4�׿�	-1791
▁��67��	-1792
▁��8101	-1793
▁��93��	-1794
▁��¡���	-1795
,000,000	-1796
urrender	-1797
▁119���޴	-1798
▁19.����	-1799
▁2007��6	-1800
▁2009��6	-1801
▁[������	-1802
▁�޶�����	-1803
▁��399��	-1804
▁��689��	-1805
▁���˹���	-1806
▁����5��	-1807
▁����[6]	-1808
▁2000����	-1809
▁2007����	-1810
▁��18����	-1811
▁��22����	-1812
▁��32����	-1813
▁��94����	-1814
▁���¿���,	-1815
�(����)��	-1816
▁91��33070	-1817
▁��10����3	-1818
▁��10����4	-1819
▁��173����	-1820
▁��3������	-1821
▁���¿�����	-1822
▁����(=���	-1823
▁�����׿���	-1824
▁������[2]	-1825
▁��������	-1826
▁��������.	-1827
�(��������	-1828
����԰�����	-1829
▁��530����9	-1830
▁���¡������	-1831
���)�������	-1832
▁2003��49566	-1833
▁2004��33469	-1834
▁2008��12439	-1835
▁���ʼ�������	-1836
▁������(2009.	-1837
��������(����	-1838
▁����(����)[5]	-1839
▁�������߻�����	-1840
▁������������,	-1841
���������(����	-1842
▁��������(������	-1843
9]	-1844
:0	-1845
AM	-1846
CT	-1847
RI	-1848
cy	-1849
ec	-1850
km	-1851
td	-1852
yn	-1853
õǰ	-1854
Ŵɷ	-1855
Ƿh	-1856
ǾȰ	-1857
Ϻδ	-1858
мҷ	-1859
Ӻп	-1860
ڱݰ	-1861
▁F	-1862
▁R	-1863
▁b	-1864
▁ù	-1865
鿡,	-1866
�7	-1867
�࿡	-1868
𵨷�	-1869
𿡰�	-1870
󡯰�	-1871
10,	-1872
209	-1873
299	-1874
317	-1875
323	-1876
328	-1877
338	-1878
366	-1879
368	-1880
386	-1881
400	-1882
470	-1883
707	-1884
:00	-1885
ity	-1886
߻��	-1887
⁄2�	-1888
▁03	-1889
▁09	-1890
▁26	-1891
▁60	-1892
▁65	-1893
▁80	-1894
▁CD	-1895
▁II	-1896
▁an	-1897
▁�𸣰	-1898
▁�񿵸	-1899
▁�򰡴	-1900
鿩��	-1901
%)��	-1902
5��,	-1903
޶���	-1904
▁(6)	-1905
▁20�	-1906
▁4,3	-1907
▁AMA	-1908
▁Con	-1909
▁Ltd	-1910
▁�͸�	-1911
▁�޿�	-1912
▁�󰡿�	-1913
�࡯��	-1914
��÷�	-1915
��ʿ�	-1916
��󿬱�	-1917
2��).	-1918
50��,	-1919
:50��	-1920
▁13��	-1921
▁2004	-1922
▁28��	-1923
▁80��	-1924
▁85��	-1925
▁87��	-1926
▁�1⁄4	-1927
▁�¿��	-1928
▁�޺��	-1929
▁�鿡��	-1930
▁��41	-1931
▁��87	-1932
▁���԰	-1933
▁���೻	-1934
�(���	-1935
���¿�	-1936
(2006.	-1937
46����	-1938
˼�����	-1939
▁1949.	-1940
▁1962.	-1941
▁1982.	-1942
▁60%��	-1943
▁�޵���	-1944
▁�޽���	-1945
▁��199	-1946
▁��758	-1947
▁���ʽ�	-1948
▁���˰�	-1949
▁���⿡�	-1950
▁�񱳴���	-1951
���࿡��	-1952
100����	-1953
▁100%��	-1954
▁1998��	-1955
▁1999��	-1956
▁2(����	-1957
▁2017��	-1958
▁�׿����	-1959
▁��22��	-1960
▁��26��	-1961
▁��37��	-1962
���(200	-1963
���(���	-1964
▁1,500��	-1965
▁10.����	-1966
▁18.����	-1967
▁2006��7	-1968
▁2010��1	-1969
▁23.����	-1970
▁28.����	-1971
▁3,000��	-1972
▁8������	-1973
▁�1⁄4���	-1974
▁�°�����	-1975
▁�޸�����	-1976
▁��2��).	-1977
▁���ʺ���	-1978
▁�����󿩱�	-1979
▁�򰡹�����	-1980
��(2007.	-1981
(��������	-1982
2��������	-1983
▁�߿����׿�	-1984
▁��12����	-1985
▁��17����	-1986
▁��415��,	-1987
▁��51����	-1988
▁��56����	-1989
▁�������񽺼	-1990
▁2006��167	-1991
▁2��������	-1992
▁�ʾ�������	-1993
▁��103����	-1994
▁�񱳴�������	-1995
,000,000��,	-1996
▁�������࿡��	-1997
▁�����޾�����	-1998
�����������,	-1999
▁10��27������	-2000
▁������(2008.	-2001
,000,000������	-2002
▁������.������	-2003
▁����1���������	-2004
▁�������������	-2005
▁��������(2007.	-2006
▁�������߻�������	-2007
-4	-2008
71	-2009
IS	-2010
ad	-2011
ay	-2012
dB	-2013
ep	-2014
ev	-2015
im	-2016
ip	-2017
le	-2018
oc	-2019
od	-2020
th	-2021
öȸ	-2022
ĵǾ	-2023
Ľð	-2024
Žñ	-2025
ưų	-2026
ڱݾ	-2027
ۡ۴	-2028
▁c	-2029
▁ȹ	-2030
�⸦	-2031
󡯴�	-2032
󵵰�	-2033
󵵴�	-2034
󸶰�	-2035
󸶳�	-2036
󸶸�	-2037
108	-2038
128	-2039
138	-2040
140	-2041
151	-2042
185	-2043
238	-2044
318	-2045
340	-2046
4,9	-2047
402	-2048
403	-2049
445	-2050
580	-2051
626	-2052
638	-2053
668	-2054
HDD	-2055
RAM	-2056
▁01	-2057
▁05	-2058
▁08	-2059
▁2~	-2060
▁37	-2061
▁55	-2062
▁66	-2063
▁70	-2064
▁99	-2065
▁NZ	-2066
▁St	-2067
▁�ʹ	-2068
▁�˹	-2069
▁�򰡰	-2070
��޺	-2071
%��,	-2072
trac	-2073
▁1,3	-2074
▁1.)	-2075
▁10,	-2076
▁193	-2077
▁24�	-2078
▁3,9	-2079
▁AGI	-2080
▁and	-2081
▁�÷�	-2082
▁�޷�	-2083
▁��÷	-2084
▁�𵨷�	-2085
▁�𸣰�	-2086
▁�󸶳�	-2087
��(=	-2088
��°�	-2089
���⿡	-2090
���	-2091
򰡼���	-2092
󸶵���	-2093
▁26.�	-2094
▁26��	-2095
▁3��,	-2096
▁4���	-2097
▁81��	-2098
▁TCDD	-2099
▁�˻�,	-2100
▁�޿��	-2101
▁�߽��	-2102
▁���	-2103
▁���	-2104
▁��49	-2105
▁���˱	-2106
▁���׵	-2107
▁���	-2108
▁���￰	-2109
�)[5]	-2110
�)��,	-2111
���ʿ�	-2112
����°	-2113
����⿡	-2114
(2008.	-2115
(��)��	-2116
)�����	-2117
01����	-2118
1⁄4���	-2119
25����	-2120
65����	-2121
Intern	-2122
WECPNL	-2123
▁119��	-2124
▁13.��	-2125
▁16.��	-2126
▁17.��	-2127
▁90%��	-2128
▁HELLO	-2129
▁÷����	-2130
▁�1���	-2131
▁��134	-2132
▁��269	-2133
▁��940	-2134
▁��¡��	-2135
�(=���	-2136
��(201	-2137
����󹰿�	-2138
󡤰�����	-2139
ational	-2140
▁2018��	-2141
▁�ʾ����	-2142
▁�����	-2143
▁��)[2]	-2144
▁��1��)	-2145
▁��2��)	-2146
▁��40��	-2147
▁��7374	-2148
▁��7520	-2149
▁��8852	-2150
▁��89��	-2151
▁���¿��	-2152
▁���˻��	-2153
▁���๮��	-2154
▁����)�	-2155
▁�����޴	-2156
▁�����⸦	-2157
▁�񱳴���1	-2158
�(2009.	-2159
�(�����	-2160
▁(��)��,	-2161
▁16.����	-2162
▁2002��6	-2163
▁2007��3	-2164
▁2007��8	-2165
▁2008��7	-2166
▁2009��5	-2167
▁2010��5	-2168
▁2010��7	-2169
▁�ʻ�����	-2170
▁�ʼ�����	-2171
▁�޴�����	-2172
▁�߿�����	-2173
▁��129��	-2174
▁��13522	-2175
▁��3��),	-2176
▁��8����	-2177
▁���1⁄2�	-2178
▁���¶���	-2179
▁���ʿ���	-2180
▁���޵���	-2181
▁���޺���	-2182
▁����.��	-2183
▁����[7]	-2184
▁�����߻�	-2185
��׿�����	-2186
▁2003����	-2187
▁2004����	-2188
▁2006����	-2189
▁3.������	-2190
▁7.������	-2191
▁�޾��޿���	-2192
▁�⵵������	-2193
▁�������	-2194
▁��1�����	-2195
▁��57����	-2196
▁��750��,	-2197
▁���೻����	-2198
▁����)[3]	-2199
▁����.[5]	-2200
▁�������񽺾	-2201
�����(199	-2202
�������(�	-2203
▁��214����	-2204
▁��496����	-2205
▁���͹�����	-2206
▁�����ʿ���	-2207
▁�����׺���	-2208
▁�������·�	-2209
�.��������	-2210
���(��)���	-2211
▁����(=����	-2212
������(����	-2213
▁5��)�������	-2214
▁������.����	-2215
▁�������߻���	-2216
▁2006��16758,	-2217
▁���๰��������	-2218
▁���������࿡��	-2219
▁����(=������)	-2220
▁�����޿�������	-2221
▁��������(�����	-2222
-6	-2223
6�	-2224
BK	-2225
Un	-2226
ce	-2227
el	-2228
ir	-2229
is	-2230
ro	-2231
ud	-2232
óǥ	-2233
õõ	-2234
ĵǴ	-2235
Ÿš	-2236
ǰǥ	-2237
Ǹŵ	-2238
ǽô	-2239
ǽɸ	-2240
ȣǰ	-2241
ɵǾ	-2242
ɷȴ	-2243
ηκ	-2244
Ϻζ	-2245
Ҽӻ	-2246
ڰݽ	-2247
ڰݿ	-2248
ۡۺ	-2249
޹޾	-2250
▁e	-2251
▁Ī	-2252
�׽	-2253
�ᳪ	-2254
�᳻	-2255
򿡵�	-2256
󡯿�	-2257
󸶿�	-2258
109	-2259
114	-2260
116	-2261
146	-2262
1�(	-2263
228	-2264
250	-2265
258	-2266
259	-2267
270	-2268
288	-2269
307	-2270
375	-2271
404	-2272
424	-2273
427	-2274
455	-2275
485	-2276
597	-2277
60,	-2278
616	-2279
631	-2280
726	-2281
850	-2282
:30	-2283
CTV	-2284
IDS	-2285
The	-2286
age	-2287
ǵǰų	-2288
ǽõǴ	-2289
ǽõǾ	-2290
Ϻημ	-2291
▁),	-2292
▁1/	-2293
▁39	-2294
▁3~	-2295
▁48	-2296
▁6�	-2297
▁85	-2298
▁Co	-2299
▁Pa	-2300
▁de	-2301
▁óġ	-2302
▁öž	-2303
▁�󸲺	-2304
��󡤼	-2305
(198	-2306
/��,	-2307
0,45	-2308
0,69	-2309
010,	-2310
1716	-2311
240,	-2312
2747	-2313
6765	-2314
˻���	-2315
͸���	-2316
޺���	-2317
▁10%	-2318
▁110	-2319
▁141	-2320
▁240	-2321
▁412	-2322
▁Ass	-2323
▁[6]	-2324
▁for	-2325
▁the	-2326
▁�ʹ�	-2327
▁�˾�	-2328
▁�׶�	-2329
▁�߼�	-2330
▁�򰡰�	-2331
�(=�	-2332
�¡��	-2333
�⵵��	-2334
��޹�	-2335
���	-2336
���	-2337
100��	-2338
10563	-2339
:35��	-2340
:45��	-2341
tract	-2342
▁2008	-2343
▁35��	-2344
▁70��	-2345
▁75��	-2346
▁AIDS	-2347
▁CCTV	-2348
▁�˼��	-2349
▁���	-2350
▁��(�	-2351
▁��15	-2352
▁��57	-2353
▁��6�	-2354
▁���£	-2355
▁���׿	-2356
▁���޼	-2357
▁���࡯	-2358
▁���←	-2359
▁���	-2360
▁���𵨸	-2361
����	-2362
�°���	-2363
�᳻��,	-2364
��󡤼��	-2365
(2015.	-2366
▁165��	-2367
▁16765	-2368
▁18.��	-2369
▁23.��	-2370
▁30%��	-2371
▁9����	-2372
▁�׶���	-2373
▁�߿��׼	-2374
▁��390	-2375
▁��418	-2376
▁���¶�	-2377
▁���￴�	-2378
▁���󸶿�	-2379
▁�򰡾���	-2380
▁�󸶵���	-2381
��޹���	-2382
���鿡��	-2383
�����.	-2384
▁180,69	-2385
▁1995��	-2386
▁7.����	-2387
▁8.����	-2388
▁9.����	-2389
▁�޶����	-2390
▁�����	-2391
▁��(��,	-2392
▁��25��	-2393
▁��47��	-2394
▁��5�׿�	-2395
▁��63��	-2396
▁��7470	-2397
▁��7638	-2398
▁��7�׿�	-2399
▁��8080	-2400
▁��8365	-2401
▁��96��	-2402
▁��99��	-2403
▁��9��2	-2404
▁���1�,	-2405
▁���޸��	-2406
▁���޹޴�	-2407
▁�����°	-2408
▁�����÷	-2409
▁�񱳴����	-2410
▁�񿵸����	-2411
���)���	-2412
▁1.���ʹ�	-2413
▁11:00��	-2414
▁12.����	-2415
▁14.����	-2416
▁15.����	-2417
▁2005��3	-2418
▁2007��5	-2419
▁2008��8	-2420
▁22:00��	-2421
▁4,300��	-2422
▁�1�����	-2423
▁�˻�����	-2424
▁��215��	-2425
▁��229��	-2426
▁��248��	-2427
▁��398��	-2428
▁��4��),	-2429
▁��64��,	-2430
▁��684��	-2431
▁��751��	-2432
▁��814��	-2433
▁���°���	-2434
▁���˵���	-2435
▁����).�	-2436
▁����[8]	-2437
▁�����¿�	-2438
�������	-2439
��(2006.	-2440
���.����	-2441
���¡����	-2442
▁2.������	-2443
▁2006��19	-2444
▁2008��77	-2445
▁2014����	-2446
▁5.������	-2447
▁8.������	-2448
▁�°������	-2449
▁�߻�����,	-2450
▁�߻������	-2451
▁��269��,	-2452
▁��33����	-2453
▁��6�׿���	-2454
▁���￰����	-2455
▁�������⿡	-2456
��(������	-2457
▁(����)201	-2458
▁12.������	-2459
▁14.������	-2460
▁6��������	-2461
▁�¿�������	-2462
▁�޾�������	-2463
▁��104����	-2464
▁��13����7	-2465
▁��170����	-2466
▁��210����	-2467
▁��454����	-2468
▁���޹�����	-2469
▁�����޾���	-2470
▁�����򰡼���	-2471
▁�����򰡾���	-2472
▁���񽺿�����	-2473
▁180,690,45	-2474
▁2005��5867	-2475
▁2007��9009	-2476
▁¡���������	-2477
▁���������	-2478
▁��266����4	-2479
▁��2�׿�����	-2480
▁��530����3	-2481
�����(2005.	-2482
▁¡����������	-2483
▁����[(��)��	-2484
▁�����򰡱�����	-2485
▁���͹߻�������	-2486
▁2014����10563	-2487
�(������������	-2488
▁����(=��������	-2489
2-	-2490
6-	-2491
7)	-2492
:5	-2493
AX	-2494
OU	-2495
RE	-2496
SB	-2497
Zȭ	-2498
].	-2499
em	-2500
hy	-2501
ig	-2502
la	-2503
qu	-2504
si	-2505
ýǿ	-2506
žȹ	-2507
Ƿy	-2508
Ƿɻ	-2509
Ǹű	-2510
ȣö	-2511
ȣû	-2512
̴ٰ	-2513
ձԾ	-2514
ثن	-2515
఻�	-2516
▁Q	-2517
▁d	-2518
▁w	-2519
▁Ʋ	-2520
�	-2521
�-	-2522
󡱴�	-2523
017	-2524
1-1	-2525
113	-2526
127	-2527
150	-2528
157	-2529
159	-2530
162	-2531
189	-2532
195	-2533
196	-2534
204	-2535
232	-2536
239	-2537
240	-2538
242	-2539
253	-2540
256	-2541
260	-2542
264	-2543
274	-2544
278	-2545
280	-2546
284	-2547
3,9	-2548
34,	-2549
354	-2550
361	-2551
399	-2552
40,	-2553
479	-2554
489	-2555
5,4	-2556
516	-2557
526	-2558
538	-2559
603	-2560
65,	-2561
778	-2562
823	-2563
867	-2564
:40	-2565
DZǵ	-2566
ILL	-2567
ber	-2568
ine	-2569
ood	-2570
por	-2571
res	-2572
use	-2573
ynd	-2574
°�,	-2575
õǰų	-2576
ǸŵǾ	-2577
ǽɵǾ	-2578
޹��	-2579
▁07	-2580
▁1~	-2581
▁2(	-2582
▁24	-2583
▁27	-2584
▁32	-2585
▁33	-2586
▁4)	-2587
▁46	-2588
▁47	-2589
▁58	-2590
▁72	-2591
▁75	-2592
▁92	-2593
▁Dz	-2594
▁In	-2595
▁PC	-2596
▁�˺	-2597
▁�	-2598
▁�	-2599
▁�𳪹	-2600
▁�󵵿	-2601
�°�	-2602
�ʿ�	-2603
��	-2604
�򰡿�	-2605
/���	-2606
13��	-2607
225,	-2608
251,	-2609
3,68	-2610
3���	-2611
755,	-2612
DZǵǾ	-2613
ency	-2614
load	-2615
ment	-2616
»���	-2617
▁(7)	-2618
▁(��	-2619
▁1.1	-2620
▁11]	-2621
▁135	-2622
▁16,	-2623
▁191	-2624
▁21,	-2625
▁28,	-2626
▁300	-2627
▁46,	-2628
▁69,	-2629
▁900	-2630
▁BBK	-2631
▁MRI	-2632
▁USB	-2633
▁com	-2634
▁£��	-2635
▁��	-2636
▁�󵵰�	-2637
▁�󵵸�	-2638
�[3]	-2639
�[4]	-2640
�׽��	-2641
��¡�	-2642
��·�	-2643
��ʹ�	-2644
��߾�	-2645
��࡯�	-2646
򰡿���	-2647
󺴿���	-2648
󿡼���	-2649
13045	-2650
1⁄4��	-2651
2016.	-2652
25��,	-2653
31751	-2654
41377	-2655
67,83	-2656
86232	-2657
88368	-2658
:05��	-2659
:10��	-2660
[����	-2661
·����	-2662
߻����	-2663
▁1,48	-2664
▁11.�	-2665
▁18��	-2666
▁266,	-2667
▁324,	-2668
▁34��	-2669
▁7,48	-2670
▁82��	-2671
▁BILL	-2672
▁link	-2673
▁�߾��	-2674
▁���	-2675
▁��(-	-2676
▁��7�	-2677
▁��°,	-2678
▁���÷	-2679
▁���	-2680
▁���	-2681
▁���	-2682
����	-2683
����	-2684
�.[6]	-2685
�.��,	-2686
���԰�	-2687
���࡯�	-2688
����߽	-2689
(2004.	-2690
(2010.	-2691
37����	-2692
41��).	-2693
47����	-2694
58����	-2695
iation	-2696
upload	-2697
˻�����	-2698
׺�����	-2699
▁105��	-2700
▁15%��	-2701
▁15.��	-2702
▁150��	-2703
▁1944.	-2704
▁1985.	-2705
▁1986.	-2706
▁200��	-2707
▁25%��	-2708
▁250��	-2709
▁5%��,	-2710
▁650��	-2711
▁����	-2712
▁��208	-2713
▁��217	-2714
▁��735	-2715
▁��¥��	-2716
▁���఻�	-2717
▁���𿡰�	-2718
▁���񽺿�	-2719
▁���򿡵�	-2720
�1����	-2721
��(���	-2722
�����	-2723
�����)	-2724
�����࿡	-2725
)������	-2726
,000���	-2727
2������	-2728
▁141���	-2729
▁1980��	-2730
▁2.����	-2731
▁3.����	-2732
▁4��)��	-2733
▁Intern	-2734
▁¡�����	-2735
▁�ʼ����	-2736
▁�˷����	-2737
▁��(��)	-2738
▁��39��	-2739
▁��57��	-2740
▁��59��	-2741
▁��69��	-2742
▁��70��	-2743
▁��8158	-2744
▁��8423	-2745
▁��8665	-2746
▁��8767	-2747
▁��8��,	-2748
▁��9408	-2749
▁���׷��	-2750
▁����.�	-2751
▁����3�	-2752
▁�����˼	-2753
▁�����򰡾	-2754
�1⁄4���	-2755
�����ʹ�	-2756
0��(����	-2757
10,000��	-2758
10������	-2759
Internet	-2760
▁(������	-2761
▁2001��5	-2762
▁2004��7	-2763
▁2005��6	-2764
▁5��)���	-2765
▁7,000��	-2766
▁7,500��	-2767
▁�°����๮	-2768
▁�����,	-2769
▁��10600	-2770
▁��125��	-2771
▁��127��	-2772
▁��204��	-2773
▁��208��	-2774
▁��344��	-2775
▁��397��	-2776
▁��538��	-2777
▁��580��	-2778
▁���·���	-2779
▁���˻���	-2780
▁���͸���	-2781
▁���׷���	-2782
▁���׸���	-2783
▁����[9]	-2784
▁�����°�	-2785
▁�����򰡿�	-2786
�-������	-2787
�ʹ�(����	-2788
��׷�����	-2789
����԰���	-2790
4,000����	-2791
:00������	-2792
Surrender	-2793
°�������,	-2794
▁1.������	-2795
▁1990����	-2796
▁2005��35	-2797
▁2008��10	-2798
▁2008��38	-2799
▁2008����	-2800
▁2009��13	-2801
▁2009��65	-2802
▁2010��18	-2803
▁2013��20	-2804
▁324,240,	-2805
▁�1������	-2806
▁��10��27	-2807
▁��15����	-2808
▁��1����,	-2809
▁��2011-1	-2810
▁��23����	-2811
▁��28����	-2812
▁��41����	-2813
▁��67����	-2814
▁��7����2	-2815
▁���鿡����	-2816
▁�������	-2817
���(��)(�	-2818
▁2002��323	-2819
▁27.������	-2820
▁7,485����	-2821
▁98��41377	-2822
▁�°����๮��	-2823
▁�ʼ�������	-2824
▁�˻�������	-2825
▁��161����	-2826
▁��251����	-2827
▁��388����	-2828
▁��390����	-2829
▁��395����	-2830
▁��398����	-2831
▁��418����	-2832
▁��437����	-2833
▁��6������	-2834
▁��7������	-2835
▁���˻�����	-2836
▁���޾�����	-2837
▁������'��	-2838
����׷�����	-2839
500,000����	-2840
▁�ʾ�������,	-2841
▁��10������	-2842
▁��1�׿�����	-2843
▁���￴������	-2844
▁����(2014.	-2845
▁������(���	-2846
▁2004��13045	-2847
▁2006��19603	-2848
▁2008��31751	-2849
▁2008��86232	-2850
▁2008��88368	-2851
▁�׼���������	-2852
▁��10����3��	-2853
▁����(����)�	-2854
▁������(=���	-2855
▁������)����	-2856
▁��������)��	-2857
�.����������	-2858
▁2002��������	-2859
▁��10��27����	-2860
▁�����޾�����,	-2861
▁������(2010.	-2862
���(��)(�����	-2863
���������(���	-2864
▁��16����2����	-2865
▁��35����2����	-2866
▁����(��������	-2867
��(������)����	-2868
��������(2005.	-2869
▁����(����)����	-2870
▁�����޼���������	-2871
▁�������߿�������	-2872
▁����������(����	-2873
'�	-2874
8)	-2875
=�	-2876
AW	-2877
AY	-2878
CA	-2879
CS	-2880
DB	-2881
IN	-2882
OO	-2883
St	-2884
UR	-2885
eg	-2886
ly	-2887
mg	-2888
po	-2889
ut	-2890
ve	-2891
İŷ	-2892
űǿ	-2893
ŵǴ	-2894
Žɻ	-2895
Ʒð	-2896
ƽþ	-2897
ǷẸ	-2898
ǽɽ	-2899
ȥû	-2900
ȹȮ	-2901
ɽü	-2902
ʻ�	-2903
ημ	-2904
κθ	-2905
Ӻи	-2906
شٴ	-2907
ڱݻ	-2908
ۡ۱	-2909
▁r	-2910
▁ø	-2911
�	-2912
﷯,	-2913
�?	-2914
�÷	-2915
�޷	-2916
�	-2917
𿡵�	-2918
򵵷�	-2919
,55	-2920
,80	-2921
-50	-2922
/10	-2923
/5,	-2924
01,	-2925
013	-2926
015	-2927
05,	-2928
050	-2929
102	-2930
106	-2931
107	-2932
110	-2933
117	-2934
121	-2935
126	-2936
147	-2937
148	-2938
160	-2939
19,	-2940
194	-2941
197	-2942
203	-2943
215	-2944
237	-2945
245	-2946
248	-2947
249	-2948
254	-2949
276	-2950
292	-2951
313	-2952
325	-2953
350	-2954
369	-2955
376	-2956
380	-2957
384	-2958
392	-2959
405	-2960
411	-2961
414	-2962
417	-2963
490	-2964
5.5	-2965
506	-2966
507	-2967
510	-2968
531	-2969
541	-2970
568	-2971
581	-2972
6,6	-2973
609	-2974
632	-2975
637	-2976
69,	-2977
698	-2978
699	-2979
7,8	-2980
706	-2981
72%	-2982
723	-2983
893	-2984
975	-2985
:50	-2986
FAX	-2987
HOU	-2988
[7]	-2989
amb	-2990
ame	-2991
ate	-2992
ery	-2993
est	-2994
fic	-2995
for	-2996
int	-2997
ure	-2998
žȱǿ	-2999
׼��	-3000
๰��	-3001
▁04	-3002
▁34	-3003
▁35	-3004
▁50	-3005
▁57	-3006
▁77	-3007
▁9�	-3008
▁HP	-3009
▁IV	-3010
▁lo	-3011
▁ƯĢ	-3012
▁�±	-3013
▁�˴	-3014
▁�޷	-3015
▁�鿡	-3016
▁�񰡿	-3017
▁�񴢱	-3018
▁�󱼱	-3019
⵶��	-3020
⿩��	-3021
�÷�	-3022
�˿�	-3023
��񼮳	-3024
(��,	-3025
(��3	-3026
)��,	-3027
-401	-3028
-403	-3029
-501	-3030
-���	-3031
0.61	-3032
043,	-3033
1703	-3034
1881	-3035
19��	-3036
2028	-3037
2053	-3038
2129	-3039
25��	-3040
2��)	-3041
379,	-3042
416,	-3043
41��	-3044
533,	-3045
5791	-3046
6,72	-3047
6,95	-3048
64��	-3049
677,	-3050
6��,	-3051
704,	-3052
9,19	-3053
9915	-3054
AWAY	-3055
ping	-3056
tive	-3057
¡���	-3058
˰���	-3059
԰���	-3060
׼���	-3061
߼���	-3062
߾���	-3063
▁(8)	-3064
▁00:	-3065
▁08�	-3066
▁09�	-3067
▁1,5	-3068
▁108	-3069
▁12�	-3070
▁13,	-3071
▁16:	-3072
▁18,	-3073
▁22�	-3074
▁40.	-3075
▁401	-3076
▁40�	-3077
▁44,	-3078
▁470	-3079
▁600	-3080
▁84,	-3081
▁85,	-3082
▁90%	-3083
▁Sal	-3084
▁�޼�	-3085
▁�߽�	-3086
▁�򵵷�	-3087
▁�󵵿�	-3088
��ʻ�	-3089
��͸�	-3090
��޴�	-3091
��޺�	-3092
��߿�	-3093
��鿡�	-3094
���˻	-3095
���⸦	-3096
���񼮳	-3097
��񽺸�	-3098
��򰡿�	-3099
񼭸鿡��	-3100
'����	-3101
,000�	-3102
,323,	-3103
/����	-3104
10813	-3105
14242	-3106
1999.	-3107
20109	-3108
27151	-3109
44138	-3110
59788	-3111
88631	-3112
:25��	-3113
HOUSE	-3114
arine	-3115
lause	-3116
˼���,	-3117
▁(���	-3118
▁0.01	-3119
▁0.47	-3120
▁100%	-3121
▁109,	-3122
▁1502	-3123
▁1503	-3124
▁1505	-3125
▁1522	-3126
▁1999	-3127
▁19��	-3128
▁2,19	-3129
▁2,63	-3130
▁2001	-3131
▁25��	-3132
▁29.�	-3133
▁31.�	-3134
▁34,5	-3135
▁397,	-3136
▁62��	-3137
▁662,	-3138
▁74��	-3139
▁912,	-3140
▁loan	-3141
▁�ʼ��	-3142
▁�˹��	-3143
▁��)[	-3144
▁��1.	-3145
▁��28	-3146
▁��35	-3147
▁��37	-3148
▁��97	-3149
▁���࿹	-3150
▁���	-3151
▁���	-3152
▁���񱸿	-3153
�(=��	-3154
�(��2	-3155
�)[6]	-3156
�.[7]	-3157
��[2]	-3158
���˷�	-3159
����	-3160
����޹	-3161
����鿡	-3162
���񿡼�	-3163
(2011.	-3164
)����,	-3165
/5,402	-3166
0.61�޷	-3167
1����5	-3168
2009��	-3169
202819	-3170
23��).	-3171
34����	-3172
38����	-3173
39��),	-3174
45379,	-3175
755,23	-3176
SEAWAY	-3177
ations	-3178
·�����	-3179
▁10%��	-3180
▁11]��	-3181
▁13.25	-3182
▁1976.	-3183
▁1996,	-3184
▁2,975	-3185
▁2019.	-3186
▁22.��	-3187
▁3,937	-3188
▁300��	-3189
▁3~4��	-3190
▁45386	-3191
▁96��3	-3192
▁99��6	-3193
▁Assoc	-3194
▁�˰���	-3195
▁�԰���	-3196
▁�޷���	-3197
▁��121	-3198
▁���¡�	-3199
▁���׸�	-3200
▁���⸻�	-3201
▁���𵨸�	-3202
▁���𿡵�	-3203
▁���󸶸�	-3204
�ʹ����	-3205
��(=��	-3206
��)201	-3207
��޴���	-3208
����¿�	-3209
����ʹ�	-3210
����࡯�	-3211
�����	-3212
,323,93	-3213
090����	-3214
1,600��	-3215
4������	-3216
޿��׿���	-3217
▁1,010,	-3218
▁12����	-3219
▁15����	-3220
▁1965��	-3221
▁25����	-3222
▁3,416,	-3223
▁30����	-3224
▁4(����	-3225
▁91��23	-3226
▁98��31	-3227
▁98��39	-3228
▁����⿡	-3229
▁��(���	-3230
▁��42��	-3231
▁��43��	-3232
▁��5274	-3233
▁��6465	-3234
▁��64��	-3235
▁��68��	-3236
▁��6��,	-3237
▁��7392	-3238
▁��74��	-3239
▁��86��	-3240
▁���￴�	-3241
▁�����󰢺	-3242
������	-3243
�(=����	-3244
�.����,	-3245
���(199	-3246
���޿���	-3247
����)��	-3248
/��(����	-3249
640.61�޷	-3250
▁2006��8	-3251
▁2006��9	-3252
▁2007��2	-3253
▁2009��2	-3254
▁�׸�����	-3255
▁��(-)��	-3256
▁��10237	-3257
▁��10580	-3258
▁��11017	-3259
▁��11��,	-3260
▁��133��	-3261
▁��135��	-3262
▁��15791	-3263
▁��18146	-3264
▁��188��	-3265
▁��20120	-3266
▁��201��	-3267
▁��276��	-3268
▁��325��	-3269
▁��391��	-3270
▁��393��	-3271
▁��3��).	-3272
▁��676��	-3273
▁���׵���	-3274
▁����'��	-3275
▁����2��	-3276
▁�����˰�	-3277
▁�����߾�	-3278
▁�񰡿�����	-3279
��(2010.	-3280
��(2018.	-3281
��)����,	-3282
���)����	-3283
�����(��	-3284
������񽺸�	-3285
6��������	-3286
surrender	-3287
▁12������	-3288
▁2002��45	-3289
▁2002��69	-3290
▁2005��32	-3291
▁2006��35	-3292
▁2006��48	-3293
▁2007��60	-3294
▁2009��29	-3295
▁2009��69	-3296
▁2010��34	-3297
▁397,225,	-3298
▁662,043,	-3299
▁98��9915	-3300
▁�׼������	-3301
▁��.�׿���	-3302
▁��103��,	-3303
▁��1115��	-3304
▁��1��)��	-3305
▁��1����2	-3306
▁��20����	-3307
▁��26����	-3308
▁��27����	-3309
▁���˰����	-3310
▁���߿����	-3311
▁���࡯����	-3312
▁���๰����	-3313
▁���࿡����	-3314
▁�����޼��	-3315
▁�������	-3316
▁������),	-3317
�(=������	-3318
�(�������	-3319
�)�������	-3320
��๰������	-3321
���߻�����	-3322
����࿡����	-3323
�����;���	-3324
▁1,100����	-3325
▁1,300����	-3326
▁109������	-3327
▁13.������	-3328
▁19,323,93	-3329
▁2002��635	-3330
▁2008��923	-3331
▁23.������	-3332
▁94��27151	-3333
▁99��10813	-3334
▁��162����	-3335
▁��202����	-3336
▁��208��).	-3337
▁��23����2	-3338
▁��26����4	-3339
▁��28����4	-3340
▁��33����6	-3341
▁��401����	-3342
▁��403����	-3343
▁��582����	-3344
▁��670����	-3345
▁��746����	-3346
▁��760����	-3347
▁��845����	-3348
▁��9������	-3349
▁������(=�	-3350
▁�������׷�	-3351
▁��������)	-3352
▁�������󸶰�	-3353
���(������	-3354
����(2011.	-3355
�������)��	-3356
������򰡾���	-3357
700,000����	-3358
755,238����	-3359
▁2000����26	-3360
▁3,416,704,	-3361
▁98��45379,	-3362
▁��173����7	-3363
▁��1��(����	-3364
▁��361����5	-3365
▁��3�׿�����	-3366
▁���׿������	-3367
▁�����޼����	-3368
▁2,975/5,402	-3369
▁2002��14242	-3370
▁2002��32332	-3371
▁2002��59788	-3372
▁2004��71881	-3373
▁2005��35707	-3374
▁2005��58823	-3375
▁2005��62747	-3376
▁2006����218	-3377
▁2009��88631	-3378
▁6,000������	-3379
▁Association	-3380
▁��2��������	-3381
▁��391������	-3382
▁���������3�	-3383
▁�������񽺼���	-3384
▁�������񽺾���	-3385
▁�����򰡹�����	-3386
�(����������	-3387
���(��)(����	-3388
������߻�����	-3389
▁2012��202819	-3390
▁��186����5��	-3391
▁����(=������	-3392
▁�������񽺼��͸�	-3393
▁�׼�����������	-3394
▁���ʼ���������	-3395
▁���޺���������	-3396
▁������(������	-3397
▁���������׿���	-3398
▁�����������׿�	-3399
▁19,323,936����	-3400
▁22,000,000����	-3401
▁��10��27������	-3402
▁��173����8����	-3403
▁�������������⿡	-3404
���������(2009.	-3405
�������(��������	-3406
%�	-3407
)(	-3408
**	-3409
,5	-3410
-2	-3411
06	-3412
0�	-3413
5�	-3414
9%	-3415
92	-3416
AS	-3417
Am	-3418
CL	-3419
CR	-3420
DE	-3421
Su	-3422
TE	-3423
YM	-3424
[�	-3425
bn	-3426
ey	-3427
ge	-3428
ia	-3429
iȣ	-3430
jo	-3431
mo	-3432
no	-3433
ra	-3434
ri	-3435
åƯ	-3436
ñǿ	-3437
öȭ	-3438
ûä	-3439
ýñ	-3440
ĵǰ	-3441
ĸż	-3442
Ÿs	-3443
Ÿä	-3444
ǰẸ	-3445
ǵǸ	-3446
Ǹš	-3447
ǸŹ	-3448
ǸŽ	-3449
ǽø	-3450
ǽü	-3451
ɻǴ	-3452
ʺ�	-3453
˴�	-3454
Ϸμ	-3455
һӴ	-3456
ӻӸ	-3457
׽�	-3458
رݰ	-3459
مم	-3460
ٲپ	-3461
ڰݰ	-3462
ڰݻ	-3463
ڱݳ	-3464
ڱݹ	-3465
ڱݿ	-3466
ڴ١	-3467
ڹٲ	-3468
۱ݹ	-3469
ݼ۵	-3470
▁=	-3471
▁V	-3472
▁g	-3473
▁Ű	-3474
▁Ƽ	-3475
�	-3476
,	-3477
�͹	-3478
�񺰷	-3479
�񽺱	-3480
𿡸�	-3481
񸮿�	-3482
񽺿�	-3483
󡱰�	-3484
󺴿�	-3485
󺹺�	-3486
(=�	-3487
,56	-3488
,75	-3489
,81	-3490
-20	-3491
-56	-3492
000	-3493
012	-3494
014	-3495
047	-3496
08,	-3497
1.2	-3498
10]	-3499
119	-3500
13,	-3501
131	-3502
135	-3503
15,	-3504
156	-3505
179	-3506
2,0	-3507
208	-3508
216	-3509
219	-3510
221	-3511
223	-3512
229	-3513
233	-3514
234	-3515
236	-3516
247	-3517
257	-3518
26,	-3519
262	-3520
267	-3521
277	-3522
282	-3523
285	-3524
296	-3525
303	-3526
304	-3527
308	-3528
331	-3529
335	-3530
339	-3531
370	-3532
378	-3533
379	-3534
385	-3535
4,7	-3536
425	-3537
447	-3538
449	-3539
454	-3540
477	-3541
48,	-3542
484	-3543
491	-3544
50,	-3545
525	-3546
532	-3547
586	-3548
598	-3549
6,9	-3550
606	-3551
607	-3552
619	-3553
633	-3554
648	-3555
674	-3556
70,	-3557
704	-3558
705	-3559
722	-3560
762	-3561
775	-3562
789	-3563
829	-3564
855	-3565
891	-3566
908	-3567
947	-3568
959	-3569
985	-3570
994	-3571
:35	-3572
MRI	-3573
UCP	-3574
acn	-3575
ail	-3576
ans	-3577
dzh	-3578
ebr	-3579
elo	-3580
ens	-3581
ess	-3582
har	-3583
hem	-3584
hip	-3585
ild	-3586
itr	-3587
olu	-3588
udy	-3589
urg	-3590
ute	-3591
ven	-3592
win	-3593
yne	-3594
~30	-3595
·�,	-3596
õDZ	-3597
ŸŰŷ	-3598
ƽþư	-3599
ǽɵǴ	-3600
ǾȰǿ	-3601
˱��	-3602
Ϻκδ	-3603
׿��	-3604
޸��	-3605
▁1%	-3606
▁2/	-3607
▁4]	-3608
▁4~	-3609
▁5)	-3610
▁56	-3611
▁59	-3612
▁6)	-3613
▁67	-3614
▁69	-3615
▁7~	-3616
▁94	-3617
▁im	-3618
▁iȣ	-3619
▁on	-3620
▁pH	-3621
▁âƲ	-3622
▁ġȯ	-3623
▁ƴŸ	-3624
▁ȨƮ	-3625
▁�޿	-3626
▁�⸣	-3627
▁�𸥴	-3628
▁�񳭰	-3629
▁�򰡺	-3630
▁�󵵴	-3631
��	-3632
��	-3633
��	-3634
�¡�	-3635
�԰�	-3636
��÷	-3637
��׶	-3638
��	-3639
�񺰷�	-3640
�򰡸�	-3641
�󿡼�	-3642
񡤼��	-3643
򿡵�,	-3644
)[3]	-3645
0,61	-3646
0101	-3647
0437	-3648
075,	-3649
0���	-3650
1393	-3651
1828	-3652
1���	-3653
2,35	-3654
2,68	-3655
2,77	-3656
205,	-3657
2060	-3658
212,	-3659
2268	-3660
2453	-3661
2835	-3662
2999	-3663
3409	-3664
3419	-3665
3852	-3666
4,65	-3667
4229	-3668
44��	-3669
5069	-3670
541,	-3671
545,	-3672
5714	-3673
611,	-3674
6553	-3675
6560	-3676
6680	-3677
6969	-3678
698,	-3679
77,4	-3680
8���	-3681
9947	-3682
Amer	-3683
CRPS	-3684
Unit	-3685
ambu	-3686
arly	-3687
ated	-3688
bers	-3689
edic	-3690
ence	-3691
ever	-3692
fici	-3693
ican	-3694
link	-3695
mmHg	-3696
mmun	-3697
oods	-3698
sion	-3699
synd	-3700
thum	-3701
ties	-3702
~100	-3703
¶���	-3704
ǽɵdz	-3705
׵)��	-3706
ۡۡۡۺ	-3707
▁1.�	-3708
▁127	-3709
▁16�	-3710
▁19,	-3711
▁192	-3712
▁2).	-3713
▁2,4	-3714
▁20%	-3715
▁23,	-3716
▁30�	-3717
▁310	-3718
▁41,	-3719
▁43,	-3720
▁45,	-3721
▁49,	-3722
▁52.	-3723
▁5�⸦	-3724
▁68,	-3725
▁70%	-3726
▁846	-3727
▁87.	-3728
▁88,	-3729
▁96�	-3730
▁98.	-3731
▁Cor	-3732
▁GCS	-3733
▁HCO	-3734
▁III	-3735
▁[19	-3736
▁con	-3737
▁hem	-3738
▁�˺�	-3739
▁�˿�	-3740
▁��	-3741
▁�򰡴�	-3742
▁�󸶸�	-3743
▁�󺹺�	-3744
�[��	-3745
�]��	-3746
�⿡��	-3747
��޿�	-3748
���鿡	-3749
���	-3750
��󡯿�	-3751
𰡰���	-3752
񰡰���	-3753
󾾿���	-3754
102��	-3755
12270	-3756
17161	-3757
1968.	-3758
1995.	-3759
200��	-3760
20730	-3761
22249	-3762
23��,	-3763
24891	-3764
24���	-3765
29474	-3766
30��,	-3767
35199	-3768
38623	-3769
38��,	-3770
4,800	-3771
48413	-3772
48994	-3773
50149	-3774
50586	-3775
52647	-3776
53812	-3777
62671	-3778
6��),	-3779
72572	-3780
75��,	-3781
855,4	-3782
8��),	-3783
9,516	-3784
agent	-3785
bnail	-3786
ction	-3787
joint	-3788
˹����	-3789
޾����	-3790
▁1%��	-3791
▁117,	-3792
▁13.�	-3793
▁14.�	-3794
▁177,	-3795
▁18.�	-3796
▁2,96	-3797
▁2009	-3798
▁22��	-3799
▁23��	-3800
▁258,	-3801
▁27.�	-3802
▁27��	-3803
▁28.,	-3804
▁28.�	-3805
▁3%��	-3806
▁3/10	-3807
▁30.�	-3808
▁312,	-3809
▁4.32	-3810
▁5��,	-3811
▁5���	-3812
▁6031	-3813
▁69��	-3814
▁6��,	-3815
▁6���	-3816
▁9%��	-3817
▁Sale	-3818
▁[[��	-3819
▁surg	-3820
▁�˸��	-3821
▁�׺��	-3822
▁�޴��	-3823
▁�޶󡯴�	-3824
▁�޹��	-3825
▁�޼�,	-3826
▁�߾�,	-3827
▁�⵵��	-3828
▁�⵶��	-3829
▁�⸣��	-3830
▁���	-3831
▁��(=	-3832
▁��0�	-3833
▁��42	-3834
▁��4�	-3835
▁��5�	-3836
▁��65	-3837
▁��78	-3838
▁��79	-3839
▁��81	-3840
▁���˼	-3841
▁���ࡹ	-3842
▁���๮	-3843
▁���	-3844
▁�񳭰��	-3845
▁�󵵴��	-3846
����	-3847
�ʹ���	-3848
�޶���	-3849
����	-3850
��°�,	-3851
��׷��	-3852
���).	-3853
���޿�	-3854
����	-3855
����򰡹	-3856
%(����	-3857
(1989.	-3858
(=����	-3859
(����,	-3860
,811��	-3861
11��),	-3862
12��),	-3863
19����	-3864
29����	-3865
37524,	-3866
426,75	-3867
51��),	-3868
6,610,	-3869
62251,	-3870
70420,	-3871
90095,	-3872
Marine	-3873
United	-3874
acnyne	-3875
edical	-3876
icated	-3877
tracts	-3878
↓����,	-3879
▁120��	-3880
▁12��,	-3881
▁180��	-3882
▁1943.	-3883
▁1973.	-3884
▁1974.	-3885
▁1978.	-3886
▁1979.	-3887
▁1��2]	-3888
▁2004�	-3889
▁24.��	-3890
▁37531	-3891
▁40%��	-3892
▁40��,	-3893
▁600��	-3894
▁62268	-3895
▁70437	-3896
▁90101	-3897
▁93��4	-3898
▁93��6	-3899
▁95��3	-3900
▁96,95	-3901
▁99,19	-3902
▁Goods	-3903
▁Immun	-3904
▁image	-3905
▁sever	-3906
▁�¶���	-3907
▁�÷���	-3908
▁�˱���	-3909
▁�˼���	-3910
▁�⿩��,	-3911
▁���,	-3912
▁��100	-3913
▁��101	-3914
▁��118	-3915
▁��140	-3916
▁��145	-3917
▁��401	-3918
▁��÷��	-3919
▁���1�	-3920
▁���»�	-3921
▁���⿹�	-3922
▁���鿡�	-3923
▁����	-3924
▁���,	-3925
▁���𿡸�	-3926
▁���񱸿�	-3927
▁���󡯿�	-3928
▁���󸶰�	-3929
▁�񴢱���	-3930
�(��25	-3931
��޾���	-3932
��߾���	-3933
����޺�	-3934
��򰡿���	-3935
250����	-3936
27����5	-3937
300����	-3938
394����	-3939
421����	-3940
6,720��	-3941
778����	-3942
hipping	-3943
olution	-3944
vention	-3945
÷������	-3946
⁄4�����	-3947
▁10��27	-3948
▁13����	-3949
▁171���	-3950
▁17����	-3951
▁1990��	-3952
▁1991��	-3953
▁1997�⿡	-3954
▁1�޷���	-3955
▁2)����	-3956
▁2006�⵵	-3957
▁2007�⵵	-3958
▁3(����	-3959
▁31����	-3960
▁3���޿�	-3961
▁63����	-3962
▁6��°��	-3963
▁88,668	-3964
▁8��9��	-3965
▁94��15	-3966
▁97��19	-3967
▁97��54	-3968
▁99����	-3969
▁9���ʿ�	-3970
▁�3⁄4��	-3971
▁�˸����	-3972
▁�˻����	-3973
▁�˾����	-3974
▁�׷���,	-3975
▁�鿡����	-3976
▁�����	-3977
▁�����	-3978
▁��1993	-3979
▁��2009	-3980
▁��4723	-3981
▁��52��	-3982
▁��6158	-3983
▁��6919	-3984
▁��7584	-3985
▁��77��	-3986
▁��79��	-3987
▁��8258	-3988
▁��8380	-3989
▁��8632	-3990
▁��8733	-3991
▁��8985	-3992
▁��9617	-3993
▁��9706	-3994
▁���£��	-3995
▁���޹��	-3996
▁���࿹��	-3997
▁���←��	-3998
▁���⿹��	-3999
▁����.[	-4000
▁�����¡	-4001
▁�����ʼ	-4002
▁�����ʿ	-4003
▁�����޿	-4004
�(2008.	-4005
�(2013.	-4006
�(��1��	-4007
�(��7��	-4008
�(��8��	-4009
�)(����	-4010
�.�׸���	-4011
��࿡����	-4012
���˿���	-4013
������	-4014
����(��	-4015
����׼��	-4016
�����;�	-4017
�����˷�	-4018
������(	-4019
������๰	-4020
�񽺱�����	-4021
(�������	-4022
/100����	-4023
12������	-4024
23������	-4025
49������	-4026
63������	-4027
67,831��	-4028
76������	-4029
7��(����	-4030
American	-4031
ficiency	-4032
▁0.47%��	-4033
▁1,855,4	-4034
▁10:00��	-4035
▁14,541,	-4036
▁17.����	-4037
▁17:00��	-4038
▁19:00��	-4039
▁2,102��	-4040
▁2,600��	-4041
▁2005��5	-4042
▁2005��8	-4043
▁2009��1	-4044
▁2009��7	-4045
▁2010��6	-4046
▁2011��7	-4047
▁2012��5	-4048
▁2013��5	-4049
▁22.����	-4050
▁24.����	-4051
▁29.����	-4052
▁312,101	-4053
▁34,523,	-4054
▁34,611,	-4055
▁4,500��	-4056
▁479����	-4057
▁6,000��	-4058
▁7������	-4059
▁9������	-4060
▁Medical	-4061
▁Nations	-4062
▁surgery	-4063
▁�˱�����	-4064
▁�˾�����	-4065
▁�⿬�����	-4066
▁��10893	-4067
▁��13521	-4068
▁��14014	-4069
▁��14��,	-4070
▁��152��	-4071
▁��168��	-4072
▁��17551	-4073
▁��213��	-4074
▁��21744	-4075
▁��217��	-4076
▁��21��,	-4077
▁��221��	-4078
▁��227��	-4079
▁��23015	-4080
▁��236��	-4081
▁��250��	-4082
▁��257��	-4083
▁��262��	-4084
▁��26553	-4085
▁��30��,	-4086
▁��389��	-4087
▁��418��	-4088
▁��913��	-4089
▁���±���	-4090
▁���»���	-4091
▁���׼���	-4092
▁���߻���	-4093
▁���⸻���	-4094
▁����1��	-4095
▁����¡��	-4096
▁�����鿡�	-4097
▁�����񽺸�	-4098
▁���𰡰���	-4099
▁�򰡴�����	-4100
�?������	-4101
��(1968.	-4102
��(2009.	-4103
��(2011.	-4104
��(����,	-4105
��๰����,	-4106
�������.	-4107
0,610����	-4108
3,680����	-4109
:10������	-4110
thumbnail	-4111
߻���(����	-4112
▁0.013%��	-4113
▁106,610,	-4114
▁1998�⵵��	-4115
▁1��(����	-4116
▁2,632,77	-4117
▁2005����	-4118
▁2006��18	-4119
▁2006��28	-4120
▁2007��10	-4121
▁2007��29	-4122
▁2008��11	-4123
▁2008��35	-4124
▁2008��48	-4125
▁2008��99	-4126
▁2009��35	-4127
▁2009��77	-4128
▁2009��80	-4129
▁2010��69	-4130
▁2010��77	-4131
▁258,545,	-4132
▁4.������	-4133
▁74��1393	-4134
▁96��3852	-4135
▁�׷�����,	-4136
▁�߿������	-4137
▁�⿩(����)	-4138
▁�������	-4139
▁��209��,	-4140
▁��25����	-4141
▁��275��,	-4142
▁��34����	-4143
▁��42����	-4144
▁��49����	-4145
▁��50����	-4146
▁��52����	-4147
▁��54����	-4148
▁��62����	-4149
▁��64����	-4150
▁��70����	-4151
▁��751��,	-4152
▁���¿����	-4153
▁���޴��󿡼�	-4154
▁���⿡����	-4155
▁�������	-4156
▁����(199	-4157
▁����(��,	-4158
▁����(��1	-4159
▁����(��3	-4160
▁����)[6]	-4161
▁����-���	-4162
▁����/���	-4163
▁�����⵶��	-4164
▁�������°	-4165
▁�����򿡵�,	-4166
�͹�������	-4167
���(2001.	-4168
���(2008.	-4169
�����(���	-4170
��������࿡	-4171
syndicated	-4172
▁(��)����,	-4173
▁11.������	-4174
▁16:00����	-4175
▁20.������	-4176
▁2007��354	-4177
▁2007����5	-4178
▁2009��118	-4179
▁2016��201	-4180
▁91��23707	-4181
▁92��48413	-4182
▁96,954,65	-4183
▁98��12270	-4184
▁98��31264	-4185
▁98��38623	-4186
▁98��39633	-4187
▁98��50586	-4188
▁98��62671	-4189
▁Contracts	-4190
▁�1�������	-4191
▁�޼�������	-4192
▁�޿�������	-4193
▁��(������	-4194
▁��101����	-4195
▁��125����	-4196
▁��13����4	-4197
▁��174����	-4198
▁��239��),	-4199
▁��265����	-4200
▁��266����	-4201
▁��415����	-4202
▁��447����	-4203
▁��623��).	-4204
▁��734����	-4205
▁��765����	-4206
▁���԰�����	-4207
▁���׹�����	-4208
▁���׼�����	-4209
▁���׿�����	-4210
▁���޺�����	-4211
▁�����3���	-4212
▁�����°���	-4213
▁�����޺���	-4214
▁�������÷�	-4215
▁�������׵�	-4216
▁�������࡯�	-4217
▁�񱳡�������	-4218
������޿���	-4219
�������(��	-4220
,000,000���	-4221
▁10��27����	-4222
▁2001��2129	-4223
▁2005������	-4224
▁2007��3162	-4225
▁2007��5069	-4226
▁2010��6680	-4227
▁Convention	-4228
▁�߿��׼�����	-4229
▁���������	-4230
▁��12������	-4231
▁��19������	-4232
▁��527����5	-4233
▁���޴������	-4234
▁���⹰������	-4235
▁���⿹������	-4236
▁����(2008.	-4237
▁����)(����	-4238
▁�����˹����	-4239
▁�����޴����	-4240
▁���������˻	-4241
▁���������鿡	-4242
�����(1993.	-4243
����������(	-4244
����������࿡	-4245
▁2000��22249	-4246
▁2000��72572	-4247
▁2001��24891	-4248
▁2002��45185	-4249
▁2002��50149	-4250
▁2002��63565	-4251
▁2003��52647	-4252
▁2003����262	-4253
▁2004��35199	-4254
▁2005��29474	-4255
▁2005��32999	-4256
▁2005��44138	-4257
▁2005��48994	-4258
▁2007��17161	-4259
▁2007��6024,	-4260
▁2008��38288	-4261
▁2008��53812	-4262
▁2008��77405	-4263
▁2008��84229	-4264
▁2009��29366	-4265
▁2009��66969	-4266
▁2009��82060	-4267
▁2009��91828	-4268
▁2009��95714	-4269
▁2010��79947	-4270
▁3,937������	-4271
▁�߻���������	-4272
▁��10����4��	-4273
▁��134������	-4274
▁��390������	-4275
▁��671������	-4276
▁���߿�������	-4277
▁����(��׵)��	-4278
▁����)������	-4279
▁�����÷�����	-4280
▁�������·���	-4281
▁����������	-4282
▁��������[2]	-4283
▁���������࡯�	-4284
����)�������	-4285
3������������	-4286
▁2000��37524,	-4287
▁2001��62251,	-4288
▁2004��70420,	-4289
▁2008��90095,	-4290
▁3,416,704,42	-4291
▁88,668,811��	-4292
▁��23��������	-4293
▁����).������	-4294
▁����[(��)��]	-4295
▁������(2003.	-4296
▁������(2011.	-4297
▁�����������⸦	-4298
�������(1994.	-4299
▁1,700,000����	-4300
▁14,541,426,75	-4301
▁180,690,457��	-4302
▁2,963,680����	-4303
▁International	-4304
▁����[(��)��],	-4305
▁����������(��	-4306
���(��)(������	-4307
����������)���	-4308
▁(�������������	-4309
▁99,190,610����	-4310
▁���๰����������	-4311
▁������(����)��	-4312
���(��)��������	-4313
���������(2011.	-4314
����������(����	-4315
,000,000,000����	-4316
▁180,690,457����	-4317
▁324,240,778����	-4318
▁�޼�������������	-4319
▁�����°���������	-4320
▁�����޿���������	-4321
����������(2006.	-4322
%(	-4323
-3	-4324
-8	-4325
.,	-4326
/8	-4327
2�	-4328
3-	-4329
4-	-4330
5~	-4331
7�	-4332
9)	-4333
;�	-4334
Ap	-4335
BC	-4336
BP	-4337
CD	-4338
CF	-4339
Ch	-4340
DR	-4341
GO	-4342
HI	-4343
IC	-4344
Jo	-4345
Mc	-4346
NN	-4347
SS	-4348
TD	-4349
TO	-4350
VE	-4351
aO	-4352
as	-4353
dn	-4354
do	-4355
dy	-4356
ee	-4357
hn	-4358
ie	-4359
iz	-4360
kg	-4361
os	-4362
pa	-4363
rb	-4364
re	-4365
to	-4366
ub	-4367
ul	-4368
us	-4369
wa	-4370
ws	-4371
xp	-4372
yd	-4373
~6	-4374
°,	-4375
åȸ	-4376
ñǰ	-4377
õǸ	-4378
üä	-4379
þƼ	-4380
ĵȡ	-4381
Ÿű	-4382
Ÿų	-4383
ŹG	-4384
žȿ	-4385
Ʒÿ	-4386
ǰǴ	-4387
ǵǰ	-4388
Ƿẹ	-4389
ǽL	-4390
Ǿȿ	-4391
ȥŹ	-4392
ȭź	-4393
ȭǥ	-4394
Ȱų	-4395
Ȱȯ	-4396
ȵȴ	-4397
ȸû	-4398
ȸǥ	-4399
ȸȭ	-4400
ɽÿ	-4401
ɽĻ	-4402
˳�	-4403
˹�	-4404
ͷκ	-4405
ιλ	-4406
κε	-4407
Ϸῡ	-4408
Ϻγ	-4409
Һо	-4410
Ҽӱ	-4411
ӼҼ	-4412
ش١	-4413
صل	-4414
ٲٴ	-4415
ڰݼ	-4416
ڱع	-4417
ڱݸ	-4418
ݹݾ	-4419
߽�	-4420
ࡱ�	-4421
▁m	-4422
▁~	-4423
▁£	-4424
▁Ģ	-4425
▁Į	-4426
▁ķ	-4427
▁Ƣ	-4428
▁Ʃ	-4429
ⱳó	-4430
�5	-4431
�˻	-4432
�߽	-4433
�𵨸	-4434
񡯶�	-4435
񱳸�	-4436
񽺴�	-4437
򰡵�	-4438
򼺰�	-4439
򼺿�	-4440
󱸸�	-4441
󱼿�	-4442
󸶴�	-4443
󿡰�	-4444
+3.	-4445
004	-4446
007	-4447
010	-4448
018	-4449
0�⿡	-4450
1)(	-4451
1,8	-4452
1.5	-4453
1.7	-4454
104	-4455
11]	-4456
12]	-4457
18,	-4458
235	-4459
241	-4460
246	-4461
25(	-4462
263	-4463
265	-4464
273	-4465
275	-4466
279	-4467
293	-4468
3,4	-4469
3.5	-4470
356	-4471
37,	-4472
390	-4473
396	-4474
4.5	-4475
418	-4476
443	-4477
47%	-4478
493	-4479
498	-4480
503	-4481
522	-4482
524	-4483
533	-4484
592	-4485
6%,	-4486
635	-4487
651	-4488
673	-4489
678	-4490
685	-4491
7),	-4492
72,	-4493
72-	-4494
745	-4495
755	-4496
76.	-4497
779	-4498
794	-4499
144	-4500
19(	-4501
230	-4502
316	-4503
357	-4504
416	-4505
795	-4506
797	-4507
807	-4508
809	-4509
856	-4510
869	-4511
898	-4512
9,5	-4513
927	-4514
929	-4515
931	-4516
974	-4517
AGI	-4518
BIS	-4519
CPA	-4520
DZǸ	-4521
MAS	-4522
OOD	-4523
RED	-4524
REN	-4525
URL	-4526
Uni	-4527
all	-4528
ank	-4529
aya	-4530
bil	-4531
dro	-4532
erv	-4533
gen	-4534
igh	-4535
ign	-4536
ile	-4537
isp	-4538
ley	-4539
man	-4540
oma	-4541
ool	-4542
ple	-4543
thm	-4544
und	-4545
yst	-4546
·ʹ�	-4547
ǵDZ	-4548
ɼǰŷ	-4549
˻�,	-4550
԰�,	-4551
׶��	-4552
׷�,	-4553
׹޾�	-4554
ٲۇٴ	-4555
߽��	-4556
೻��	-4557
▁(1	-4558
▁1(	-4559
▁25	-4560
▁3(	-4561
▁38	-4562
▁41	-4563
▁44	-4564
▁49	-4565
▁54	-4566
▁5]	-4567
▁63	-4568
▁64	-4569
▁6]	-4570
▁7)	-4571
▁76	-4572
▁78	-4573
▁83	-4574
▁95	-4575
▁Se	-4576
▁fa	-4577
▁la	-4578
▁õȣ	-4579
▁ûŹ	-4580
▁Ưȭ	-4581
▁ȭü	-4582
▁�͹	-4583
▁�׹	-4584
▁�޹	-4585
▁�	-4586
▁�	-4587
▁�	-4588
▁�񵵽	-4589
▁�򰡶	-4590
▁�򰡾	-4591
▁�󸰰	-4592
▁�󼳱	-4593
⸻��	-4594
⿹��	-4595
��	-4596
��	-4597
��	-4598
�],	-4599
,73	-4600
/26	-4601
/4,	-4602
049	-4603
120	-4604
134	-4605
14(	-4606
141	-4607
142	-4608
149	-4609
220	-4610
268	-4611
294	-4612
30,	-4613
326	-4614
329	-4615
654	-4616
865	-4617
920	-4618
mon	-4619
tip	-4620
ŵǰų	-4621
▁no	-4622
▁ȥŹ	-4623
�˻�	-4624
��1	-4625
��·	-4626
��¿	-4627
��˸	-4628
��԰	-4629
��׸	-4630
��鿪	-4631
��	-4632
��󡤿	-4633
(��)	-4634
-404	-4635
-502	-4636
0,58	-4637
06��	-4638
073,	-4639
1%��	-4640
1,72	-4641
1275	-4642
1313	-4643
1406	-4644
153,	-4645
160,	-4646
1683	-4647
17,1	-4648
18��	-4649
1915	-4650
2%��	-4651
2,44	-4652
2,88	-4653
2,90	-4654
2181	-4655
238,	-4656
2491	-4657
2600	-4658
273,	-4659
2748	-4660
287,	-4661
2882	-4662
294�	-4663
3062	-4664
363,	-4665
397,	-4666
4365	-4667
4701	-4668
4���	-4669
5,85	-4670
5.61	-4671
54��	-4672
5933	-4673
6%��	-4674
6,34	-4675
6069	-4676
66%,	-4677
66��	-4678
6849	-4679
694,	-4680
7044	-4681
709,	-4682
72%)	-4683
723,	-4684
7558	-4685
7619	-4686
8%��	-4687
8,26	-4688
8.16	-4689
8.57	-4690
8131	-4691
825,	-4692
836,	-4693
894,	-4694
8��,	-4695
9,98	-4696
965,	-4697
ISBP	-4698
OOCL	-4699
06,	-4700
060	-4701
21,	-4702
22,	-4703
3,7	-4704
342	-4705
347	-4706
348	-4707
4,0	-4708
480	-4709
482	-4710
499	-4711
51,	-4712
587	-4713
6,0	-4714
6,5	-4715
669	-4716
691	-4717
740	-4718
747	-4719
let	-4720
mun	-4721
phy	-4722
uri	-4723
ľǵǴ	-4724
▁tr	-4725
105,	-4726
1447	-4727
293,	-4728
3,24	-4729
3038	-4730
3830	-4731
543,	-4732
6,17	-4733
7721	-4734
7730	-4735
89%,	-4736
YMCA	-4737
emis	-4738
form	-4739
fort	-4740
high	-4741
imal	-4742
iple	-4743
melo	-4744
orum	-4745
port	-4746
rade	-4747
sted	-4748
stup	-4749
tice	-4750
tudy	-4751
ural	-4752
wins	-4753
yndr	-4754
׵��)	-4755
׻���	-4756
޴���	-4757
޸���	-4758
޼���	-4759
▁(10	-4760
▁1,0	-4761
▁1.2	-4762
▁1/2	-4763
▁101	-4764
▁105	-4765
▁109	-4766
▁10:	-4767
▁115	-4768
▁120	-4769
▁148	-4770
▁1�⿡	-4771
▁2.,	-4772
▁220	-4773
▁265	-4774
▁3,5	-4775
▁3,7	-4776
▁3.�	-4777
▁302	-4778
▁318	-4779
▁337	-4780
▁347	-4781
▁36-	-4782
▁36.	-4783
▁36�	-4784
▁379	-4785
▁38,	-4786
▁3�⿡	-4787
▁4.,	-4788
▁4.6	-4789
▁4.�	-4790
▁40~	-4791
▁416	-4792
▁42,	-4793
▁427	-4794
▁434	-4795
▁5.4	-4796
▁500	-4797
▁54,	-4798
▁598	-4799
453	-4800
496	-4801
545	-4802
602	-4803
639	-4804
670	-4805
684	-4806
739	-4807
892	-4808
con	-4809
ect	-4810
ist	-4811
mov	-4812
▁Ac	-4813
▁CO	-4814
▁or	-4815
)�˻�	-4816
-505	-4817
178,	-4818
1989	-4819
237,	-4820
45),	-4821
4760	-4822
6,51	-4823
602,	-4824
679,	-4825
TCDD	-4826
ޡޡޡޱ	-4827
▁57,	-4828
▁6.)	-4829
▁60%	-4830
▁628	-4831
▁64.	-4832
▁68.	-4833
▁7.�	-4834
▁73.	-4835
▁8.(	-4836
▁80%	-4837
▁80,	-4838
▁802	-4839
▁820	-4840
▁860	-4841
▁89.	-4842
▁9.�	-4843
▁94,	-4844
▁967	-4845
▁CIC	-4846
▁Car	-4847
▁Dar	-4848
▁Hey	-4849
▁Ins	-4850
▁PaO	-4851
▁Pol	-4852
▁Rep	-4853
▁SaO	-4854
▁Sec	-4855
▁Vir	-4856
▁[8]	-4857
▁bag	-4858
▁dam	-4859
▁def	-4860
▁lia	-4861
▁way	-4862
▁�ʺ�	-4863
▁�ʾ	-4864
▁�˼�	-4865
▁�׽�	-4866
▁�޽�	-4867
▁�⵵�	-4868
▁��	-4869
▁��-	-4870
▁�󵵴�	-4871
▁�󸲺�	-4872
�(4.	-4873
�1⁄2	-4874
�200	-4875
�7��	-4876
�[5]	-4877
���:	-4878
���ࡤ	-4879
���󿩱	-4880
񱳹���	-4881
񺯻���	-4882
󸶿���	-4883
󿬱���	-4884
(=���	-4885
,000,	-4886
,802,	-4887
01��,	-4888
106��	-4889
11715	-4890
12899	-4891
12���	-4892
16280	-4893
16713	-4894
17292	-4895
1898.	-4896
1908,	-4897
1��),	-4898
20007	-4899
1�	-4900
333	-4901
421	-4902
422	-4903
574	-4904
579	-4905
646	-4906
785	-4907
806	-4908
CPU	-4909
DPE	-4910
anc	-4911
fal	-4912
ory	-4913
صلى	-4914
▁0-	-4915
▁02	-4916
▁De	-4917
(199	-4918
-504	-4919
1021	-4920
1033	-4921
2126	-4922
2751	-4923
3411	-4924
350,	-4925
5635	-4926
6,75	-4927
6328	-4928
9446	-4929
964,	-4930
John	-4931
▁0.0	-4932
▁121	-4933
▁50,	-4934
▁ICA	-4935
▁Oil	-4936
▁Res	-4937
▁�ʼ�	-4938
�.�׼	-4939
(��46	-4940
21821	-4941
22276	-4942
23,78	-4943
23,96	-4944
23050	-4945
29%��	-4946
3,648	-4947
32053	-4948
328��	-4949
33333	-4950
37414	-4951
37647	-4952
3��(=	-4953
3��).	-4954
3���,	-4955
41499	-4956
44%��	-4957
46511	-4958
465��	-4959
47989	-4960
4��),	-4961
50610	-4962
52402	-4963
53197	-4964
53638	-4965
54282	-4966
55126	-4967
56��,	-4968
58491	-4969
63���	-4970
66691	-4971
67,95	-4972
69638	-4973
7,844	-4974
70��,	-4975
72599	-4976
76��,	-4977
774,9	-4978
7��(=	-4979
800��	-4980
846,9	-4981
96%��	-4982
:12��	-4983
:28��	-4984
:40��	-4985
:55��	-4986
URREN	-4987
ative	-4988
early	-4989
erebr	-4990
false	-4991
genic	-4992
omain	-4993
phylo	-4994
quity	-4995
ssing	-4996
xpend	-4997
·���,	-4998
˻�)��	-4999
-55	-5000
888	-5001
905	-5002
Apg	-5003
gro	-5004
icy	-5005
ome	-5006
ǽñǿ	-5007
ǽõǰ	-5008
ǽõǸ	-5009
ǾȰǡ	-5010
▁EL	-5011
023,	-5012
071,	-5013
1,95	-5014
1381	-5015
1690	-5016
2094	-5017
2407	-5018
2904	-5019
4093	-5020
5,09	-5021
5973	-5022
6873	-5023
798,	-5024
8411	-5025
845,	-5026
MOPS	-5027
▁28�	-5028
▁31�	-5029
▁402	-5030
▁99%	-5031
▁Llo	-5032
▁[7]	-5033
10479	-5034
24502	-5035
483,9	-5036
70600	-5037
:22��	-5038
:24��	-5039
Apgar	-5040
drows	-5041
group	-5042
inter	-5043
͸����	-5044
޵����	-5045
޿����	-5046
߼���)	-5047
▁0.03	-5048
▁1)��	-5049
▁1,00	-5050
▁1,26	-5051
▁1,58	-5052
▁10.)	-5053
▁10.�	-5054
▁107,	-5055
▁108,	-5056
▁116,	-5057
▁12.�	-5058
▁14.,	-5059
▁172,	-5060
▁173,	-5061
▁178,	-5062
▁1��)	-5063
▁2)��	-5064
▁2,27	-5065
▁2,32	-5066
▁20%,	-5067
▁2015	-5068
▁2016	-5069
▁2017	-5070
▁202,	-5071
▁203,	-5072
▁208,	-5073
▁209,	-5074
▁211,	-5075
▁212,	-5076
▁229,	-5077
▁22:0	-5078
▁231,	-5079
▁2406	-5080
▁267,	-5081
▁2849	-5082
▁286,	-5083
▁287,	-5084
▁29.)	-5085
▁291,	-5086
▁299,	-5087
▁2~3�	-5088
▁3,26	-5089
▁30.)	-5090
▁30.,	-5091
▁302,	-5092
▁303,	-5093
▁31.)	-5094
▁31.,	-5095
▁313,	-5096
▁314,	-5097
▁31��	-5098
▁328,	-5099
Hun	-5100
att	-5101
ode	-5102
▁Un	-5103
▁po	-5104
▁źõ	-5105
,300	-5106
229,	-5107
425,	-5108
465,	-5109
:30�	-5110
Hunt	-5111
ames	-5112
uman	-5113
▁505	-5114
▁Num	-5115
▁pol	-5116
03��)	-5117
33048	-5118
42797	-5119
69631	-5120
77848	-5121
99105	-5122
inked	-5123
▁140,	-5124
▁292,	-5125
▁298,	-5126
▁2]��	-5127
▁329,	-5128
▁37��	-5129
▁4,57	-5130
▁40%,	-5131
▁42��	-5132
▁46,1	-5133
▁5,10	-5134
▁5,68	-5135
▁50%�	-5136
▁6%��	-5137
▁68��	-5138
▁6968	-5139
▁73��	-5140
▁76��	-5141
▁78��	-5142
▁79��	-5143
▁Disp	-5144
▁ELIS	-5145
▁Hess	-5146
▁Pain	-5147
▁[200	-5148
▁same	-5149
▁�1⁄2	-5150
▁�1��	-5151
▁�˰�,	-5152
▁�˼�,	-5153
▁�׺�(	-5154
▁�׺�,	-5155
▁�׼�,	-5156
▁�޶󡱴�	-5157
▁��).	-5158
▁��29	-5159
▁��4,	-5160
▁��5,	-5161
▁��55	-5162
▁���ʾ	-5163
▁���׸	-5164
▁���޾	-5165
▁���ᳪ	-5166
▁���䷮	-5167
▁���	-5168
▁���	-5169
▁���񱳴	-5170
▁���󺹱	-5171
▁�򰡾׸�	-5172
����	-5173
����	-5174
�(��7	-5175
�)[7]	-5176
�1߻��	-5177
�ʿ���	-5178
�޺���	-5179
�߻���	-5180
��267	-5181
��2��	-5182
��[3]	-5183
��[4]	-5184
��¡��	-5185
��׿��	-5186
��߽��	-5187
���.�	-5188
���˿�	-5189
���׼�	-5190
����.	-5191
���񽺸�	-5192
(1984.	-5193
(2002.	-5194
)���׼�	-5195
,560��	-5196
010,68	-5197
0����,	-5198
0����3	-5199
rep	-5200
rhy	-5201
▁ĪŸ	-5202
񼮳󵵸�	-5203
4266	-5204
pool	-5205
▁96-	-5206
▁��	-5207
1485,	-5208
1962.	-5209
2390,	-5210
25611	-5211
25865	-5212
29945	-5213
34426	-5214
39013	-5215
45537	-5216
53865	-5217
6,726	-5218
61615	-5219
61689	-5220
cyber	-5221
event	-5222
gment	-5223
▁1403	-5224
▁160,	-5225
▁228,	-5226
▁331,	-5227
▁9328	-5228
▁PaCO	-5229
��150	-5230
1.28��	-5231
105,96	-5232
128%��	-5233
14����	-5234
17����	-5235
1�����	-5236
2008��	-5237
24��].	-5238
24����	-5239
251,68	-5240
26��).	-5241
2�����	-5242
3,419,	-5243
32828,	-5244
32��).	-5245
48����	-5246
5,423,	-5247
533,14	-5248
53��),	-5249
54��).	-5250
60072,	-5251
66��).	-5252
66��8,	-5253
68����	-5254
812,90	-5255
agency	-5256
harmon	-5257
munity	-5258
oolley	-5259
rhythm	-5260
wasted	-5261
°�����	-5262
·(����	-5263
˭��)��	-5264
޹�����	-5265
޼�����	-5266
▁)����	-5267
▁0.3��	-5268
▁03:40	-5269
▁1,100	-5270
▁1,300	-5271
▁1,500	-5272
▁10��)	-5273
▁10��,	-5274
▁11)��	-5275
▁125��	-5276
▁14,14	-5277
▁17��,	-5278
▁185.5	-5279
▁19.��	-5280
▁1910.	-5281
▁1912.	-5282
▁1938.	-5283
▁1939.	-5284
▁1941.	-5285
▁1951.	-5286
▁1965.	-5287
▁1967.	-5288
▁1969.	-5289
▁1970.	-5290
▁1983.	-5291
▁19:50	-5292
▁1��)�	-5293
▁2,200	-5294
▁20~30	-5295
▁230��	-5296
▁2�⿩��	-5297
▁2��2]	-5298
▁3,934	-5299
ASP	-5300
DRP	-5301
TER	-5302
قمم	-5303
▁to	-5304
-510	-5305
rans	-5306
▁(9)	-5307
▁04:	-5308
▁Arb	-5309
▁LTD	-5310
▁MGO	-5311
▁�񱳸�	-5312
▁�󱼿�	-5313
)(1)(	-5314
/80��	-5315
1,838	-5316
11956	-5317
31018	-5318
31361	-5319
39898	-5320
44327	-5321
44674	-5322
50308	-5323
Mcres	-5324
erate	-5325
iture	-5326
▁Name	-5327
▁UDRP	-5328
��񼮳󵵴�	-5329
�𵨸���	-5330
+3.72%	-5331
047,55	-5332
075,69	-5333
920���	-5334
MASTER	-5335
▁30���	-5336
▁32835	-5337
▁33%��	-5338
▁332��	-5339
▁414��	-5340
▁450��	-5341
▁455��	-5342
▁45���	-5343
▁47038	-5344
▁48%��	-5345
▁4��19	-5346
▁570��	-5347
▁6.���	-5348
▁60089	-5349
▁677,4	-5350
▁68,38	-5351
▁69,88	-5352
▁700��	-5353
▁75%��	-5354
▁91��4	-5355
▁92��4	-5356
▁990��	-5357
▁Names	-5358
▁Syndr	-5359
▁[����	-5360
▁�3⁄4	-5361
▁�3⁄4	-5362
▁�»���	-5363
▁�˺���	-5364
▁�˻��	-5365
▁�׵鿡��	-5366
▁�޹���	-5367
▁���,	-5368
▁��105	-5369
▁��106	-5370
▁��110	-5371
▁��114	-5372
▁��125	-5373
▁��178	-5374
▁��291	-5375
▁��301	-5376
▁��302	-5377
▁��305	-5378
▁��36�	-5379
▁��535	-5380
▁��667	-5381
▁��887	-5382
▁��996	-5383
▁���ʹ�	-5384
▁���˿�	-5385
▁���׵鿡	-5386
▁���޸�	-5387
▁���޹޴	-5388
▁���߻�	-5389
▁���߾	-5390
▁���࡯(	-5391
▁���๮�	-5392
▁���๰�	-5393
▁����	-5394
▁���񽺴�	-5395
▁���񿡼�	-5396
▁���򼺰�	-5397
▁���򼺿�	-5398
▁���󡯰�	-5399
▁tip	-5400
74560	-5401
9311,	-5402
DERED	-5403
Himal	-5404
igned	-5405
ystem	-5406
▁230,	-5407
▁472-	-5408
▁bank	-5409
▁tree	-5410
▁�󸰰��	-5411
��󡤿��	-5412
(1898.	-5413
1,721,	-5414
47014,	-5415
694,94	-5416
825,56	-5417
bility	-5418
letter	-5419
melody	-5420
moving	-5421
stupor	-5422
▁-2,44	-5423
▁-5.61	-5424
▁4294�	-5425
▁71915	-5426
▁Forum	-5427
▁ICANN	-5428
▁Virus	-5429
▁grade	-5430
▁study	-5431
▁���󱸸�	-5432
▁�򰡵���	-5433
▁�򰡶���	-5434
▁�򰡿���	-5435
▁�󱼱���	-5436
�����	-5437
�'����	-5438
�(��47	-5439
�.���	-5440
�⵵����	-5441
��)[2]	-5442
��°���	-5443
��׶���	-5444
��׷���	-5445
��׸���	-5446
��޿���	-5447
��鿪���	-5448
�����	-5449
���(=�	-5450
���°��	-5451
�����	-5452
����(�	-5453
����°�	-5454
����·�	-5455
����˹�	-5456
����԰�	-5457
����׵�	-5458
�����	-5459
��󿡼���	-5460
󸶡�����	-5461
(����),	-5462
,000�޷�	-5463
,736,51	-5464
-11����	-5465
-20%)��	-5466
071,609	-5467
097����	-5468
10��)��	-5469
164����	-5470
1�����	-5471
2,359��	-5472
205,800	-5473
29,237,	-5474
3,684,9	-5475
460����	-5476
500����	-5477
520����	-5478
600����	-5479
65��)��	-5480
65����7	-5481
698,646	-5482
789����	-5483
850����	-5484
89��)��	-5485
990����	-5486
Suction	-5487
Uniform	-5488
harmony	-5489
tractor	-5490
urities	-5491
~100)��	-5492
׷������	-5493
▁1,000,	-5494
▁1,510,	-5495
▁1,836,	-5496
▁1.1%��	-5497
▁1.25��	-5498
▁1001��	-5499
Equity	-5500
SURREN	-5501
▁ELISA	-5502
▁Human	-5503
▁Lloyd	-5504
passing	-5505
▁15,250	-5506
▁152,68	-5507
▁16.��,	-5508
▁163,24	-5509
▁1949��	-5510
▁1955��	-5511
▁1983��	-5512
▁1992��	-5513
▁1��)��	-5514
▁1����,	-5515
▁2000�⵵	-5516
▁2004�⿡	-5517
▁2010�⿡	-5518
▁24����	-5519
▁3,350,	-5520
▁3.24��	-5521
▁38,775	-5522
▁3���ʿ�	-5523
▁40����	-5524
▁42,568	-5525
▁4278��	-5526
▁45,616	-5527
▁45����	-5528
▁47021,	-5529
▁475,09	-5530
▁4����,	-5531
▁5,679,	-5532
▁591,95	-5533
▁6)����	-5534
▁64.203	-5535
▁6]����	-5536
▁751-2,	-5537
▁751-3,	-5538
▁751-4,	-5539
▁86����	-5540
▁8���ʿ�	-5541
▁9001��	-5542
▁91��35	-5543
▁923,96	-5544
▁93��16	-5545
▁93��27	-5546
▁94��36	-5547
▁95��24	-5548
▁95��87	-5549
▁98��17	-5550
▁98����	-5551
▁99��38	-5552
▁Arbitr	-5553
▁Clause	-5554
▁Corpor	-5555
▁Domain	-5556
▁Heyman	-5557
▁Linked	-5558
▁Policy	-5559
▁WECPNL	-5560
▁clause	-5561
▁damage	-5562
▁expend	-5563
▁notice	-5564
▁�˱��԰�	-5565
▁�׼���,	-5566
▁�޸����	-5567
▁�޾��޿�	-5568
▁�߿��׼�	-5569
▁�⵵����	-5570
▁�����	-5571
▁��)[3]	-5572
▁��1116	-5573
▁��1118	-5574
▁��1957	-5575
▁��3725	-5576
▁��4118	-5577
▁��41��	-5578
▁��4226	-5579
▁��4506	-5580
▁��5116	-5581
▁��51��	-5582
▁��54��	-5583
▁��55��	-5584
▁��5��-	-5585
▁��6004	-5586
▁��6987	-5587
▁��6�׿�	-5588
▁��71��	-5589
▁��7352	-5590
▁��7353	-5591
▁��73��	-5592
▁��7583	-5593
▁��8050	-5594
▁��8127	-5595
▁��8340	-5596
▁��8366	-5597
▁��8496	-5598
▁��8581	-5599
▁��85��	-5600
▁��8630	-5601
▁��87��	-5602
▁��9361	-5603
▁��9405	-5604
▁��9425	-5605
▁��9727	-5606
▁��9746	-5607
▁��9905	-5608
▁���1�(	-5609
▁���»��	-5610
▁���԰�,	-5611
▁���׶��	-5612
▁���׷�,	-5613
▁���׼��	-5614
▁���޼��	-5615
▁���޿��	-5616
▁���߿ʹ�	-5617
▁���࡯��	-5618
▁���⵵��	-5619
▁����],	-5620
▁����].	-5621
▁�����˱	-5622
▁�����	-5623
▁�����	-5624
▁���𵨸��	-5625
������	-5626
�(2005.	-5627
�(2007.	-5628
�(2016.	-5629
�(��3��	-5630
�(��4��	-5631
�(��9��	-5632
�(����)	-5633
�)�����	-5634
�.�����	-5635
�1⁄2���	-5636
�˼�����	-5637
���(��׵	-5638
���˻���	-5639
����1�,	-5640
����԰��	-5641
������	-5642
�����(=	-5643
�����(�	-5644
�����¿�	-5645
�����׿�	-5646
������÷	-5647
������⵵	-5648
������⿡	-5649
������񡤼	-5650
���񼮳���	-5651
���󿡼���	-5652
,000��(=	-5653
03������	-5654
30������	-5655
36������	-5656
3����2��	-5657
4,024���	-5658
5�������	-5659
6��(����	-5660
812,908,	-5661
9��(����	-5662
Himalaya	-5663
National	-5664
▁0.44%��	-5665
▁00:05��	-5666
▁01:05��	-5667
▁1,774,9	-5668
▁109,238	-5669
▁127,300	-5670
▁13:00��	-5671
▁14:00��	-5672
▁15:00��	-5673
▁164,800	-5674
▁16:00��	-5675
▁17:30��	-5676
▁1990���	-5677
▁1998��,	-5678
▁1~2����	-5679
▁2004��5	-5680
▁2005��7	-5681
▁2006��5	-5682
▁2008��4	-5683
▁2009��3	-5684
▁200����	-5685
▁2011��8	-5686
▁2012��9	-5687
▁20:20��	-5688
▁21:00��	-5689
▁22:50��	-5690
▁23:30��	-5691
▁23:35��	-5692
▁266,600	-5693
▁2~3����	-5694
▁3.����,	-5695
▁393,648	-5696
▁4,100��	-5697
▁481����	-5698
▁49,293,	-5699
▁4������	-5700
▁5,600��	-5701
▁5.����,	-5702
▁50%����	-5703
▁50,965,	-5704
▁51.28��	-5705
▁5��(��,	-5706
▁6,600��	-5707
▁628����	-5708
▁68��725	-5709
▁69,073,	-5710
▁6��)���	-5711
▁6��8%��	-5712
▁7,600��	-5713
▁8,500��	-5714
▁846����	-5715
▁89.66%,	-5716
▁9,000��	-5717
▁92��947	-5718
▁96��301	-5719
▁Darwins	-5720
▁Dispute	-5721
▁Numbers	-5722
▁Woolley	-5723
▁comfort	-5724
▁defence	-5725
▁several	-5726
▁�3⁄4��	-5727
▁�3�����	-5728
▁�˰�����	-5729
▁�׵�����	-5730
▁�׻�����	-5731
▁�޷�����	-5732
▁�޼�����	-5733
▁�⿩�����	-5734
▁��)[10]	-5735
▁��)[11]	-5736
▁��100��	-5737
▁��10361	-5738
▁��103��	-5739
▁��104��	-5740
▁��10587	-5741
▁��105��	-5742
▁��10698	-5743
▁��10�׿�	-5744
▁��110��	-5745
▁��11194	-5746
▁��1125(	-5747
▁��11690	-5748
▁��11814	-5749
▁��118��	-5750
▁��12094	-5751
▁��120��	-5752
▁��12115	-5753
▁��12751	-5754
▁��128��	-5755
▁��12��,	-5756
▁��13453	-5757
▁��136��	-5758
▁��13��,	-5759
▁��14083	-5760
▁��16069	-5761
▁��16284	-5762
▁��164��	-5763
▁��16�׿�	-5764
▁��16��,	-5765
▁��178��	-5766
▁��183��	-5767
▁��197��	-5768
▁��19935	-5769
▁��2004-	-5770
▁��2005.	-5771
▁��2006.	-5772
▁��2009.	-5773
▁��20189	-5774
▁��205��	-5775
▁��20722	-5776
▁��211��	-5777
▁��21765	-5778
▁��22160	-5779
▁��22254	-5780
▁��226��	-5781
▁��233��	-5782
▁��23��,	-5783
▁��24307	-5784
▁��245��	-5785
▁��25��,	-5786
▁��2��],	-5787
▁��315��	-5788
▁��368��	-5789
▁��377��	-5790
▁��387��	-5791
▁��390��	-5792
▁��396��	-5793
▁��414��	-5794
▁��416��	-5795
▁��43��,	-5796
▁��441��	-5797
▁��444��	-5798
▁��46��,	-5799
▁��49��,	-5800
▁��500��	-5801
▁��51��,	-5802
▁��52��,	-5803
▁��59��,	-5804
▁��61��,	-5805
▁��659��	-5806
▁��682��	-5807
▁��741��	-5808
▁��750��	-5809
▁��769��	-5810
▁��83��,	-5811
▁��840��	-5812
▁��9��),	-5813
▁���˰���	-5814
▁�����˳�	-5815
▁�����͸�	-5816
▁�����޹�	-5817
▁�����࡯�	-5818
▁������	-5819
▁�����򰡵�	-5820
▁�����򰡸�	-5821
▁�����򰡾�	-5822
▁�����󡱰�	-5823
▁���񽺿���	-5824
▁�󡤰�����	-5825
▁�󱼱�����	-5826
�(4.72%)	-5827
�(=�����	-5828
�(���⿹��	-5829
�(����)�	-5830
�[��64��	-5831
��(2005.	-5832
��(2012.	-5833
��(2014.	-5834
��(�����	-5835
��˸�����	-5836
��԰�����	-5837
���(��)(	-5838
���(��)�	-5839
���ࡤ����	-5840
�������	-5841
����(���	-5842
����)���	-5843
����¿���	-5844
����޿���	-5845
�����;׿�	-5846
������÷�	-5847
106������	-5848
196,720��	-5849
3�������,	-5850
400,000��	-5851
4��������	-5852
500,000��	-5853
8,269����	-5854
:35������	-5855
▁(5,000��	-5856
▁-5.61%��	-5857
▁0.128%��	-5858
▁1,488.16	-5859
▁1,533,14	-5860
▁153,419,	-5861
▁160,964,	-5862
▁1991����	-5863
▁1996����	-5864
▁1999�⿡��	-5865
▁1�������	-5866
▁2,694,94	-5867
▁2002��34	-5868
▁2002��68	-5869
▁2003��18	-5870
▁2004��39	-5871
▁2004��48	-5872
▁2004��94	-5873
▁2005��38	-5874
▁2005��62	-5875
▁2005��65	-5876
▁2005��70	-5877
▁2006��37	-5878
▁2006��87	-5879
▁2007��12	-5880
▁2007��13	-5881
▁2007��16	-5882
▁2007��18	-5883
▁2007��27	-5884
▁2007��44	-5885
▁2007��70	-5886
▁2008��15	-5887
▁2008��17	-5888
▁2008��18	-5889
▁2008��30	-5890
▁2009��11	-5891
▁2009��14	-5892
▁2009��16	-5893
▁2009��20	-5894
▁2009��26	-5895
▁2009��31	-5896
▁2009��36	-5897
▁2009��45	-5898
▁2009��58	-5899
▁2009��59	-5900
▁2009��85	-5901
▁2009��98	-5902
▁2010��10	-5903
▁2010��11	-5904
▁2010��13	-5905
▁2010��15	-5906
▁2010��26	-5907
▁2010��29	-5908
▁2010��78	-5909
▁2010��99	-5910
▁2011��17	-5911
▁2011��18	-5912
▁2011��88	-5913
▁2012��24	-5914
▁2012��75	-5915
▁2015��20	-5916
▁20������	-5917
▁26.5����	-5918
▁2849����	-5919
▁29.����,	-5920
▁3,047,55	-5921
▁3,251,68	-5922
▁337,802,	-5923
▁40.29%��	-5924
▁46,846,9	-5925
▁46������	-5926
▁677,458,	-5927
▁80��2904	-5928
▁87.96%��	-5929
▁9.������	-5930
▁912,533,	-5931
▁93��6560	-5932
▁94��1517	-5933
▁96��5933	-5934
▁97��1716	-5935
▁97��4760	-5936
▁Assigned	-5937
▁Immunode	-5938
▁Internet	-5939
▁Syndrome	-5940
▁shipping	-5941
▁�3⁄4�(��	-5942
▁�3�(����	-5943
▁�ʹ�����,	-5944
▁�˻�����,	-5945
▁�˻����񽺸�	-5946
▁�׸������	-5947
▁�׼�(=���	-5948
▁�߽�����,	-5949
▁��(�����	-5950
▁��+3.72%	-5951
▁��162��,	-5952
▁��21����	-5953
▁��24����	-5954
▁��2����,	-5955
▁��2�����	-5956
▁��31����	-5957
▁��376��,	-5958
▁��390��)	-5959
▁��393��,	-5960
▁��3��)��	-5961
▁��3����3	-5962
▁��423��,	-5963
▁��4��)��	-5964
▁��501��,	-5965
▁��55����	-5966
▁��59����	-5967
▁��5�׿���	-5968
▁��68����	-5969
▁��7�׿���	-5970
▁��8�׿���	-5971
▁��93����	-5972
▁���¿���.	-5973
▁���޵����	-5974
▁���޸����	-5975
▁���޹޵���	-5976
▁���޹����	-5977
▁���޺����	-5978
▁�������	-5979
▁�������	-5980
▁���￴����	-5981
▁����)��,	-5982
▁����)���	-5983
▁����.���	-5984
▁����[12]	-5985
▁�����3��	-5986
▁�����˼�,	-5987
▁�����޹��	-5988
▁�����๰��	-5989
▁������)�	-5990
▁�������£	-5991
▁�������·	-5992
▁�������÷	-5993
▁�������⵵	-5994
▁�������	-5995
▁�������𺴿	-5996
▁�����򰡾��	-5997
▁���𰡾����	-5998
▁���񱳴����	-5999
▁�󼳱������	-6000
�(��1��),	-6001
�(��2��),	-6002
�(��2��).	-6003
�.[������	-6004
�1�������	-6005
�޾�������	-6006
��)2009��	-6007
��)2011��	-6008
��)������	-6009
���(1962.	-6010
���(1992.	-6011
���(2013.	-6012
���)(����	-6013
���)�����	-6014
����)����	-6015
�����˰���	-6016
������)��	-6017
������࡯��	-6018
������೻��	-6019
��������)	-6020
��������޽	-6021
��������򰡹	-6022
(���������	-6023
500,000��,	-6024
67,831����	-6025
6����(����	-6026
contractor	-6027
phylogenic	-6028
▁(10,000��	-6029
▁(��������	-6030
▁1,486,726	-6031
▁10,010,68	-6032
▁103,684,9	-6033
▁106,610,8	-6034
▁15.������	-6035
▁19.������	-6036
▁1��������	-6037
▁2,199,516	-6038
▁2,321,838	-6039
▁2002��700	-6040
▁2003��340	-6041
▁2003��402	-6042
▁2008��177	-6043
▁2008��207	-6044
▁2008��445	-6045
▁2009��101	-6046
▁2009��424	-6047
▁2010��259	-6048
▁2010��368	-6049
▁2011��215	-6050
▁2012��105	-6051
▁21,075,69	-6052
▁25.������	-6053
▁397,225,8	-6054
▁46,123,78	-6055
▁5,687,844	-6056
▁5��������	-6057
▁6,000����	-6058
▁810,000��	-6059
▁91��32053	-6060
▁91��44674	-6061
▁92~100)��	-6062
▁92��31361	-6063
▁93��11715	-6064
▁93��52402	-6065
▁93��61703	-6066
▁94��20730	-6067
▁95��32747	-6068
▁967������	-6069
▁97��20007	-6070
▁97��47989	-6071
▁97��54482	-6072
▁97��55126	-6073
▁97��58491	-6074
▁99��10479	-6075
▁99��42797	-6076
▁99��66328	-6077
▁99��69631	-6078
▁99��70600	-6079
▁community	-6080
▁liability	-6081
▁�3�������	-6082
▁�°�������	-6083
▁�ʻ�������	-6084
▁�޶�������	-6085
▁�߽�������	-6086
▁�߾�������	-6087
▁��100����	-6088
▁��110����	-6089
▁��117����	-6090
▁��134����	-6091
▁��135����	-6092
▁��138����	-6093
▁��14����2	-6094
▁��15����2	-6095
▁��164����	-6096
▁��180����	-6097
▁��197����	-6098
▁��2009-56	-6099
▁��204��),	-6100
▁��23����5	-6101
▁��271����	-6102
▁��278����	-6103
▁��291����	-6104
▁��32����2	-6105
▁��338����	-6106
▁��341��).	-6107
▁��358����	-6108
▁��378����	-6109
▁��396����	-6110
▁��40����3	-6111
▁��424��].	-6112
▁��432��).	-6113
▁��466��).	-6114
▁��46����2	-6115
▁��576����	-6116
▁��578����	-6117
▁��5������	-6118
▁��67����2	-6119
▁��681����	-6120
▁��682��).	-6121
▁��741��).	-6122
▁��758����	-6123
▁��826��).	-6124
▁��8������	-6125
▁��¡������	-6126
▁���±�����	-6127
▁���޼�����	-6128
▁���߿�����	-6129
▁���(����	-6130
▁����'����	-6131
▁����1����	-6132
▁����2����	-6133
▁����7����	-6134
▁�����÷���	-6135
▁�����԰���	-6136
▁�����׻���	-6137
▁�����޶���	-6138
▁�����߾���	-6139
▁�����߿���	-6140
▁�������ʹ�	-6141
▁�������߿�	-6142
▁�������񽺾�	-6143
▁�����󰢺���	-6144
▁�񵵽�������	-6145
▁�򰡹�������	-6146
▁�򰡺�������	-6147
�(��11��),	-6148
�(��25��),	-6149
�(��53��),	-6150
�(��54��).	-6151
��(����)��	-6152
���.������	-6153
����(2005.	-6154
����(2013.	-6155
������(��3	-6156
��������޿�	-6157
����򰡹�����	-6158
,000��(����	-6159
100,000����	-6160
1⁄4��޻�����	-6161
800,000����	-6162
825,560����	-6163
SURRENDERED	-6164
▁-2,441����	-6165
▁135,736,51	-6166
▁15,000,000	-6167
▁15,698,646	-6168
▁1963������	-6169
▁1993������	-6170
▁1998�⵵����	-6171
▁2,195,423,	-6172
▁2001��2181	-6173
▁2001������	-6174
▁2002��6965	-6175
▁2002��8131	-6176
▁2003��6873	-6177
▁2004��3038	-6178
▁2005��3229	-6179
▁2006��1381	-6180
▁2006��4876	-6181
▁2006��9446	-6182
▁2006������	-6183
▁2007��2275	-6184
▁2007��8411	-6185
▁2009��1050	-6186
▁2009��1313	-6187
▁2009��6980	-6188
▁2009������	-6189
▁2010��1204	-6190
▁3.(������)	-6191
▁34,611,502	-6192
▁397,225,86	-6193
▁3��1�����	-6194
▁4,329,237,	-6195
▁591,956,34	-6196
▁65��������	-6197
▁860,000�޷�	-6198
▁93��32828,	-6199
▁Resolution	-6200
▁Securities	-6201
▁�¿���(����	-6202
▁�ʹ��������	-6203
▁�߻���(����	-6204
▁�߻�������,	-6205
▁��13������	-6206
▁��165����7	-6207
▁��186����2	-6208
▁��1����2��	-6209
▁��214��)��	-6210
▁��21������	-6211
▁��266����3	-6212
▁��27������	-6213
▁��2��(����	-6214
▁��415����2	-6215
▁���¿�����,	-6216
▁���ʿ��񰡰���	-6217
▁���๰������	-6218
▁����(2013.	-6219
▁����(2015.	-6220
▁����(��)��	-6221
▁����(����,	-6222
▁����).����	-6223
▁����)�����	-6224
▁����.�����	-6225
▁�����÷����	-6226
▁�����ʿ����	-6227
▁������(��2	-6228
▁�������1�,	-6229
▁�������԰�,	-6230
▁�������๰��	-6231
▁�������⸸��	-6232
▁���������	-6233
▁��������(�	-6234
▁���������࿡	-6235
▁���������	-6236
�(��47��)��	-6237
�.����¡����	-6238
��(��������	-6239
����������	-6240
���(��)��(�	-6241
�����(1998.	-6242
�����(2009.	-6243
�������(���	-6244
�������)[2]	-6245
��������)��	-6246
��������˱��	-6247
����������)	-6248
����������,	-6249
(��������)��	-6250
640.61�޷�)��	-6251
▁08:00������	-6252
▁11.(������)	-6253
▁2000��34426	-6254
▁2000��37647	-6255
▁2000��46511	-6256
▁2001��33048	-6257
▁2001��52407	-6258
▁2001��9311,	-6259
▁2002��31018	-6260
▁2002��53865	-6261
▁2002��63411	-6262
▁2002��6951,	-6263
▁2002����14,	-6264
▁2003��2390,	-6265
▁2003��50610	-6266
▁2003��61689	-6267
▁2003��69638	-6268
▁2004��16280	-6269
▁2004��25611	-6270
▁2004��53197	-6271
▁2004��54282	-6272
▁2005��16713	-6273
▁2005��21821	-6274
▁2005��31033	-6275
▁2005��32197	-6276
▁2005��39013	-6277
▁2005��45537	-6278
▁2006��18228	-6279
▁2006��28256	-6280
▁2006��29945	-6281
▁2006��33333	-6282
▁2006��35865	-6283
▁2006��39898	-6284
▁2006��48465	-6285
▁2007��25865	-6286
▁2007��29379	-6287
▁2007��37721	-6288
▁2007��51703	-6289
▁2007��63409	-6290
▁2007��64365	-6291
▁2007��74560	-6292
▁2007��85973	-6293
▁2007����109	-6294
▁2008��22276	-6295
▁2008��37414	-6296
▁2008��41499	-6297
▁2008��48490	-6298
▁2008��53638	-6299
▁2008��61615	-6300
▁2008��72882	-6301
▁2008��73830	-6302
▁2008��77795	-6303
▁2009��44327	-6304
▁2009��50308	-6305
▁2009��72599	-6306
▁2009��99105	-6307
▁2010��18829	-6308
▁2010��18850	-6309
▁2010��51406	-6310
▁2010��53419	-6311
▁2010��76849	-6312
▁2010��95635	-6313
▁2010��97044	-6314
▁2013��17292	-6315
▁2013��20109	-6316
▁258,545,739	-6317
▁2����������	-6318
▁324,240,778	-6319
▁7��)�������	-6320
▁912,990����	-6321
▁98����11956	-6322
▁Arbitration	-6323
▁Corporation	-6324
▁expenditure	-6325
▁�°���������	-6326
▁��(��������	-6327
▁��104������	-6328
▁��125������	-6329
▁��16����2��	-6330
▁��178������	-6331
▁��23��(����	-6332
▁��449������	-6333
▁��576������	-6334
▁��6��(2005.	-6335
▁���๰�������	-6336
▁����(˭��)��	-6337
▁�����˻�����	-6338
▁�����߻�����	-6339
▁�������¡���	-6340
▁�������¶���	-6341
▁�������׿���	-6342
▁��������(��	-6343
▁���������˻�	-6344
▁����������)	-6345
▁����������.	-6346
▁�������󸶿���	-6347
▁�������󿬱���	-6348
�(=�����޿���	-6349
��(���������	-6350
�����(������	-6351
������(1989.	-6352
����������ʹ�	-6353
International	-6354
▁(����)2008��	-6355
▁(����)2009��	-6356
▁(����)2012��	-6357
▁1,510,920���	-6358
▁1992��������	-6359
▁1996��������	-6360
▁2,632,770��,	-6361
▁2004��60072,	-6362
▁2004��������	-6363
▁2005��47014,	-6364
▁2006��71908,	-6365
▁2007����5209	-6366
▁2008��92312,	-6367
▁3,251,680,58	-6368
▁68,381,600��	-6369
▁69,073,465��	-6370
▁69,881,600��	-6371
▁¡�����������	-6372
▁��1112������	-6373
▁��1118������	-6374
▁����.�������	-6375
▁�����°������	-6376
▁�����޿��׿���	-6377
▁������(1999.	-6378
▁������(2004.	-6379
▁������(2005.	-6380
▁������(2006.	-6381
▁������(2013.	-6382
▁������(2014.	-6383
▁������(2015.	-6384
▁������(�����	-6385
▁�������߻����	-6386
▁�����������	-6387
▁��������(��)	-6388
▁���������鿡��	-6389
▁����������(�	-6390
▁�����������߿	-6391
▁�����������࿡	-6392
������񡤼������	-6393
▁1,533,142����	-6394
▁1,836,205,800	-6395
▁103,684,967��	-6396
▁163,242,359��	-6397
▁2,278,269����	-6398
▁2,694,940����	-6399
▁2008����23050	-6400
▁3,047,557����	-6401
▁30,000,000���	-6402
▁312,101,560��	-6403
▁337,802,328��	-6404
▁393,648,000��	-6405
▁5,679,394����	-6406
▁6,500,000����	-6407
▁662,043,106��	-6408
▁820,000������	-6409
▁��100��������	-6410
▁��1��(����)��	-6411
▁���˼���������	-6412
▁����(��1��)��	-6413
▁����(��30����	-6414
▁����(����)[7]	-6415
▁�����¡�������	-6416
▁�����÷�������	-6417
▁�����ʼ�������	-6418
▁�����޼�������	-6419
▁�����޾�������	-6420
▁������(�߼���)	-6421
▁������(��׵��)	-6422
▁������������	-6423
▁���������߻���	-6424
▁����������)��	-6425
▁�����������޴�	-6426
▁������������(	-6427
����°���������	-6428
����޹��������޽	-6429
�������������(	-6430
������������󹰿�	-6431
▁1,000,640.61�޷	-6432
▁1,488.16������	-6433
▁10,010,682����	-6434
▁17,000,000����	-6435
▁30,000,000����	-6436
▁34,523,421����	-6437
▁38,775,000����	-6438
▁46,846,958����	-6439
▁49,293,090����	-6440
▁50,965,250����	-6441
▁�����޼����ʿ���	-6442
▁���������3���,	-6443
▁�����������࡯��	-6444
���������(�����	-6445
▁1,855,467,831��	-6446
▁100,000,000����	-6447
▁109,238,000����	-6448
▁109,825,560����	-6449
▁110,000,000����	-6450
▁135,736,513����	-6451
▁15,000,000��)��	-6452
▁150,000,000����	-6453
▁160,964,090����	-6454
▁5,687,844������	-6455
▁677,458,300����	-6456
▁923,964,000����	-6457
▁��(=����������)	-6458
▁��2,000,000����	-6459
▁����(=��������)	-6460
▁������(��������	-6461
▁�������������߾�	-6462
▁�������������࡯�	-6463
�7��������������	-6464
���(��)(��������	-6465
���(��׵������)��	-6466
(+	-6467
(2	-6468
,9	-6469
.)	-6470
/4	-6471
5-	-6472
7-	-6473
7~	-6474
=1	-6475
AG	-6476
DO	-6477
EP	-6478
ES	-6479
GV	-6480
KO	-6481
NA	-6482
NG	-6483
PI	-6484
SM	-6485
cl	-6486
gh	-6487
ho	-6488
hr	-6489
li	-6490
ok	-6491
ýÿ	-6492
ýŰ	-6493
ġȯ	-6494
īƮ	-6495
űǹ	-6496
ŵǵ	-6497
Ƽĸ	-6498
ǰż	-6499
1-	-6500
UC	-6501
üȰ	-6502
ƽǷ	-6503
Ǵɺ	-6504
ǽĺ	-6505
ȭó	-6506
Ȱǿ	-6507
Ȳǥ	-6508
ɵǰ	-6509
ɼų	-6510
εΰ	-6511
κλ	-6512
ομ	-6513
мҡ	-6514
Ӻа	-6515
ٴڸ	-6516
ڱر	-6517
ۡ۵	-6518
޸�	-6519
޸𸮾	-6520
޻�	-6521
ࡤ�	-6522
࡯)	-6523
▁ݫ	-6524
⸶�	-6525
⸻�	-6526
�	-6527
�'	-6528
�/	-6529
�:	-6530
�߻	-6531
�߼	-6532
�߾	-6533
�	-6534
�	-6535
�	-6536
�￵	-6537
�񼮳	-6538
𷡰�	-6539
𺸰�	-6540
򰡽�	-6541
󰡴�	-6542
󵵡�	-6543
,33	-6544
-**	-6545
-1)	-6546
-��	-6547
011	-6548
06)	-6549
1,0	-6550
13%	-6551
173	-6552
225	-6553
25)	-6554
27,	-6555
271	-6556
289	-6557
305	-6558
306	-6559
319	-6560
364	-6561
373	-6562
3⁄4	-6563
4,3	-6564
4-1	-6565
420	-6566
431	-6567
437	-6568
440	-6569
450	-6570
466	-6571
540	-6572
547	-6573
561	-6574
571	-6575
590	-6576
599	-6577
6.8	-6578
677	-6579
75,	-6580
754	-6581
759	-6582
776	-6583
781	-6584
802	-6585
81,	-6586
84]	-6587
8].	-6588
921	-6589
934	-6590
AMA	-6591
Com	-6592
DEC	-6593
Dec	-6594
EDS	-6595
Hoc	-6596
Jac	-6597
Man	-6598
RUC	-6599
(1	-6600
7%	-6601
El	-6602
OP	-6603
if	-6604
ǽǿ	-6605
ȣü	-6606
ͷμ	-6607
ر۷	-6608
⿡�	-6609
�	-6610
�£	-6611
�°	-6612
�԰	-6613
�߿	-6614
󵵷�	-6615
623	-6616
895	-6617
BBK	-6618
OPö	-6619
Wes	-6620
_��	-6621
any	-6622
ble	-6623
egr	-6624
hol	-6625
hyl	-6626
igi	-6627
ith	-6628
lay	-6629
neg	-6630
orr	-6631
ors	-6632
ose	-6633
ran	-6634
roe	-6635
roj	-6636
sey	-6637
zel	-6638
~13	-6639
~16	-6640
ŸŽñ	-6641
ǸŽü	-6642
ʽ��	-6643
˻��	-6644
׷¿�	-6645
޵��	-6646
▁36	-6647
▁4(	-6648
▁43	-6649
▁5%	-6650
▁5:	-6651
▁6(	-6652
▁8%	-6653
▁86	-6654
▁97	-6655
▁AY	-6656
▁Ap	-6657
▁DB	-6658
▁WB	-6659
▁ev	-6660
▁õõ	-6661
▁ǥâ	-6662
▁�׾	-6663
▁�䷮	-6664
▁�𵨷	-6665
▁�𵿸	-6666
▁�񳭹	-6667
▁�񵵸	-6668
▁�񵿺	-6669
▁�񸮷	-6670
▁�򰡡	-6671
▁�󰡷	-6672
▁�󱸿	-6673
▁�󼱾	-6674
⵵��	-6675
⸶��	-6676
��	-6677
��	-6678
��	-6679
�3�	-6680
�4�	-6681
�޹޾	-6682
��;	-6683
��⵵	-6684
��	-6685
��񽺰	-6686
��򰡱	-6687
��򰡼	-6688
󸶻󿡼�	-6689
(13.	-6690
)201	-6691
)[4]	-6692
)�׿�	-6693
0228	-6694
065,	-6695
1,15	-6696
1.5%	-6697
1019	-6698
118,	-6699
(6	-6700
BS	-6701
WH	-6702
io	-6703
κγ	-6704
⸸�	-6705
鿩,	-6706
�	-6707
�ʽ	-6708
񡤰�	-6709
255	-6710
583	-6711
625	-6712
782	-6713
WHC	-6714
ian	-6715
jun	-6716
▁7%	-6717
▁�󰡿	-6718
��޹	-6719
1084	-6720
12��	-6721
136,	-6722
1372	-6723
1427	-6724
1444	-6725
1695	-6726
16��	-6727
1725	-6728
1746	-6729
175,	-6730
1878	-6731
1886	-6732
1985	-6733
1��)	-6734
2,03	-6735
2,22	-6736
2,36	-6737
2,81	-6738
2093	-6739
2259	-6740
2318	-6741
2337	-6742
2365	-6743
2467	-6744
2506	-6745
�	-6746
▁	-6747
,	-6748
.	-6749
Ͽ	-6750
1	-6751
ǰ	-6752
2	-6753
0	-6754
κ	-6755
Θ	-6756
Ǵ	-6757
)	-6758
(	-6759
3	-6760
ִ	-6761
ٰ	-6762
ȸ	-6763
Ѵ	-6764
9	-6765
Ƿ	-6766
û	-6767
4	-6768
5	-6769
ä	-6770
6	-6771
ٴ	-6772
ü	-6773
7	-6774
ǹ	-6775
ġ	-6776
8	-6777
ƴ	-6778
ع	-6779
μ	-6780
Ǹ	-6781
ȣ	-6782
Ǿ	-6783
å	-6784
]	-6785
[	-6786
ȯ	-6787
ȿ	-6788
̿	-6789
ڰ	-6790
׷	-6791
ε	-6792
δ	-6793
ϸ	-6794
ǽ	-6795
ǥ	-6796
ρ	-6797
߻	-6798
ҿ	-6799
ǻ	-6800
̸	-6801
Ȯ	-6802
־	-6803
Ư	-6804
̶	-6805
ڿ	-6806
ο	-6807
ų	-6808
Ҽ	-6809
ֽ	-6810
ΰ	-6811
ҹ	-6812
ǿ	-6813
׿	-6814
߾	-6815
ي	-6816
Ģ	-6817
̷	-6818
쿡	-6819
x	-6820
̴	-6821
Ÿ	-6822
ش	-6823
ó	-6824
ȭ	-6825
ν	-6826
ְ	-6827
ڷ	-6828
̳	-6829
Ű	-6830
Ҹ	-6831
̻	-6832
ŷ	-6833
Ź	-6834
Ⱓ	-6835
簡	-6836
Σ	-6837
	-6838
Ρ	-6839
r	-6840
ħ	-6841
ð	-6842
ɹ	-6843
߰	-6844
ظ	-6845
ذ	-6846
ʿ	-6847
Ұ	-6848
ȴ	-6849
Ǽ	-6850
ؼ	-6851
̰	-6852
ڵ	-6853
s	-6854
⿡	-6855
̹	-6856
Ʈ	-6857
鼭	-6858
縦	-6859
D	-6860
Ϻ	-6861
ڴ	-6862
ӿ	-6863
ι	-6864
߸	-6865
õ	-6866
ῡ	-6867
м	-6868
翡	-6869
α	-6870
޾	-6871
۹	-6872
ұ	-6873
б	-6874
Z	-6875
࿡	-6876
ÿ	-6877
Ⱒ	-6878
϶	-6879
·	-6880
ؿ	-6881
ֹ	-6882
ܰ	-6883
h	-6884
θ	-6885
迡	-6886
L	-6887
Կ	-6888
鿡	-6889
λ	-6890
о	-6891
ڽ	-6892
	-6893
ű	-6894
絵	-6895
ı	-6896
㺸	-6897
븮	-6898
۴	-6899
ɸ	-6900
ܿ	-6901
ں	-6902
װ	-6903
¿	-6904
Ӵ	-6905
ڸ	-6906
ؾ	-6907
Ҵ	-6908
ڱ	-6909
ż	-6910
踦	-6911
ô	-6912
ո	-6913
ݿ	-6914
ۼ	-6915
ٿ	-6916
ö	-6917
п	-6918
ݾ	-6919
̾	-6920
캸	-6921
ۇ	-6922
忡	-6923
޸	-6924
׼	-6925
ߴ	-6926
ռ	-6927
ģ	-6928
谡	-6929
ۿ	-6930
հ	-6931
Ե	-6932
ȹ	-6933
ư	-6934
ް	-6935
뿡	-6936
̵	-6937
᡼	-6938
᡽	-6939
ѵ	-6940
ŵ	-6941
Ȱ	-6942
â	-6943
߿	-6944
˻	-6945
۱	-6946
ϼ	-6947
Ȳ	-6948
ɿ	-6949
ٽ	-6950
䱸	-6951
ǵ	-6952
ݵ	-6953
ź	-6954
ƾ	-6955
׸	-6956
ݰ	-6957
Ǻ	-6958
ݼ	-6959
ñ	-6960
Ϸ	-6961
ʾ	-6962
ɻ	-6963
ѹ	-6964
߱	-6965
ر	-6966
١	-6967
ڻ	-6968
́	-6969
¡	-6970
%	-6971
Ż	-6972
°	-6973
и	-6974
e	-6975
ֵ	-6976
ҵ	-6977
л	-6978
ѱ	-6979
	-6980
繫	-6981
տ	-6982
ù	-6983
ܱ	-6984
ɼ	-6985
Խ	-6986
Ѱ	-6987
Ӹ	-6988
i	-6989
d	-6990
ޱ	-6991
Ѽ	-6992
޹	-6993
غ	-6994
Ḧ	-6995
⺻	-6996
Ӱ	-6997
з	-6998
ɷ	-6999
޴	-7000
޿	-7001
й	-7002
ũ	-7003
ϳ	-7004
Ͻ	-7005
o	-7006
Ϳ	-7007
԰	-7008
n	-7009
Ƶ	-7010
ӵ	-7011
Ŵ	-7012
ӱ	-7013
뵿	-7014
ǡ	-7015
ܼ	-7016
а	-7017
w	-7018
⸦	-7019
⁄	-7020
Ը	-7021
ֱ	-7022
a	-7023
t	-7024
:	-7025
ӹ	-7026
״	-7027
/	-7028
纯	-7029
꿡	-7030
ø	-7031
ּ	-7032
I	-7033
Բ	-7034
Ļ	-7035
缺	-7036
濡	-7037
Ⱑ	-7038
ƹ	-7039
ž	-7040
Ʒ	-7041
İ	-7042
ͻ	-7043
ص	-7044
Ѿ	-7045
Թ	-7046
ֿ	-7047
ػ	-7048
濵	-7049
ټ	-7050
㰡	-7051
÷	-7052
ܵ	-7053
ͳ	-7054
z	-7055
ҽ	-7056
纸	-7057
Һ	-7058
׺	-7059
ۡ	-7060
ľ	-7061
Ծ	-7062
޵	-7063
˰	-7064
η	-7065
༭	-7066
縳	-7067
뵵	-7068
m	-7069
ĺ	-7070
Դ	-7071
츮	-7072
=	-7073
ջ	-7074
ս	-7075
-	-7076
ߵ	-7077
Ͱ	-7078
C	-7079
緮	-7080
S	-7081
H	-7082
̱	-7083
ͼ	-7084
߽	-7085
信	-7086
	-7087
̧	-7088
輺	-7089
ƿ	-7090
۰	-7091
˾	-7092
ط	-7093
ī	-7094
޺	-7095
˷	-7096
ڹ	-7097
պ	-7098
	-7099
յ	-7100
⵵	-7101
ܺ	-7102
A	-7103
	-7104
ʹ	-7105
Ͼ	-7106
ӻ	-7107
ɰ	-7108
޼	-7109
๰	-7110
ļ	-7111
ݸ	-7112
P	-7113
l	-7114
á	-7115
ȫ	-7116
ϻ	-7117
ҷ	-7118
ᱹ	-7119
翬	-7120
ȥ	-7121
͸	-7122
ָ	-7123
Ƽ	-7124
ھ	-7125
山	-7126
c	-7127
Ա	-7128
н	-7129
⿩	-7130
M	-7131
˸	-7132
ۺ	-7133
Ҿ	-7134
׵	-7135
ӽ	-7136
̼	-7137
ݴ	-7138
ݽ	-7139
ֻ	-7140
۾	-7141
ڳ	-7142
̽	-7143
밡	-7144
ڡ	-7145
伺	-7146
B	-7147
O	-7148
y	-7149
䰡	-7150
ڼ	-7151
ݡ	-7152
޶	-7153
V	-7154
뿪	-7155
漭	-7156
롤	-7157
硤	-7158
뿩	-7159
켱	-7160
嵵	-7161
E	-7162
Ӿ	-7163
T	-7164
Ų	-7165
ͱ	-7166
簳	-7167
Ⱦ	-7168
ξ	-7169
ĥ	-7170
ٹ	-7171
u	-7172
Ȥ	-7173
к	-7174
ַ	-7175
޽	-7176
ܴ	-7177
	-7178
ѿ	-7179
뺸	-7180
	-7181
p	-7182
д	-7183
糪	-7184
缱	-7185
j	-7186
ú	-7187
ߺ	-7188
»	-7189
깰	-7190
巡	-7191
Ӻ	-7192
پ	-7193
ء	-7194
ݹ	-7195
ݻ	-7196
ֺ	-7197
	-7198
һ	-7199
g	-7200
Ī	-7201
͵	-7202
ݱ	-7203
Ž	-7204
Լ	-7205
ס	-7206
ܻ	-7207
߼	-7208
赵	-7209
ɱ	-7210
ޡ	-7211
塤	-7212
浹	-7213
R	-7214
﷯	-7215
ؽ	-7216
ٱ	-7217
N	-7218
ͅ	-7219
ൿ	-7220
ã	-7221
Ժ	-7222
޻	-7223
ᰡ	-7224
۵	-7225
򰡵	-7226
ý	-7227
ȳ	-7228
Ĺ	-7229
ۻ	-7230
༱	-7231
찡	-7232
	-7233
˱	-7234
࡯	-7235
캻	-7236
~	-7237
ɡ	-7238
뱸	-7239
֡	-7240
׶	-7241
硯	-7242
ζ	-7243
С	-7244
ձ	-7245
心	-7246
콺	-7247
͡	-7248
չ	-7249
ຸ	-7250
츦	-7251
ĵ	-7252
ͷ	-7253
Ӽ	-7254
ڶ	-7255
ɦ	-7256
ʼ	-7257
ƺ	-7258
뼱	-7259
븦	-7260
Ĵ	-7261
ŭ	-7262
ɵ	-7263
γ	-7264
ӷ	-7265
巯	-7266
鿩	-7267
󰡰	-7268
󿡼	-7269
̺	-7270
е	-7271
߳	-7272
ܹ	-7273
⹰	-7274
쵵	-7275
ݺ	-7276
ū	-7277
׻	-7278
޷	-7279
뱤	-7280
b	-7281
Ȧ	-7282
ض	-7283
م	-7284
幰	-7285
氨	-7286
谨	-7287
迵	-7288
˼	-7289
߷	-7290
򰡸	-7291
亯	-7292
񽺸	-7293
f	-7294
Ǫ	-7295
˿	-7296
ѻ	-7297
ⱸ	-7298
	-7299
Ȩ	-7300
ѷ	-7301
و	-7302
	-7303
¶	-7304
ϡ	-7305
Ի	-7306
س	-7307
񼭸	-7308
U	-7309
ȼ	-7310
ɴ	-7311
ӡ	-7312
ƽ	-7313
ʡ	-7314
Ῡ	-7315
׹	-7316
졯	-7317
	-7318
򰡿	-7319
K	-7320
v	-7321
Ǯ	-7322
ҳ	-7323
ܡ	-7324
巛	-7325
質	-7326
򰡹	-7327
Ѻ	-7328
ܷ	-7329
ܾ	-7330
꼱	-7331
۽	-7332
갡	-7333
ķ	-7334
尡	-7335
泲	-7336
򰡱	-7337
F	-7338
G	-7339
߶	-7340
꼺	-7341
k	-7342
Ʋ	-7343
⸻	-7344
籹	-7345
鸸	-7346
꼼	-7347
W	-7348
ȱ	-7349
簨	-7350
롯	-7351
'	-7352
衤	-7353
鵵	-7354
𰡾	-7355
󾾿	-7356
󿬱	-7357
þ	-7358
ɺ	-7359
ԡ	-7360
۷	-7361
带	-7362
밴	-7363
	-7364
񱳴	-7365
񿡼	-7366
󼺰	-7367
Y	-7368
Ŭ	-7369
˵	-7370
㸦	-7371
彡	-7372
湮	-7373
缭	-7374
迬	-7375
򰡾	-7376
+	-7377
X	-7378
±	-7379
ĸ	-7380
Է	-7381
ٲ	-7382
籸	-7383
Ķ	-7384
ƻ	-7385
ȵ	-7386
Ⱥ	-7387
˹	-7388
ܸ	-7389
顯	-7390
͹	-7391
ѽ	-7392
մ	-7393
վ	-7394
ݷ	-7395
Ἥ	-7396
纻	-7397
뼺	-7398
	-7399
£	-7400
Ƴ	-7401
ʽ	-7402
๮	-7403
⡤	-7404
⸸	-7405
渷	-7406
縮	-7407
캴	-7408
캼	-7409
	-7410
	-7411
	-7412
߹	-7413
Ṯ	-7414
⵶	-7415
ⷮ	-7416
㳶	-7417
硼	-7418
꼭	-7419
빰	-7420
	-7421
;	-7422
ɽ	-7423
Ѷ	-7424
ا	-7425
⡯	-7426
⺸	-7427
屳	-7428
籤	-7429
뷮	-7430
빫	-7431
󰡸	-7432
š	-7433
г	-7434
ـ	-7435
َ	-7436
ّ	-7437
ߡ	-7438
ࡤ	-7439
⳪	-7440
帧	-7441
氡	-7442
溸	-7443
漼	-7444
衯	-7445
ꡤ	-7446
뼼	-7447
ƶ	-7448
ʺ	-7449
ٺ	-7450
ణ	-7451
迭	-7452
ꡯ	-7453
쿬	-7454
	-7455
񽺿	-7456
󼭴	-7457
󼼺	-7458
Į	-7459
Ƚ	-7460
ʻ	-7461
ͽ	-7462
ҡ	-7463
ݳ	-7464
ᳪ	-7465
桤	-7466
潺	-7467
븲	-7468
츸	-7469
̡	-7470
̲	-7471
ᡯ	-7472
⺹	-7473
︮	-7474
Ľ	-7475
׽	-7476
⿬	-7477
⿹	-7478
躯	-7479
긮	-7480
￴	-7481
񱳡	-7482
ɾ	-7483
Ѹ	-7484
౹	-7485
ᵵ	-7486
Ḹ	-7487
縸	-7488
갨	-7489
Ŷ	-7490
ױ	-7491
ἱ	-7492
䳻	-7493
塯	-7494
귮	-7495
뿵	-7496
쳪	-7497
񼮳	-7498
󰡿	-7499
󿩱	-7500
¥	-7501
Ƹ	-7502
ա	-7503
ֶ	-7504
ج	-7505
౸	-7506
೻	-7507
༺	-7508
ẹ	-7509
㱸	-7510
峲	-7511
帶	-7512
庴	-7513
忬	-7514
繰	-7515
豸	-7516
财	-7517
迹	-7518
	-7519
󵵴	-7520
󹰿	-7521
Ҷ	-7522
൵	-7523
ᡤ	-7524
⵿	-7525
⺰	-7526
㸮	-7527
並	-7528
弱	-7529
浵	-7530
缳	-7531
	-7532
𵨷	-7533
𸣴	-7534
򰡼	-7535
򿡵	-7536
󵵸	-7537
Ʊ	-7538
˴	-7539
ӳ	-7540
ֲ	-7541
ູ	-7542
Ẹ	-7543
Ἲ	-7544
䡯	-7545
䵵	-7546
尳	-7547
巳	-7548
巹	-7549
帣	-7550
常	-7551
汳	-7552
輱	-7553
굿	-7554
밳	-7555
븳	-7556
𵨸	-7557
𸣰	-7558
𿡰	-7559
񽺼	-7560
񿵸	-7561
򰡴	-7562
󡤰	-7563
󡯰	-7564
󸶵	-7565
󸶿	-7566
󺴿	-7567
$	-7568
*	-7569
ȡ	-7570
ѡ	-7571
ֳ	-7572
׳	-7573
۸	-7574
ุ	-7575
←	-7576
浿	-7577
溴	-7578
簢	-7579
系	-7580
索	-7581
踸	-7582
輭	-7583
볪	-7584
빮	-7585
	-7586
	-7587
￰	-7588
񽺾	-7589
򰡰	-7590
󡯴	-7591
󵵰	-7592
󸶰	-7593
󸶳	-7594
󸶸	-7595
Q	-7596
q	-7597
շ	-7598
ܽ	-7599
ݲ	-7600
᳻	-7601
Ⱘ	-7602
㿡	-7603
䱳	-7604
峪	-7605
彺	-7606
渮	-7607
걤	-7608
걺	-7609
곪	-7610
븸	-7611
뺻	-7612
쳻	-7613
𳪹	-7614
󡤼	-7615
󡯿	-7616
󸲺	-7617
Ƕ	-7618
˺	-7619
ث	-7620
ن	-7621
ߧ	-7622
఻	-7623
෮	-7624
屸	-7625
漺	-7626
跮	-7627
鷯	-7628
麸	-7629
鼼	-7630
굵	-7631
긦	-7632
꺯	-7633
볻	-7634
족	-7635
쿭	-7636
	-7637
	-7638
	-7639
	-7640
񡤼	-7641
񴢱	-7642
󡱴	-7643
󵵿	-7644
?	-7645
J	-7646
ĩ	-7647
Ʃ	-7648
Ȼ	-7649
˳	-7650
ܳ	-7651
డ	-7652
༼	-7653
࿹	-7654
↓	-7655
⡱	-7656
ⱹ	-7657
庯	-7658
强	-7659
忩	-7660
桯	-7661
汤	-7662
絷	-7663
繮	-7664
纴	-7665
缼	-7666
赿	-7667
蹮	-7668
鿪	-7669
뱳	-7670
켭	-7671
	-7672
	-7673
𿡵	-7674
񰡰	-7675
񰡿	-7676
񱸿	-7677
򵵷	-7678
󰢺	-7679
󱼱	-7680
Ͷ	-7681
Τ	-7682
β	-7683
ѳ	-7684
Գ	-7685
ճ	-7686
׾	-7687
ٳ	-7688
ݫ	-7689
ࡱ	-7690
ࡹ	-7691
ᰨ	-7692
⸣	-7693
䡱	-7694
䷮	-7695
峻	-7696
弳	-7697
汹	-7698
決	-7699
湰	-7700
米	-7701
絿	-7702
縶	-7703
缾	-7704
罽	-7705
鰣	-7706
鸶	-7707
귯	-7708
깮	-7709
꼳	-7710
꿪	-7711
뱹	-7712
볳	-7713
뷫	-7714
뼷	-7715
뾿	-7716
쵿	-7717
	-7718
	-7719
	-7720
𰡰	-7721
𸥴	-7722
𺴿	-7723
𿡸	-7724
񡤰	-7725
񳭰	-7726
񸮿	-7727
񺰷	-7728
񽺱	-7729
򰡺	-7730
󡱰	-7731
󺹺	-7732
ĭ	-7733
ơ	-7734
Ƣ	-7735
Ǭ	-7736
ȶ	-7737
ɳ	-7738
ʁ	-7739
˭	-7740
ϭ	-7741
ж	-7742
Ѣ	-7743
ق	-7744
ل	-7745
ى	-7746
ڪ	-7747
ܶ	-7748
ߤ	-7749
߲	-7750
ఢ	-7751
భ	-7752
༳	-7753
ⱳ	-7754
⸶	-7755
㹫	-7756
䰭	-7757
俪	-7758
尢	-7759
層	-7760
峳	-7761
巾	-7762
帲	-7763
幮	-7764
汸	-7765
渶	-7766
漱	-7767
濬	-7768
纰	-7769
翴	-7770
翵	-7771
翹	-7772
谣	-7773
谩	-7774
豤	-7775
鰳	-7776
鳻	-7777
麴	-7778
굥	-7779
극	-7780
꺴	-7781
꿰	-7782
롱	-7783
롼	-7784
밨	-7785
방	-7786
뵷	-7787
뷡	-7788
뺰	-7789
뺴	-7790
뼭	-7791
뽺	-7792
뿬	-7793
뿭	-7794
	-7795
	-7796
	-7797
	-7798
	-7799
𵿸	-7800
񡯶	-7801
񱳸	-7802
񱳹	-7803
񵵽	-7804
񺯻	-7805
񽺴	-7806
򰡶	-7807
򼺰	-7808
򼺿	-7809
󡤿	-7810
󱸸	-7811
󱼿	-7812
󸰰	-7813
󸶡	-7814
󸶴	-7815
󺹱	-7816
󼳱	-7817
󿡰	-7818
^	-7819
_	-7820
ç	-7821
ť	-7822
ȷ	-7823
ʤ	-7824
˶	-7825
Ѳ	-7826
ղ	-7827
أ	-7828
د	-7829
ݤ	-7830
ݶ	-7831
޲	-7832
ళ	-7833
ఴ	-7834
౳	-7835
ೲ	-7836
ฮ	-7837
๫	-7838
࿬	-7839
࿵	-7840
ᢡ	-7841
ᳳ	-7842
Ἦ	-7843
Ⱙ	-7844
⳻	-7845
⸮	-7846
⺴	-7847
⿴	-7848
⿵	-7849
コ	-7850
㡤	-7851
㰣	-7852
䡤	-7853
亸	-7854
伭	-7855
伮	-7856
伱	-7857
佺	-7858
俬	-7859
俹	-7860
塱	-7861
塼	-7862
屺	-7863
帰	-7864
帷	-7865
幫	-7866
幺	-7867
庸	-7868
弮	-7869
徿	-7870
忰	-7871
念	-7872
忹	-7873
桱	-7874
氳	-7875
泻	-7876
洨	-7877
浢	-7878
淡	-7879
淮	-7880
淯	-7881
溯	-7882
溹	-7883
漮	-7884
澾	-7885
濭	-7886
硱	-7887
硸	-7888
簣	-7889
紩	-7890
綳	-7891
緡	-7892
縯	-7893
縲	-7894
縷	-7895
縻	-7896
缮	-7897
衱	-7898
谳	-7899
豺	-7900
賭	-7901
躰	-7902
輳	-7903
轺	-7904
迪	-7905
鰡	-7906
鳢	-7907
鳯	-7908
鿴	-7909
꡼	-7910
갣	-7911
갳	-7912
걸	-7913
긲	-7914
꼾	-7915
볭	-7916
뼳	-7917
뿴	-7918
뿹	-7919
췯	-7920
췹	-7921
켺	-7922
	-7923
	-7924
	-7925
	-7926
	-7927
	-7928
	-7929
	-7930
	-7931
	-7932
	-7933
￵	-7934
𡯶	-7935
𰡴	-7936
𵨰	-7937
𷡡	-7938
𷡰	-7939
𷡴	-7940
𷫼	-7941
𸣳	-7942
𸣵	-7943
𸮾	-7944
𸷿	-7945
𺸰	-7946
𼳸	-7947
񡤳	-7948
񱫻	-7949
񳭹	-7950
񳳺	-7951
񵵸	-7952
񵿺	-7953
񷦿	-7954
񸮷	-7955
񹮾	-7956
񼮵	-7957
񽺡	-7958
񽺰	-7959
񽺵	-7960
񽺻	-7961
񾾹	-7962
񿡴	-7963
񿵾	-7964
򰡡	-7965
򰡽	-7966
򸮰	-7967
򽺡	-7968
򽺷	-7969
󡤱	-7970
󡤸	-7971
󡤹	-7972
󡯶	-7973
󡯸	-7974
󡱶	-7975
󡸺	-7976
󰡴	-7977
󰡷	-7978
󰡺	-7979
󱸿	-7980
󳻿	-7981
󵵡	-7982
󵵵	-7983
󵵷	-7984
󵿼	-7985
󸣵	-7986
󸲸	-7987
󸶻	-7988
󹫷	-7989
󺸴	-7990
󼭸	-7991
󼱾	-7992
󼼾	-7993
󿡴	-7994
󿵰	-7995
