<pad>	0
<s>	0
</s>	0
<unk>	0
��	-0
▁��	-1
▁����	-2
▁�	-3
▁������	-4
���	-5
▁���	-6
����	-7
▁�����	-8
▁��������	-9
�����	-10
▁����������	-11
������	-12
�,	-13
▁2	-14
�������	-15
▁1	-16
�.	-17
▁�������	-18
▁20	-19
▁����,	-20
▁200	-21
▁ä	-22
▁��1	-23
��������	-24
▁3	-25
▁ȸ	-26
▁�׷	-27
▁������������	-28
�)	-29
▁�߻	-30
▁����.	-31
▁���������	-32
▁����(	-33
▁Ư	-34
���,	-35
يٴ	-36
▁��2	-37
���������	-38
▁������,	-39
▁x	-40
▁���߾	-41
▁Ȯ	-42
��)	-43
▁û	-44
��,	-45
▁���߾�	-46
▁��3	-47
׿�	-48
▁[	-49
�(	-50
▁ȯ	-51
5.	-52
▁����)	-53
▁4	-54
7.	-55
8.	-56
▁�	-57
6.	-58
���(	-59
9.	-60
0.	-61
1.	-62
00	-63
▁(	-64
▁201	-65
▁�׷���	-66
▁��,	-67
1]	-68
2]	-69
▁[1]	-70
▁��������������	-71
2.	-72
▁1��	-73
���.	-74
▁�߻���	-75
▁1.	-76
����������	-77
▁19	-78
▁å	-79
▁ü	-80
ǽû	-81
Ƿr	-82
▁ħ	-83
▁�ʿ	-84
[2]	-85
▁3.	-86
▁ǥ	-87
DZ	-88
▁2.	-89
▁����(����	-90
▁��.	-91
0��	-92
���(��)	-93
�����,	-94
▁�߻��	-95
▁2��	-96
▁����).	-97
�)��	-98
▁�׿�	-99
3.	-100
▁4.	-101
4.	-102
5��	-103
▁����(����)	-104
▁�׷��	-105
▁199	-106
▁ó	-107
▁ȿ	-108
�.����	-109
(����	-110
▁12.	-111
·�	-112
▁5.	-113
9��	-114
6��	-115
▁��1��	-116
▁��4	-117
ۇٴ	-118
▁ܰ	-119
▁�޾	-120
�����������	-121
8��	-122
▁�����������	-123
������)	-124
▁��1�	-125
�.������	-126
▁10.	-127
7��	-128
▁11.	-129
᡼��	-130
▁�޸	-131
▁�׼	-132
▁9	-133
▁��������,	-134
▁7.	-135
▁��1����	-136
▁�ʿ���	-137
▁����(�	-138
)��	-139
▁��7	-140
▁6.	-141
▁8.	-142
▁5	-143
3]	-144
▁��6	-145
▁(�	-146
▁�ʾ	-147
▁������(	-148
▁Ÿ	-149
3��	-150
▁�׸	-151
4��	-152
1��	-153
▁9.	-154
,00	-155
▁��3�	-156
▁́	-157
0����	-158
2��	-159
▁�޸�	-160
▁2007.	-161
׿���	-162
▁��2��	-163
▁3��	-164
▁���¿	-165
▁��2����	-166
ǽÿ	-167
▁ȭ	-168
▁2008.	-169
[3]	-170
▁�׸���	-171
鿡��	-172
▁2009.	-173
200	-174
������������	-175
▁ġ	-176
▁6	-177
▁��5	-178
▁��3����	-179
▁1,	-180
��(	-181
▁�	-182
▁2005.	-183
▁�߿	-184
▁��1���	-185
01	-186
▁�׷�����	-187
▁8	-188
▁26.	-189
1�,	-190
�(�	-191
▁2006.	-192
▁2010.	-193
࿡��	-194
▁����[2]	-195
▁����(��	-196
▁�˻	-197
▁ö	-198
▁���⿡	-199
▁��)	-200
▁�߻�	-201
▁1����	-202
��	-203
▁�׷�	-204
▁�3	-205
�.[2]	-206
▁��1�׿�	-207
▁7	-208
%��	-209
⁄4	-210
▁��9	-211
▁ȣ	-212
ŸŰ	-213
▁¡	-214
▁2009��	-215
▁�԰	-216
▁��8	-217
4]	-218
▁28.	-219
▁27.	-220
▁��2�	-221
▁25.	-222
▁[2]	-223
dz	-224
▁â	-225
▁2,	-226
▁29.	-227
1����	-228
▁���࿡	-229
¿�	-230
▁2004.	-231
▁30.	-232
▁���޹	-233
▁3����	-234
▁����),	-235
19	-236
▁4��	-237
▁��������(	-238
▁�������������	-239
6����	-240
▁�޴	-241
▁��	-242
°�	-243
▁2����	-244
▁2008��	-245
▁���	-246
▁���¿���	-247
▁/	-248
׷���	-249
▁�׺	-250
▁2003.	-251
����,	-252
޾�	-253
▁ٰ́	-254
▁13.	-255
��)�������	-256
(�	-257
▁̧	-258
3����	-259
·���	-260
[4]	-261
▁�˾	-262
,000	-263
▁23.	-264
10	-265
▁���¿�	-266
▁��1��,	-267
35	-268
▁14.	-269
▁�߿���	-270
25	-271
▁�	-272
▁���׿�	-273
▁�3⁄4	-274
˰�	-275
▁10	-276
23	-277
▁22.	-278
▁�԰�	-279
▁24.	-280
▁31.	-281
16	-282
�(����	-283
▁���	-284
▁���	-285
▁2011.	-286
▁ũ	-287
▁�׼���	-288
�(������	-289
▁2002.	-290
▁��1�׿���	-291
00��	-292
27	-293
ǥȸ	-294
▁3,	-295
▁������(�	-296
50	-297
▁��3��	-298
▁�˰�	-299
▁198	-300
▁21.	-301
,000��	-302
),	-303
޿���	-304
▁�׺���	-305
ǹǷ	-306
▁�߽	-307
▁5��	-308
▁2007��	-309
��(����	-310
24	-311
Θμ	-312
201	-313
▁1�	-314
ǰų	-315
ʿ�	-316
�������������	-317
26	-318
▁��2�׿�	-319
20	-320
ʹ�	-321
▁�⿩	-322
��),	-323
���(�	-324
õǾ	-325
Ϻθ	-326
��)��	-327
14	-328
▁��76	-329
▁����[3]	-330
��)���	-331
▁2010��	-332
29	-333
13	-334
▁�˷	-335
���(������)	-336
15	-337
28	-338
65	-339
▁�°	-340
▁�޼	-341
ȯû	-342
▁��10	-343
▁2006��	-344
77	-345
▁������(������)	-346
˻�	-347
▁H	-348
▁�޴�	-349
2����	-350
▁2001.	-351
18	-352
▁�����鿡	-353
�������,	-354
(200	-355
▁��9��	-356
▁����(����)[2]	-357
34	-358
▁15.	-359
▁���޵	-360
▁������)��	-361
17	-362
69	-363
▁�˸	-364
▁2005��	-365
ŸŴ	-366
߿�	-367
�)[2]	-368
▁2003��	-369
1,	-370
38	-371
▁(��)	-372
48	-373
▁�޶	-374
▁16.	-375
5����	-376
�(������)	-377
1)	-378
ðǼ	-379
4����	-380
▁2004��	-381
▁��39	-382
޿�	-383
▁Ȱ	-384
▁18.	-385
▁���๰	-386
2,	-387
4,	-388
47	-389
5,	-390
�),	-391
▁�������࿡	-392
▁4,	-393
▁�	-394
▁(1)	-395
▁�ʿ�	-396
▁�࿡��	-397
��1�,	-398
2)	-399
3,	-400
▁20.	-401
,000����	-402
▁���޹���	-403
58	-404
▁���	-405
▁���·�	-406
��������������	-407
37	-408
▁��67	-409
▁(2)	-410
▁�޾�	-411
�)����	-412
▁1999.	-413
▁����)��	-414
��(������)	-415
30	-416
��(�	-417
▁2002��	-418
40	-419
5]	-420
▁öȸ	-421
▁�߻�����	-422
▁�����鿡��	-423
▁�1	-424
▁1998.	-425
▁2000.	-426
▁�����߾	-427
6,	-428
ij	-429
39	-430
÷�	-431
0%��	-432
��).	-433
▁��4��	-434
▁����(=	-435
▁����������,	-436
49	-437
▁s	-438
�(��	-439
▁���	-440
▁��4����	-441
▁��������(����	-442
▁Ⱦ	-443
▁�޺	-444
▁[3]	-445
▁C	-446
▁ȥ	-447
▁�͸	-448
45	-449
▁�߾	-450
(������)	-451
▁5,	-452
▁�׵	-453
��࿡	-454
▁���	-455
▁��75	-456
▁��2��,	-457
���(����	-458
68	-459
IV	-460
▁ô	-461
▁ǰ	-462
▁�޸��	-463
▁�¿	-464
▁7��	-465
▁��9����	-466
▁�	-467
▁(����	-468
60	-469
67	-470
▁B	-471
▁ͅ	-472
▁��(	-473
▁���⿡��	-474
▁ã	-475
��.	-476
▁�ʾ�	-477
▁��5��	-478
▁����[	-479
▁�����޾	-480
▁���������������	-481
▁HIV	-482
�.[3]	-483
▁17.	-484
▁2012.	-485
▁���°�	-486
on	-487
ȭå	-488
▁2�	-489
޹���	-490
▁6��	-491
2007.	-492
▁2015.	-493
������,	-494
▁�򰡵	-495
▁19.	-496
▁�߿�	-497
)����	-498
▁98��	-499
70	-500
��鿡	-501
▁10��	-502
▁�ʿ��	-503
▁2013.	-504
▁�޶���	-505
8,	-506
▁A	-507
߻���	-508
▁�޼��	-509
▁�������������⸦	-510
޴�	-511
8����	-512
▁��766��	-513
er	-514
»��	-515
▁��17	-516
▁5����	-517
▁�˸���	-518
▁��10��	-519
▁1��)�������	-520
,	-521
▁��	-522
▁��16	-523
߻�����	-524
▁1992.	-525
▁10����	-526
▁2000��	-527
▁���߾�,	-528
▁�����޾�	-529
▁�����޿���	-530
���࿡	-531
▁������)	-532
Ϻΰ	-533
▁2014.	-534
▁�˷���	-535
▁���ʿ�	-536
▁1996.	-537
▁���߾���	-538
▁����[4]	-539
▁������(����	-540
53	-541
in	-542
ǰŷ	-543
▁�׶	-544
��׿�	-545
▁�����˻�	-546
9,	-547
԰�	-548
▁I	-549
▁S	-550
(��	-551
▁15	-552
��鿡��	-553
���),	-554
▁���࿡��	-555
▁������.	-556
12	-557
7,	-558
89	-559
ti	-560
▁M	-561
▁��6����	-562
▁��������(����)	-563
3)	-564
en	-565
޽�	-566
▁Ȥ	-567
▁�󰡰	-568
▁(3)	-569
▁���޺	-570
▁�3���	-571
▁�˻���	-572
▁2001��	-573
▁2011��	-574
▁��5����	-575
51	-576
▁0	-577
▁�˱	-578
߿���	-579
▁197	-580
���)	-581
▁4����	-582
▁��6��	-583
▁����¡	-584
▁����(200	-585
59	-586
Ϸκ	-587
ڴٴ	-588
▁���޸	-589
▁���޻	-590
▁6����	-591
▁��)��	-592
▁����	-593
0,	-594
7����	-595
▁��1,	-596
▁1997.	-597
▁��2�׿���	-598
ǵǾ	-599
ǽð	-600
󿡼�	-601
▁��11	-602
▁���⹰	-603
▁��7��	-604
▁��7����	-605
63	-606
ǽŰ	-607
67��	-608
▁100	-609
�)[3]	-610
▁�3⁄4���	-611
%,	-612
򰡸�	-613
▁¡��	-614
▁�׸�	-615
▁�⿩��	-616
▁1991.	-617
▁���߿�	-618
▁2012��	-619
▁�����˻	-620
21	-621
99	-622
Ϻο	-623
▁ū	-624
▁dz	-625
�[2]	-626
▁��20	-627
▁��21	-628
▁2016.	-629
▁�׵���	-630
▁�⿩����	-631
▁����.[2]	-632
▁����.[3]	-633
▁��671����	-634
▁�������¿�	-635
85	-636
˷�	-637
񽺸�	-638
199	-639
▁¡����	-640
▁���޵�	-641
▁��65��	-642
▁��667��	-643
▁��16����	-644
11	-645
36	-646
57	-647
وٴ	-648
▁Ǫ	-649
▁�߼	-650
▁1994.	-651
▁1995.	-652
���������������	-653
75	-654
▁Ż	-655
▁11	-656
▁30	-657
�.�	-658
▁[4]	-659
:00��	-660
▁93��	-661
▁���⸦	-662
▁1993.	-663
▁��10����	-664
▁����(����)��	-665
▁����(����)[3]	-666
46	-667
80	-668
׷�	-669
صم	-670
▁.	-671
▁ij	-672
�¿�	-673
�׿�	-674
▁�򰡸�	-675
▁99��	-676
▁��18	-677
▁��3�׿�	-678
▁���๰��	-679
▁1��)���	-680
,000,000����	-681
▁Ȩ	-682
▁22	-683
▁�¿�����	-684
22	-685
or	-686
Ǹž	-687
▁�ʼ	-688
�.[	-689
▁[��	-690
▁�˻�	-691
▁��40	-692
▁���⵵	-693
���)��	-694
▁�׶�����	-695
���(��)��	-696
ǽɹ	-697
޵�	-698
߻�	-699
࡯�	-700
▁D	-701
50��	-702
tion	-703
▁8��	-704
2011.	-705
▁���ʿ	-706
����࿡	-707
޿�����	-708
▁20%��	-709
▁�޴���	-710
▁��3��,	-711
▁��760��	-712
�������࿡	-713
▁�����߾�����	-714
44	-715
an	-716
߰ߵ	-717
�).	-718
÷���	-719
⁄4��	-720
▁194	-721
▁�׼�	-722
▁�°��	-723
▁���鿡	-724
▁�°���	-725
▁��28��	-726
▁�߻�������	-727
42	-728
56	-729
al	-730
ۡۡ	-731
▁16	-732
�(=	-733
°���	-734
▁��¡	-735
▁97��	-736
(2005.	-737
▁�����	-738
������⸦	-739
▁¡��������	-740
▁2��)�������	-741
33	-742
üå	-743
κΰ	-744
▁0.	-745
▁�࿡	-746
⿡��	-747
�ʹ�	-748
▁196	-749
▁91��	-750
▁94��	-751
▁96��	-752
▁��69	-753
�.[4]	-754
▁��33��	-755
▁2��)���	-756
����(����	-757
���(��)�����	-758
ǸŴ	-759
޹�	-760
▁L	-761
⁄4�	-762
▁6,	-763
▁��12	-764
▁��86	-765
▁���޴	-766
▁���	-767
��࿡��	-768
▁2017.	-769
▁�ʾ���	-770
▁��23��	-771
▁�������	-772
41	-773
6]	-774
▁ī	-775
�]	-776
򰡿�	-777
▁÷�	-778
9����	-779
▁20��	-780
▁3.��	-781
�׿���	-782
▁29.��	-783
▁�޼���	-784
�����(	-785
▁2013��	-786
▁��11��	-787
▁��12��	-788
▁��36��	-789
▁2�������	-790
72	-791
رݿ	-792
▁-	-793
▁:	-794
▁17	-795
▁7,	-796
▁��22	-797
▁���׹	-798
׿�����	-799
▁31.����	-800
▁�͸�����	-801
▁��13����	-802
▁��1������	-803
31	-804
88	-805
͸�	-806
ۡ۰	-807
▁�÷	-808
▁�˻��	-809
▁����1	-810
▁��31��	-811
▁���ʿ��	-812
▁��1��),	-813
▁�����޴�	-814
▁�����޿�	-815
,000������	-816
▁�����߾���������	-817
09	-818
PS	-819
׵�	-820
١١	-821
▁P	-822
��	-823
▁92��	-824
��(��	-825
00����	-826
▁50%��	-827
▁1.����	-828
▁�ʾ�����	-829
▁����[5]	-830
▁(��)����	-831
▁������(200	-832
▁3��)�������	-833
ar	-834
ŵǾ	-835
ǰȭ	-836
�޾	-837
502	-838
▁CT	-839
��¿�	-840
▁���𰡾	-841
����(	-842
▁����]	-843
▁���񽺸�	-844
▁�1⁄4��	-845
▁����)[2]	-846
▁����(������	-847
(=	-848
0%	-849
32	-850
43	-851
61	-852
76	-853
NR	-854
ȯä	-855
񿡼�	-856
[5]	-857
▁�	-858
▁�	-859
▁���	-860
▁��25	-861
▁��38	-862
�(200	-863
▁��14��	-864
▁¡������	-865
▁�׺�����	-866
▁��671��	-867
▁�����ʹ�	-868
▁�������⸦	-869
54	-870
90	-871
es	-872
ǸŸ	-873
ǽñ	-874
▁õ	-875
�⵵	-876
▁18	-877
▁�󼺰	-878
�)�	-879
��󿬱	-880
3��,	-881
▁INR	-882
▁�׵�	-883
��˻�	-884
ation	-885
▁15��	-886
▁16��	-887
▁95��	-888
▁÷���	-889
▁�3��	-890
▁�߿��	-891
▁�󰡰��	-892
▁�͸����	-893
▁��24��	-894
����࿡��	-895
������࿡	-896
▁��(����	-897
:3	-898
ed	-899
om	-900
ur	-901
õǴ	-902
˿�	-903
Һи	-904
▁O	-905
▁ģ	-906
101	-907
OPS	-908
[��	-909
▁�񱳴	-910
▁195	-911
▁�˱��	-912
▁���˵	-913
▁���˻	-914
▁���޽	-915
▁���⸻	-916
(2003.	-917
▁1989.	-918
▁28.��	-919
▁���׹�	-920
▁���޿�	-921
�߻�����	-922
)�������	-923
▁1������	-924
▁�׼�����	-925
▁���𰡾���	-926
����׿���	-927
▁��35����	-928
▁�ʿ�������	-929
���������(	-930
04	-931
73	-932
78	-933
IL	-934
▁K	-935
▁ȫ	-936
¡��	-937
·��	-938
▁3�	-939
▁�¶	-940
▁�˼	-941
▁�׿	-942
)���	-943
▁�°�	-944
▁�޹�	-945
▁�⿩�	-946
⁄4���	-947
▁2.��	-948
▁�׼��	-949
▁��2,	-950
▁30.��	-951
▁8����	-952
󾾿�����	-953
▁2016��	-954
▁33����	-955
▁��16��	-956
▁��8635	-957
▁�����	-958
▁��758��	-959
07	-960
83	-961
84	-962
95	-963
:2	-964
hų	-965
ic	-966
Źȸ	-967
žȱ	-968
▁ž	-969
�鿡	-970
�	-971
23,	-972
▁21	-973
�޾�	-974
▁[5]	-975
▁�򰡵�	-976
񼭸���	-977
▁12��	-978
▁30��	-979
▁5.��	-980
▁MOPS	-981
▁�޾��	-982
▁��53	-983
▁��68	-984
▁���߽	-985
▁1990.	-986
▁�3⁄4�	-987
▁��7��,	-988
▁�˷�����	-989
▁����¡���	-990
▁�׼�������	-991
▁��2������	-992
▁������)�������	-993
55	-994
96	-995
SE	-996
▁+	-997
▁Ž	-998
ter	-999
▁12	-1000
▁¡�	-1001
500��	-1002
▁26.��	-1003
▁�׿���	-1004
▁��200	-1005
,000��,	-1006
▁2014��	-1007
▁��17��	-1008
▁��5��,	-1009
▁2������	-1010
▁�޾�����	-1011
▁��401��	-1012
).	-1013
)�	-1014
52	-1015
PE	-1016
he	-1017
it	-1018
üȭ	-1019
߾�	-1020
▁N	-1021
�⿡	-1022
600	-1023
▁5�	-1024
▁�	-1025
24��	-1026
4��,	-1027
▁��]	-1028
��޾�	-1029
▁3���	-1030
▁�¶��	-1031
▁��45	-1032
▁���˰	-1033
▁���	-1034
3����2	-1035
▁(��)�	-1036
▁�߽���	-1037
▁��13��	-1038
▁��15��	-1039
▁��30��	-1040
▁���޹޾�	-1041
▁�����򰡱	-1042
▁����(=�	-1043
▁�����ʿ�	-1044
�������(	-1045
▁��46����	-1046
▁���޸�����	-1047
▁�����߻���	-1048
3�	-1049
81	-1050
EL	-1051
hp	-1052
lo	-1053
ol	-1054
ǰŰ	-1055
Ǹź	-1056
׸�	-1057
اٴ	-1058
ޡޡ	-1059
▁Ʈ	-1060
󰡸�	-1061
ޡޡޡ	-1062
▁28	-1063
▁40	-1064
▁�๰	-1065
��๰	-1066
׺���	-1067
▁10�	-1068
▁��23	-1069
▁��96	-1070
▁11.��	-1071
▁���߽�	-1072
▁��38��	-1073
▁���⹰��	-1074
▁(��)�񿡼�	-1075
▁30.����	-1076
▁6������	-1077
▁��170��	-1078
▁���޸���	-1079
▁��11����	-1080
▁��186����	-1081
▁������)���	-1082
▁����]������	-1083
▁����(����������	-1084
79	-1085
7]	-1086
86	-1087
¡�	-1088
ưǼ	-1089
ǽõ	-1090
ȸó	-1091
˸�	-1092
َّ	-1093
100	-1094
PEX	-1095
▁23	-1096
▁�⵵	-1097
ʿ���	-1098
˿���	-1099
׸���	-1100
޵���	-1101
▁15,	-1102
▁9��	-1103
▁OIL	-1104
▁�3�	-1105
▁�˱�	-1106
2010.	-1107
¡����	-1108
▁2005	-1109
▁60��	-1110
▁�԰��	-1111
▁���3	-1112
▁���±	-1113
▁���ـ	-1114
�)���	-1115
͸�����	-1116
׻�����	-1117
▁�¿���	-1118
▁���˷�	-1119
▁(��)��	-1120
▁OILPEX	-1121
▁��19��	-1122
▁��32��	-1123
▁�����޼	-1124
޿�������	-1125
▁2008��1	-1126
▁5,000��	-1127
▁����(���	-1128
▁��750����	-1129
▁�������,	-1130
▁�������°�	-1131
▁�����޿�����	-1132
�������(����	-1133
66	-1134
93	-1135
98	-1136
CP	-1137
DD	-1138
IT	-1139
LO	-1140
TY	-1141
et	-1142
Ʒú	-1143
▁U	-1144
�	-1145
󼭴�	-1146
500	-1147
࡯��	-1148
ELLO	-1149
ITTY	-1150
¿���	-1151
▁�򰡿�	-1152
򰡾���	-1153
󼼺���	-1154
▁11��	-1155
▁2007	-1156
▁4.��	-1157
▁��13	-1158
▁��26	-1159
▁���1	-1160
▁���ʽ	-1161
�)[4]	-1162
���ʹ�	-1163
����԰	-1164
׷�����	-1165
޻�����	-1166
▁12.��	-1167
▁1950.	-1168
▁1987.	-1169
▁1988.	-1170
▁KITTY	-1171
▁�޿���	-1172
▁���˸�	-1173
▁����	-1174
▁���󼭴�	-1175
����׿�	-1176
▁��29��	-1177
▁��46��	-1178
▁��4��,	-1179
▁��7502	-1180
▁��91��	-1181
▁���߾��	-1182
▁���⸻��	-1183
��)����	-1184
߻�������	-1185
▁100����	-1186
▁��)����	-1187
▁��1��).	-1188
▁�����˷�	-1189
▁�����԰�	-1190
▁�ʾ�����,	-1191
▁��14����	-1192
�����(����	-1193
▁����(2007.	-1194
▁����(2009.	-1195
▁����(2011.	-1196
▁��1��������	-1197
▁����������(	-1198
▁����(������)	-1199
����������������	-1200
03	-1201
4)	-1202
64	-1203
94	-1204
VD	-1205
ac	-1206
cm	-1207
ŸŸ	-1208
ǸŰ	-1209
Ϻκ	-1210
ڱؼ	-1211
޷�	-1212
▁ź	-1213
165	-1214
▁2)	-1215
▁45	-1216
▁4�	-1217
▁MP	-1218
▁�⵶	-1219
▁�	-1220
��޴	-1221
��޾	-1222
޷���	-1223
▁(4)	-1224
▁11,	-1225
▁119	-1226
▁800	-1227
▁DVD	-1228
▁�˷�	-1229
▁�࿡�	-1230
▁1���	-1231
▁6.��	-1232
▁8.��	-1233
▁��19	-1234
▁���߼	-1235
▁���߿	-1236
���󿡼�	-1237
▁20.��	-1238
▁21.��	-1239
▁25.��	-1240
▁�1⁄4�	-1241
▁�߾���	-1242
▁��201	-1243
▁����:	-1244
▁�󼼺���	-1245
▁�����	-1246
▁��18��	-1247
▁��20��	-1248
▁��34��	-1249
▁��9��,	-1250
▁2010��9	-1251
▁25.����	-1252
▁4,000��	-1253
▁��10��,	-1254
▁���3⁄4�	-1255
▁������(=	-1256
▁��530����	-1257
▁���׻�����	-1258
▁����.����	-1259
▁����(2005.	-1260
▁4��)�������	-1261
▁������(2007.	-1262
▁����(����)[4]	-1263
02	-1264
62	-1265
91	-1266
97	-1267
at	-1268
tr	-1269
žȵ	-1270
ǽɵ	-1271
鿡�	-1272
�1	-1273
�[	-1274
24,	-1275
29,	-1276
58,	-1277
77,	-1278
com	-1279
ent	-1280
ing	-1281
▁1)	-1282
▁1]	-1283
▁�	-1284
▁�򰡹	-1285
(���	-1286
▁17,	-1287
▁5%,	-1288
600��	-1289
▁90��	-1290
▁�԰�,	-1291
▁�޸�,	-1292
▁�߼��	-1293
▁��14	-1294
▁��24	-1295
▁��27	-1296
▁��48	-1297
▁���¶	-1298
▁���ʼ	-1299
▁���͹	-1300
▁���ࡤ	-1301
27����	-1302
▁10���	-1303
▁�޺���	-1304
▁��135	-1305
▁���޽�	-1306
�.[[��	-1307
▁2015��	-1308
▁60����	-1309
▁��48��	-1310
▁�����	-1311
▁�����򰡹	-1312
▁1,000��	-1313
▁2009��8	-1314
▁26.����	-1315
▁3��)���	-1316
▁��162��	-1317
▁��724��	-1318
▁���׿���	-1319
▁�����׿�	-1320
▁2002����	-1321
▁8001����	-1322
▁���޻����	-1323
▁����.[4]	-1324
���(2007.	-1325
▁��53����2	-1326
���������,	-1327
▁�������޻�����	-1328
▁���޺�����������	-1329
05	-1330
4�	-1331
87	-1332
ag	-1333
am	-1334
of	-1335
⁄2	-1336
▁ƴ	-1337
▁Ȳ	-1338
�ʹ	-1339
67,	-1340
900	-1341
end	-1342
׻��	-1343
޹޾�	-1344
޿��	-1345
▁8,	-1346
▁of	-1347
▁�˰	-1348
▁�׻	-1349
▁�޽	-1350
▁�⿬	-1351
▁�	-1352
▁�񱳡	-1353
⸸��	-1354
��˻	-1355
tern	-1356
▁14,	-1357
▁22:	-1358
▁50%	-1359
▁�޺�	-1360
▁�󰡸�	-1361
2013.	-1362
:30��	-1363
▁1.��	-1364
▁2��,	-1365
▁32��	-1366
▁84��	-1367
▁¡���	-1368
▁�׸��	-1369
▁���	-1370
▁���￴	-1371
▁���񽺿	-1372
▁100��	-1373
▁14.��	-1374
▁1975.	-1375
▁1977.	-1376
▁70%��	-1377
▁�͸���	-1378
▁�޸���	-1379
▁�߼���	-1380
▁���׵�	-1381
(������	-1382
▁(����)	-1383
▁�߻����	-1384
▁��49��	-1385
▁��50��	-1386
▁��56��	-1387
▁��6916	-1388
▁��75��	-1389
▁��9648	-1390
▁���鿡��	-1391
▁2,000��	-1392
▁�ʿ�����	-1393
▁�߽�����	-1394
▁��451��	-1395
▁��¡����	-1396
▁��3�����	-1397
��������,	-1398
▁�߿�������	-1399
▁��391����	-1400
▁���˰�����	-1401
▁����)����	-1402
▁�����˻���	-1403
▁������(��	-1404
82	-1405
8�	-1406
Hg	-1407
de	-1408
eb	-1409
il	-1410
ǰṮ	-1411
Ƿɹ	-1412
Ǹŷ	-1413
ȭä	-1414
ȿȮ	-1415
Ϻη	-1416
ٴڿ	-1417
ڱݴ	-1418
▁p	-1419
▁Ŭ	-1420
'��	-1421
105	-1422
207	-1423
330	-1424
๮��	-1425
▁(5	-1426
��⸦	-1427
)[2]	-1428
14��	-1429
2��,	-1430
5%��	-1431
7735	-1432
▁150	-1433
▁�׻�	-1434
▁��°	-1435
��,	-1436
��)�	-1437
���	-1438
2014.	-1439
2015.	-1440
ntern	-1441
׷����	-1442
▁2006	-1443
▁7.��	-1444
▁86��	-1445
▁��),	-1446
▁��58	-1447
▁��84	-1448
▁���»	-1449
�.���	-1450
���׿�	-1451
����)	-1452
޾�����	-1453
▁10.��	-1454
▁�ʼ���	-1455
▁�޾���	-1456
▁���÷�	-1457
▁����5	-1458
��(200	-1459
▁11����	-1460
▁23����	-1461
▁5.����	-1462
▁�3⁄4�,	-1463
▁��44��	-1464
27������	-1465
▁2009��9	-1466
▁27.����	-1467
▁4��)���	-1468
▁5������	-1469
▁��166��	-1470
▁���޿���	-1471
▁2005��58	-1472
▁����(��)	-1473
▁�������鿡	-1474
������࿡��	-1475
▁��756����	-1476
▁����¡����	-1477
▁�����޹���	-1478
▁�������׿�	-1479
▁����(2003.	-1480
▁���������⿡	-1481
▁��186����5,	-1482
▁���޻�������	-1483
����������),	-1484
�������(2003.	-1485
▁�߾�������������	-1486
-1	-1487
1�	-1488
MA	-1489
mm	-1490
st	-1491
um	-1492
õǵ	-1493
Ǹż	-1494
ҼҼ	-1495
޺�	-1496
߼�	-1497
▁W	-1498
▁a	-1499
▁v	-1500
▁Ķ	-1501
▁Ǯ	-1502
▁Ƚ	-1503
�¡	-1504
12,	-1505
14,	-1506
158	-1507
218	-1508
25,	-1509
465	-1510
501	-1511
725	-1512
]��	-1513
׷��	-1514
رۇٴ	-1515
▁00	-1516
▁29	-1517
▁3)	-1518
▁�ʻ	-1519
15��	-1520
1��,	-1521
3%��	-1522
3469	-1523
ʺ���	-1524
▁�˸�	-1525
43165	-1526
▁2000	-1527
▁9.��	-1528
▁�˷��	-1529
▁�߻�,	-1530
▁���׼	-1531
▁���⿹	-1532
���͸�	-1533
����⸦	-1534
(2009.	-1535
(�����	-1536
▁1945.	-1537
▁500��	-1538
▁80%��	-1539
▁��(��	-1540
▁��415	-1541
���(��	-1542
����޽�	-1543
▁1(����	-1544
▁�°����	-1545
▁��6925	-1546
▁�����࿡	-1547
�޾�����	-1548
▁13.����	-1549
▁21.����	-1550
▁8,000��	-1551
▁��385��	-1552
▁���߿���	-1553
��޴�����	-1554
▁10������	-1555
▁2003��49	-1556
▁2009��10	-1557
▁��3�׿���	-1558
▁���±����	-1559
▁����(=��	-1560
▁����)[4]	-1561
▁200������	-1562
▁31.������	-1563
▁��13����5	-1564
▁���޻�����	-1565
▁���߻�����	-1566
▁2000��7735	-1567
▁����(�����	-1568
▁2002��43165	-1569
08	-1570
8]	-1571
:4	-1572
],	-1573
se	-1574
un	-1575
up	-1576
óġ	-1577
ǵǴ	-1578
κδ	-1579
мҺ	-1580
׼�	-1581
ضج	-1582
▁G	-1583
▁T	-1584
▁f	-1585
󰡿�	-1586
󹰿�	-1587
118	-1588
16,	-1589
167	-1590
17,	-1591
374	-1592
413	-1593
474	-1594
51-	-1595
566	-1596
700	-1597
SEP	-1598
ink	-1599
ľǵǾ	-1600
ۡۡۡ	-1601
▁13	-1602
▁14	-1603
▁7�	-1604
▁8�	-1605
▁9,	-1606
▁[�	-1607
▁ħŻ	-1608
▁�򰡱	-1609
��	-1610
�޴�	-1611
2439	-1612
9��,	-1613
˹���	-1614
▁(5)	-1615
▁�߾�	-1616
▁��	-1617
�.��	-1618
���	-1619
��԰�	-1620
ender	-1621
÷����	-1622
▁17��	-1623
▁1998	-1624
▁2���	-1625
▁5%��	-1626
▁50��	-1627
▁751-	-1628
▁���	-1629
▁��36	-1630
▁��80	-1631
▁���·	-1632
���°�	-1633
(����)	-1634
6����4	-1635
»�����	-1636
▁1960.	-1637
▁1980.	-1638
▁1984.	-1639
▁2005�	-1640
▁27.��	-1641
▁31.��	-1642
▁��214	-1643
▁��8��	-1644
▁���԰�	-1645
▁���޾�	-1646
��¿���	-1647
�����;	-1648
��󿬱���	-1649
¡������	-1650
▁4.����	-1651
▁6.����	-1652
▁��35��	-1653
▁��58��	-1654
▁��80��	-1655
▁�����⿡	-1656
�(2006.	-1657
��๰����	-1658
▁11.����	-1659
▁20.����	-1660
▁2008��9	-1661
▁305����	-1662
▁3������	-1663
▁�޿�����	-1664
▁��212��	-1665
▁��256��	-1666
▁��2��),	-1667
▁��403��	-1668
▁���޴���	-1669
▁�����˿�	-1670
�����)��	-1671
▁�޾�����,	-1672
▁��30����	-1673
▁��4�׿���	-1674
▁�������߿	-1675
▁�����򰡹��	-1676
▁�񱳡������	-1677
,000,000��	-1678
▁26.������	-1679
▁30.������	-1680
▁��35����2	-1681
▁��399����	-1682
▁���޴�����	-1683
▁���߾�����	-1684
▁�׿��������	-1685
▁�������鿡��	-1686
▁���޺�������	-1687
▁����.������	-1688
▁����¡������	-1689
������(2005.	-1690
,3	-1691
6)	-1692
74	-1693
:1	-1694
CO	-1695
DS	-1696
GI	-1697
NL	-1698
ss	-1699
ƼL	-1700
ƽɹ	-1701
Ǹs	-1702
Ҽӵ	-1703
▁E	-1704
▁l	-1705
𸣴�	-1706
񼭸�	-1707
󵵸�	-1708
󿩱�	-1709
(19	-1710
130	-1711
20,	-1712
226	-1713
28,	-1714
365	-1715
426	-1716
551	-1717
800	-1718
852	-1719
CDD	-1720
ECP	-1721
[6]	-1722
hpw	-1723
the	-1724
urr	-1725
£��	-1726
°��	-1727
١١١	-1728
▁PF	-1729
�͸�	-1730
��׼	-1731
��⿡	-1732
0��,	-1733
9009	-1734
١١١١	-1735
ۡۡۡۡ	-1736
▁107	-1737
▁15�	-1738
▁34,	-1739
▁�¿�	-1740
▁�޶�	-1741
▁�⵶�	-1742
▁��¥	-1743
▁�𸣴�	-1744
���	-1745
���޴	-1746
��󿡼�	-1747
%����	-1748
1994.	-1749
33070	-1750
33469	-1751
:20��	-1752
ECPNL	-1753
HELLO	-1754
hpweb	-1755
▁14��	-1756
▁1997	-1757
▁1��,	-1758
▁21��	-1759
▁29��	-1760
▁40��	-1761
▁88��	-1762
▁89��	-1763
▁SSEP	-1764
▁�⿬��	-1765
▁��32	-1766
▁��34	-1767
鿩����	-1768
�.[5]	-1769
(2007.	-1770
▁1981.	-1771
▁2018.	-1772
▁7����	-1773
▁�˿���	-1774
▁���޹޾	-1775
▁���޻�	-1776
▁���ࡤ�	-1777
▁���࡯�	-1778
▁����	-1779
▁���󿡼�	-1780
1������	-1781
3������	-1782
9������	-1783
١١١١١١١	-1784
▁20����	-1785
▁�˼����	-1786
▁��21��	-1787
▁��27��	-1788
▁��2���	-1789
▁��4817	-1790
▁��4�׿�	-1791
▁��67��	-1792
▁��8101	-1793
▁��93��	-1794
▁��¡���	-1795
,000,000	-1796
urrender	-1797
▁119���޴	-1798
▁19.����	-1799
▁2007��6	-1800
▁2009��6	-1801
▁[������	-1802
▁�޶�����	-1803
▁��399��	-1804
▁��689��	-1805
▁���˹���	-1806
▁����5��	-1807
▁����[6]	-1808
▁2000����	-1809
▁2007����	-1810
▁��18����	-1811
▁��22����	-1812
▁��32����	-1813
▁��94����	-1814
▁���¿���,	-1815
�(����)��	-1816
▁91��33070	-1817
▁��10����3	-1818
▁��10����4	-1819
▁��173����	-1820
▁��3������	-1821
▁���¿�����	-1822
▁����(=���	-1823
▁�����׿���	-1824
▁������[2]	-1825
▁��������	-1826
▁��������.	-1827
�(��������	-1828
����԰�����	-1829
▁��530����9	-1830
▁���¡������	-1831
���)�������	-1832
▁2003��49566	-1833
▁2004��33469	-1834
▁2008��12439	-1835
▁���ʼ�������	-1836
▁������(2009.	-1837
��������(����	-1838
▁����(����)[5]	-1839
▁�������߻�����	-1840
▁������������,	-1841
���������(����	-1842
▁��������(������	-1843
9]	-1844
:0	-1845
AM	-1846
CT	-1847
RI	-1848
cy	-1849
ec	-1850
km	-1851
td	-1852
yn	-1853
õǰ	-1854
Ŵɷ	-1855
Ƿh	-1856
ǾȰ	-1857
Ϻδ	-1858
мҷ	-1859
Ӻп	-1860
ڱݰ	-1861
▁F	-1862
▁R	-1863
▁b	-1864
▁ù	-1865
鿡,	-1866
�7	-1867
�࿡	-1868
𵨷�	-1869
𿡰�	-1870
󡯰�	-1871
10,	-1872
209	-1873
299	-1874
317	-1875
323	-1876
328	-1877
338	-1878
366	-1879
368	-1880
386	-1881
400	-1882
470	-1883
707	-1884
:00	-1885
ity	-1886
߻��	-1887
⁄2�	-1888
▁03	-1889
▁09	-1890
▁26	-1891
▁60	-1892
▁65	-1893
▁80	-1894
▁CD	-1895
▁II	-1896
▁an	-1897
▁�𸣰	-1898
▁�񿵸	-1899
▁�򰡴	-1900
鿩��	-1901
%)��	-1902
5��,	-1903
޶���	-1904
▁(6)	-1905
▁20�	-1906
▁4,3	-1907
▁AMA	-1908
▁Con	-1909
▁Ltd	-1910
▁�͸�	-1911
▁�޿�	-1912
▁�󰡿�	-1913
�࡯��	-1914
��÷�	-1915
��ʿ�	-1916
��󿬱�	-1917
2��).	-1918
50��,	-1919
:50��	-1920
▁13��	-1921
▁2004	-1922
▁28��	-1923
▁80��	-1924
▁85��	-1925
▁87��	-1926
▁�1⁄4	-1927
▁�¿��	-1928
▁�޺��	-1929
▁�鿡��	-1930
▁��41	-1931
▁��87	-1932
▁���԰	-1933
▁���೻	-1934
�(���	-1935
���¿�	-1936
(2006.	-1937
46����	-1938
˼�����	-1939
▁1949.	-1940
▁1962.	-1941
▁1982.	-1942
▁60%��	-1943
▁�޵���	-1944
▁�޽���	-1945
▁��199	-1946
▁��758	-1947
▁���ʽ�	-1948
▁���˰�	-1949
▁���⿡�	-1950
▁�񱳴���	-1951
���࿡��	-1952
100����	-1953
▁100%��	-1954
▁1998��	-1955
▁1999��	-1956
▁2(����	-1957
▁2017��	-1958
▁�׿����	-1959
▁��22��	-1960
▁��26��	-1961
▁��37��	-1962
���(200	-1963
���(���	-1964
▁1,500��	-1965
▁10.����	-1966
▁18.����	-1967
▁2006��7	-1968
▁2010��1	-1969
▁23.����	-1970
▁28.����	-1971
▁3,000��	-1972
▁8������	-1973
▁�1⁄4���	-1974
▁�°�����	-1975
▁�޸�����	-1976
▁��2��).	-1977
▁���ʺ���	-1978
▁�����󿩱�	-1979
▁�򰡹�����	-1980
��(2007.	-1981
(��������	-1982
2��������	-1983
▁�߿����׿�	-1984
▁��12����	-1985
▁��17����	-1986
▁��415��,	-1987
▁��51����	-1988
▁��56����	-1989
▁�������񽺼	-1990
▁2006��167	-1991
▁2��������	-1992
▁�ʾ�������	-1993
▁��103����	-1994
▁�񱳴�������	-1995
,000,000��,	-1996
▁�������࿡��	-1997
▁�����޾�����	-1998
�����������,	-1999
▁10��27������	-2000
▁������(2008.	-2001
,000,000������	-2002
▁������.������	-2003
▁����1���������	-2004
▁�������������	-2005
▁��������(2007.	-2006
▁�������߻�������	-2007
-4	-2008
71	-2009
IS	-2010
ad	-2011
ay	-2012
dB	-2013
ep	-2014
ev	-2015
im	-2016
ip	-2017
le	-2018
oc	-2019
od	-2020
th	-2021
öȸ	-2022
ĵǾ	-2023
Ľð	-2024
Žñ	-2025
ưų	-2026
ڱݾ	-2027
ۡ۴	-2028
▁c	-2029
▁ȹ	-2030
�⸦	-2031
󡯴�	-2032
󵵰�	-2033
󵵴�	-2034
󸶰�	-2035
󸶳�	-2036
󸶸�	-2037
108	-2038
128	-2039
138	-2040
140	-2041
151	-2042
185	-2043
238	-2044
318	-2045
340	-2046
4,9	-2047
402	-2048
403	-2049
445	-2050
580	-2051
626	-2052
638	-2053
668	-2054
HDD	-2055
RAM	-2056
▁01	-2057
▁05	-2058
▁08	-2059
▁2~	-2060
▁37	-2061
▁55	-2062
▁66	-2063
▁70	-2064
▁99	-2065
▁NZ	-2066
▁St	-2067
▁�ʹ	-2068
▁�˹	-2069
▁�򰡰	-2070
��޺	-2071
%��,	-2072
trac	-2073
▁1,3	-2074
▁1.)	-2075
▁10,	-2076
▁193	-2077
▁24�	-2078
▁3,9	-2079
▁AGI	-2080
▁and	-2081
▁�÷�	-2082
▁�޷�	-2083
▁��÷	-2084
▁�𵨷�	-2085
▁�𸣰�	-2086
▁�󸶳�	-2087
��(=	-2088
��°�	-2089
���⿡	-2090
���	-2091
򰡼���	-2092
󸶵���	-2093
▁26.�	-2094
▁26��	-2095
▁3��,	-2096
▁4���	-2097
▁81��	-2098
▁TCDD	-2099
▁�˻�,	-2100
▁�޿��	-2101
▁�߽��	-2102
▁���	-2103
▁���	-2104
▁��49	-2105
▁���˱	-2106
▁���׵	-2107
▁���	-2108
▁���￰	-2109
�)[5]	-2110
�)��,	-2111
���ʿ�	-2112
����°	-2113
����⿡	-2114
(2008.	-2115
(��)��	-2116
)�����	-2117
01����	-2118
1⁄4���	-2119
25����	-2120
65����	-2121
Intern	-2122
WECPNL	-2123
▁119��	-2124
▁13.��	-2125
▁16.��	-2126
▁17.��	-2127
▁90%��	-2128
▁HELLO	-2129
▁÷����	-2130
▁�1���	-2131
▁��134	-2132
▁��269	-2133
▁��940	-2134
▁��¡��	-2135
�(=���	-2136
��(201	-2137
����󹰿�	-2138
󡤰�����	-2139
ational	-2140
▁2018��	-2141
▁�ʾ����	-2142
▁�����	-2143
▁��)[2]	-2144
▁��1��)	-2145
▁��2��)	-2146
▁��40��	-2147
▁��7374	-2148
▁��7520	-2149
▁��8852	-2150
▁��89��	-2151
▁���¿��	-2152
▁���˻��	-2153
▁���๮��	-2154
▁����)�	-2155
▁�����޴	-2156
▁�����⸦	-2157
▁�񱳴���1	-2158
�(2009.	-2159
�(�����	-2160
▁(��)��,	-2161
▁16.����	-2162
▁2002��6	-2163
▁2007��3	-2164
▁2007��8	-2165
▁2008��7	-2166
▁2009��5	-2167
▁2010��5	-2168
▁2010��7	-2169
▁�ʻ�����	-2170
▁�ʼ�����	-2171
▁�޴�����	-2172
▁�߿�����	-2173
▁��129��	-2174
▁��13522	-2175
▁��3��),	-2176
▁��8����	-2177
▁���1⁄2�	-2178
▁���¶���	-2179
▁���ʿ���	-2180
▁���޵���	-2181
▁���޺���	-2182
▁����.��	-2183
▁����[7]	-2184
▁�����߻�	-2185
��׿�����	-2186
▁2003����	-2187
▁2004����	-2188
▁2006����	-2189
▁3.������	-2190
▁7.������	-2191
▁�޾��޿���	-2192
▁�⵵������	-2193
▁�������	-2194
▁��1�����	-2195
▁��57����	-2196
▁��750��,	-2197
▁���೻����	-2198
▁����)[3]	-2199
▁����.[5]	-2200
▁�������񽺾	-2201
�����(199	-2202
�������(�	-2203
▁��214����	-2204
▁��496����	-2205
▁���͹�����	-2206
▁�����ʿ���	-2207
▁�����׺���	-2208
▁�������·�	-2209
�.��������	-2210
���(��)���	-2211
▁����(=����	-2212
������(����	-2213
▁5��)�������	-2214
▁������.����	-2215
▁�������߻���	-2216
▁2006��16758,	-2217
▁���๰��������	-2218
▁���������࿡��	-2219
▁����(=������)	-2220
▁�����޿�������	-2221
▁��������(�����	-2222
-6	-2223
6�	-2224
BK	-2225
Un	-2226
ce	-2227
el	-2228
ir	-2229
is	-2230
ro	-2231
ud	-2232
óǥ	-2233
õõ	-2234
ĵǴ	-2235
Ÿš	-2236
ǰǥ	-2237
Ǹŵ	-2238
ǽô	-2239
ǽɸ	-2240
ȣǰ	-2241
ɵǾ	-2242
ɷȴ	-2243
ηκ	-2244
Ϻζ	-2245
Ҽӻ	-2246
ڰݽ	-2247
ڰݿ	-2248
ۡۺ	-2249
޹޾	-2250
▁e	-2251
▁Ī	-2252
�׽	-2253
�ᳪ	-2254
�᳻	-2255
򿡵�	-2256
󡯿�	-2257
󸶿�	-2258
109	-2259
114	-2260
116	-2261
146	-2262
1�(	-2263
228	-2264
250	-2265
258	-2266
259	-2267
270	-2268
288	-2269
307	-2270
375	-2271
404	-2272
424	-2273
427	-2274
455	-2275
485	-2276
597	-2277
60,	-2278
616	-2279
631	-2280
726	-2281
850	-2282
:30	-2283
CTV	-2284
IDS	-2285
The	-2286
age	-2287
ǵǰų	-2288
ǽõǴ	-2289
ǽõǾ	-2290
Ϻημ	-2291
▁),	-2292
▁1/	-2293
▁39	-2294
▁3~	-2295
▁48	-2296
▁6�	-2297
▁85	-2298
▁Co	-2299
▁Pa	-2300
▁de	-2301
▁óġ	-2302
▁öž	-2303
▁�󸲺	-2304
��󡤼	-2305
(198	-2306
/��,	-2307
0,45	-2308
0,69	-2309
010,	-2310
1716	-2311
240,	-2312
2747	-2313
6765	-2314
˻���	-2315
͸���	-2316
޺���	-2317
▁10%	-2318
▁110	-2319
▁141	-2320
▁240	-2321
▁412	-2322
▁Ass	-2323
▁[6]	-2324
▁for	-2325
▁the	-2326
▁�ʹ�	-2327
▁�˾�	-2328
▁�׶�	-2329
▁�߼�	-2330
▁�򰡰�	-2331
�(=�	-2332
�¡��	-2333
�⵵��	-2334
��޹�	-2335
���	-2336
���	-2337
100��	-2338
10563	-2339
:35��	-2340
:45��	-2341
tract	-2342
▁2008	-2343
▁35��	-2344
▁70��	-2345
▁75��	-2346
▁AIDS	-2347
▁CCTV	-2348
▁�˼��	-2349
▁���	-2350
▁��(�	-2351
▁��15	-2352
▁��57	-2353
▁��6�	-2354
▁���£	-2355
▁���׿	-2356
▁���޼	-2357
▁���࡯	-2358
▁���←	-2359
▁���	-2360
▁���𵨸	-2361
����	-2362
�°���	-2363
�᳻��,	-2364
��󡤼��	-2365
(2015.	-2366
▁165��	-2367
▁16765	-2368
▁18.��	-2369
▁23.��	-2370
▁30%��	-2371
▁9����	-2372
▁�׶���	-2373
▁�߿��׼	-2374
▁��390	-2375
▁��418	-2376
▁���¶�	-2377
▁���￴�	-2378
▁���󸶿�	-2379
▁�򰡾���	-2380
▁�󸶵���	-2381
��޹���	-2382
���鿡��	-2383
�����.	-2384
▁180,69	-2385
▁1995��	-2386
▁7.����	-2387
▁8.����	-2388
▁9.����	-2389
▁�޶����	-2390
▁�����	-2391
▁��(��,	-2392
▁��25��	-2393
▁��47��	-2394
▁��5�׿�	-2395
▁��63��	-2396
▁��7470	-2397
▁��7638	-2398
▁��7�׿�	-2399
▁��8080	-2400
▁��8365	-2401
▁��96��	-2402
▁��99��	-2403
▁��9��2	-2404
▁���1�,	-2405
▁���޸��	-2406
▁���޹޴�	-2407
▁�����°	-2408
▁�����÷	-2409
▁�񱳴����	-2410
▁�񿵸����	-2411
���)���	-2412
▁1.���ʹ�	-2413
▁11:00��	-2414
▁12.����	-2415
▁14.����	-2416
▁15.����	-2417
▁2005��3	-2418
▁2007��5	-2419
▁2008��8	-2420
▁22:00��	-2421
▁4,300��	-2422
▁�1�����	-2423
▁�˻�����	-2424
▁��215��	-2425
▁��229��	-2426
▁��248��	-2427
▁��398��	-2428
▁��4��),	-2429
▁��64��,	-2430
▁��684��	-2431
▁��751��	-2432
▁��814��	-2433
▁���°���	-2434
▁���˵���	-2435
▁����).�	-2436
▁����[8]	-2437
▁�����¿�	-2438
�������	-2439
��(2006.	-2440
���.����	-2441
���¡����	-2442
▁2.������	-2443
▁2006��19	-2444
▁2008��77	-2445
▁2014����	-2446
▁5.������	-2447
▁8.������	-2448
▁�°������	-2449
▁�߻�����,	-2450
▁�߻������	-2451
▁��269��,	-2452
▁��33����	-2453
▁��6�׿���	-2454
▁���￰����	-2455
▁�������⿡	-2456
��(������	-2457
▁(����)201	-2458
▁12.������	-2459
▁14.������	-2460
▁6��������	-2461
▁�¿�������	-2462
▁�޾�������	-2463
▁��104����	-2464
▁��13����7	-2465
▁��170����	-2466
▁��210����	-2467
▁��454����	-2468
▁���޹�����	-2469
▁�����޾���	-2470
▁�����򰡼���	-2471
▁�����򰡾���	-2472
▁���񽺿�����	-2473
▁180,690,45	-2474
▁2005��5867	-2475
▁2007��9009	-2476
▁¡���������	-2477
▁���������	-2478
▁��266����4	-2479
▁��2�׿�����	-2480
▁��530����3	-2481
�����(2005.	-2482
▁¡����������	-2483
▁����[(��)��	-2484
▁�����򰡱�����	-2485
▁���͹߻�������	-2486
▁2014����10563	-2487
�(������������	-2488
▁����(=��������	-2489
2-	-2490
6-	-2491
7)	-2492
:5	-2493
AX	-2494
OU	-2495
RE	-2496
SB	-2497
Zȭ	-2498
].	-2499
em	-2500
hy	-2501
ig	-2502
la	-2503
qu	-2504
si	-2505
ýǿ	-2506
žȹ	-2507
Ƿy	-2508
Ƿɻ	-2509
Ǹű	-2510
ȣö	-2511
ȣû	-2512
̴ٰ	-2513
ձԾ	-2514
ثن	-2515
఻�	-2516
▁Q	-2517
▁d	-2518
▁w	-2519
▁Ʋ	-2520
�	-2521
�-	-2522
󡱴�	-2523
017	-2524
1-1	-2525
113	-2526
127	-2527
150	-2528
157	-2529
159	-2530
162	-2531
189	-2532
195	-2533
196	-2534
204	-2535
232	-2536
239	-2537
240	-2538
242	-2539
253	-2540
256	-2541
260	-2542
264	-2543
274	-2544
278	-2545
280	-2546
284	-2547
3,9	-2548
34,	-2549
354	-2550
361	-2551
399	-2552
40,	-2553
479	-2554
489	-2555
5,4	-2556
516	-2557
526	-2558
538	-2559
603	-2560
65,	-2561
778	-2562
823	-2563
867	-2564
:40	-2565
DZǵ	-2566
ILL	-2567
ber	-2568
ine	-2569
ood	-2570
por	-2571
res	-2572
use	-2573
ynd	-2574
°�,	-2575
õǰų	-2576
ǸŵǾ	-2577
ǽɵǾ	-2578
޹��	-2579
▁07	-2580
▁1~	-2581
▁2(	-2582
▁24	-2583
▁27	-2584
▁32	-2585
▁33	-2586
▁4)	-2587
▁46	-2588
▁47	-2589
▁58	-2590
▁72	-2591
▁75	-2592
▁92	-2593
▁Dz	-2594
▁In	-2595
▁PC	-2596
▁�˺	-2597
▁�	-2598
▁�	-2599
▁�𳪹	-2600
▁�󵵿	-2601
�°�	-2602
�ʿ�	-2603
��	-2604
�򰡿�	-2605
/���	-2606
13��	-2607
225,	-2608
251,	-2609
3,68	-2610
3���	-2611
755,	-2612
DZǵǾ	-2613
ency	-2614
load	-2615
ment	-2616
»���	-2617
▁(7)	-2618
▁(��	-2619
▁1.1	-2620
▁11]	-2621
▁135	-2622
▁16,	-2623
▁191	-2624
▁21,	-2625
▁28,	-2626
▁300	-2627
▁46,	-2628
▁69,	-2629
▁900	-2630
▁BBK	-2631
▁MRI	-2632
▁USB	-2633
▁com	-2634
▁£��	-2635
▁��	-2636
▁�󵵰�	-2637
▁�󵵸�	-2638
�[3]	-2639
�[4]	-2640
�׽��	-2641
��¡�	-2642
��·�	-2643
��ʹ�	-2644
��߾�	-2645
��࡯�	-2646
򰡿���	-2647
󺴿���	-2648
󿡼���	-2649
13045	-2650
1⁄4��	-2651
2016.	-2652
25��,	-2653
31751	-2654
41377	-2655
67,83	-2656
86232	-2657
88368	-2658
:05��	-2659
:10��	-2660
[����	-2661
·����	-2662
߻����	-2663
▁1,48	-2664
▁11.�	-2665
▁18��	-2666
▁266,	-2667
▁324,	-2668
▁34��	-2669
▁7,48	-2670
▁82��	-2671
▁BILL	-2672
▁link	-2673
▁�߾��	-2674
▁���	-2675
▁��(-	-2676
▁��7�	-2677
▁��°,	-2678
▁���÷	-2679
▁���	-2680
▁���	-2681
▁���	-2682
����	-2683
����	-2684
�.[6]	-2685
�.��,	-2686
���԰�	-2687
���࡯�	-2688
����߽	-2689
(2004.	-2690
(2010.	-2691
37����	-2692
41��).	-2693
47����	-2694
58����	-2695
iation	-2696
upload	-2697
˻�����	-2698
׺�����	-2699
▁105��	-2700
▁15%��	-2701
▁15.��	-2702
▁150��	-2703
▁1944.	-2704
▁1985.	-2705
▁1986.	-2706
▁200��	-2707
▁25%��	-2708
▁250��	-2709
▁5%��,	-2710
▁650��	-2711
▁����	-2712
▁��208	-2713
▁��217	-2714
▁��735	-2715
▁��¥��	-2716
▁���఻�	-2717
▁���𿡰�	-2718
▁���񽺿�	-2719
▁���򿡵�	-2720
�1����	-2721
��(���	-2722
�����	-2723
�����)	-2724
�����࿡	-2725
)������	-2726
,000���	-2727
2������	-2728
▁141���	-2729
▁1980��	-2730
▁2.����	-2731
▁3.����	-2732
▁4��)��	-2733
▁Intern	-2734
▁¡�����	-2735
▁�ʼ����	-2736
▁�˷����	-2737
▁��(��)	-2738
▁��39��	-2739
▁��57��	-2740
▁��59��	-2741
▁��69��	-2742
▁��70��	-2743
▁��8158	-2744
▁��8423	-2745
▁��8665	-2746
▁��8767	-2747
▁��8��,	-2748
▁��9408	-2749
▁���׷��	-2750
▁����.�	-2751
▁����3�	-2752
▁�����˼	-2753
▁�����򰡾	-2754
�1⁄4���	-2755
�����ʹ�	-2756
0��(����	-2757
10,000��	-2758
10������	-2759
Internet	-2760
▁(������	-2761
▁2001��5	-2762
▁2004��7	-2763
▁2005��6	-2764
▁5��)���	-2765
▁7,000��	-2766
▁7,500��	-2767
▁�°����๮	-2768
▁�����,	-2769
▁��10600	-2770
▁��125��	-2771
▁��127��	-2772
▁��204��	-2773
▁��208��	-2774
▁��344��	-2775
▁��397��	-2776
▁��538��	-2777
▁��580��	-2778
▁���·���	-2779
▁���˻���	-2780
▁���͸���	-2781
▁���׷���	-2782
▁���׸���	-2783
▁����[9]	-2784
▁�����°�	-2785
▁�����򰡿�	-2786
�-������	-2787
�ʹ�(����	-2788
��׷�����	-2789
����԰���	-2790
4,000����	-2791
:00������	-2792
Surrender	-2793
°�������,	-2794
▁1.������	-2795
▁1990����	-2796
▁2005��35	-2797
▁2008��10	-2798
▁2008��38	-2799
▁2008����	-2800
▁2009��13	-2801
▁2009��65	-2802
▁2010��18	-2803
▁2013��20	-2804
▁324,240,	-2805
▁�1������	-2806
▁��10��27	-2807
▁��15����	-2808
▁��1����,	-2809
▁��2011-1	-2810
▁��23����	-2811
▁��28����	-2812
▁��41����	-2813
▁��67����	-2814
▁��7����2	-2815
▁���鿡����	-2816
▁�������	-2817
���(��)(�	-2818
▁2002��323	-2819
▁27.������	-2820
▁7,485����	-2821
▁98��41377	-2822
▁�°����๮��	-2823
▁�ʼ�������	-2824
▁�˻�������	-2825
▁��161����	-2826
▁��251����	-2827
▁��388����	-2828
▁��390����	-2829
▁��395����	-2830
▁��398����	-2831
▁��418����	-2832
▁��437����	-2833
▁��6������	-2834
▁��7������	-2835
▁���˻�����	-2836
▁���޾�����	-2837
▁������'��	-2838
����׷�����	-2839
500,000����	-2840
▁�ʾ�������,	-2841
▁��10������	-2842
▁��1�׿�����	-2843
▁���￴������	-2844
▁����(2014.	-2845
▁������(���	-2846
▁2004��13045	-2847
▁2006��19603	-2848
▁2008��31751	-2849
▁2008��86232	-2850
▁2008��88368	-2851
▁�׼���������	-2852
▁��10����3��	-2853
▁����(����)�	-2854
▁������(=���	-2855
▁������)����	-2856
▁��������)��	-2857
�.����������	-2858
▁2002��������	-2859
▁��10��27����	-2860
▁�����޾�����,	-2861
▁������(2010.	-2862
���(��)(�����	-2863
���������(���	-2864
▁��16����2����	-2865
▁��35����2����	-2866
▁����(��������	-2867
��(������)����	-2868
��������(2005.	-2869
▁����(����)����	-2870
▁�����޼���������	-2871
▁�������߿�������	-2872
▁����������(����	-2873
'�	-2874
8)	-2875
=�	-2876
AW	-2877
AY	-2878
CA	-2879
CS	-2880
DB	-2881
IN	-2882
OO	-2883
St	-2884
UR	-2885
eg	-2886
ly	-2887
mg	-2888
po	-2889
ut	-2890
ve	-2891
İŷ	-2892
űǿ	-2893
ŵǴ	-2894
Žɻ	-2895
Ʒð	-2896
ƽþ	-2897
ǷẸ	-2898
ǽɽ	-2899
ȥû	-2900
ȹȮ	-2901
ɽü	-2902
ʻ�	-2903
ημ	-2904
κθ	-2905
Ӻи	-2906
شٴ	-2907
ڱݻ	-2908
ۡ۱	-2909
▁r	-2910
▁ø	-2911
�	-2912
﷯,	-2913
�?	-2914
�÷	-2915
�޷	-2916
�	-2917
𿡵�	-2918
򵵷�	-2919
,55	-2920
,80	-2921
-50	-2922
/10	-2923
/5,	-2924
01,	-2925
013	-2926
015	-2927
05,	-2928
050	-2929
102	-2930
106	-2931
107	-2932
110	-2933
117	-2934
121	-2935
126	-2936
147	-2937
148	-2938
160	-2939
19,	-2940
194	-2941
197	-2942
203	-2943
215	-2944
237	-2945
245	-2946
248	-2947
249	-2948
254	-2949
276	-2950
292	-2951
313	-2952
325	-2953
350	-2954
369	-2955
376	-2956
380	-2957
384	-2958
392	-2959
405	-2960
411	-2961
414	-2962
417	-2963
490	-2964
5.5	-2965
506	-2966
507	-2967
510	-2968
531	-2969
541	-2970
568	-2971
581	-2972
6,6	-2973
609	-2974
632	-2975
637	-2976
69,	-2977
698	-2978
699	-2979
7,8	-2980
706	-2981
72%	-2982
723	-2983
893	-2984
975	-2985
:50	-2986
FAX	-2987
HOU	-2988
[7]	-2989
amb	-2990
ame	-2991
ate	-2992
ery	-2993
est	-2994
fic	-2995
for	-2996
int	-2997
ure	-2998
žȱǿ	-2999
׼��	-3000
๰��	-3001
▁04	-3002
▁34	-3003
▁35	-3004
▁50	-3005
▁57	-3006
▁77	-3007
▁9�	-3008
▁HP	-3009
▁IV	-3010
▁lo	-3011
▁ƯĢ	-3012
▁�±	-3013
▁�˴	-3014
▁�޷	-3015
▁�鿡	-3016
▁�񰡿	-3017
▁�񴢱	-3018
▁�󱼱	-3019
⵶��	-3020
⿩��	-3021
�÷�	-3022
�˿�	-3023
��񼮳	-3024
(��,	-3025
(��3	-3026
)��,	-3027
-401	-3028
-403	-3029
-501	-3030
-���	-3031
0.61	-3032
043,	-3033
1703	-3034
1881	-3035
19��	-3036
2028	-3037
2053	-3038
2129	-3039
25��	-3040
2��)	-3041
379,	-3042
416,	-3043
41��	-3044
533,	-3045
5791	-3046
6,72	-3047
6,95	-3048
64��	-3049
677,	-3050
6��,	-3051
704,	-3052
9,19	-3053
9915	-3054
AWAY	-3055
ping	-3056
tive	-3057
¡���	-3058
˰���	-3059
԰���	-3060
׼���	-3061
߼���	-3062
߾���	-3063
▁(8)	-3064
▁00:	-3065
▁08�	-3066
▁09�	-3067
▁1,5	-3068
▁108	-3069
▁12�	-3070
▁13,	-3071
▁16:	-3072
▁18,	-3073
▁22�	-3074
▁40.	-3075
▁401	-3076
▁40�	-3077
▁44,	-3078
▁470	-3079
▁600	-3080
▁84,	-3081
▁85,	-3082
▁90%	-3083
▁Sal	-3084
▁�޼�	-3085
▁�߽�	-3086
▁�򵵷�	-3087
▁�󵵿�	-3088
��ʻ�	-3089
��͸�	-3090
��޴�	-3091
��޺�	-3092
��߿�	-3093
��鿡�	-3094
���˻	-3095
���⸦	-3096
���񼮳	-3097
��񽺸�	-3098
��򰡿�	-3099
񼭸鿡��	-3100
'����	-3101
,000�	-3102
,323,	-3103
/����	-3104
10813	-3105
14242	-3106
1999.	-3107
20109	-3108
27151	-3109
44138	-3110
59788	-3111
88631	-3112
:25��	-3113
HOUSE	-3114
arine	-3115
lause	-3116
˼���,	-3117
▁(���	-3118
▁0.01	-3119
▁0.47	-3120
▁100%	-3121
▁109,	-3122
▁1502	-3123
▁1503	-3124
▁1505	-3125
▁1522	-3126
▁1999	-3127
▁19��	-3128
▁2,19	-3129
▁2,63	-3130
▁2001	-3131
▁25��	-3132
▁29.�	-3133
▁31.�	-3134
▁34,5	-3135
▁397,	-3136
▁62��	-3137
▁662,	-3138
▁74��	-3139
▁912,	-3140
▁loan	-3141
▁�ʼ��	-3142
▁�˹��	-3143
▁��)[	-3144
▁��1.	-3145
▁��28	-3146
▁��35	-3147
▁��37	-3148
▁��97	-3149
▁���࿹	-3150
▁���	-3151
▁���	-3152
▁���񱸿	-3153
�(=��	-3154
�(��2	-3155
�)[6]	-3156
�.[7]	-3157
��[2]	-3158
���˷�	-3159
����	-3160
����޹	-3161
����鿡	-3162
���񿡼�	-3163
(2011.	-3164
)����,	-3165
/5,402	-3166
0.61�޷	-3167
1����5	-3168
2009��	-3169
202819	-3170
23��).	-3171
34����	-3172
38����	-3173
39��),	-3174
45379,	-3175
755,23	-3176
SEAWAY	-3177
ations	-3178
·�����	-3179
▁10%��	-3180
▁11]��	-3181
▁13.25	-3182
▁1976.	-3183
▁1996,	-3184
▁2,975	-3185
▁2019.	-3186
▁22.��	-3187
▁3,937	-3188
▁300��	-3189
▁3~4��	-3190
▁45386	-3191
▁96��3	-3192
▁99��6	-3193
▁Assoc	-3194
▁�˰���	-3195
▁�԰���	-3196
▁�޷���	-3197
▁��121	-3198
▁���¡�	-3199
▁���׸�	-3200
▁���⸻�	-3201
▁���𵨸�	-3202
▁���𿡵�	-3203
▁���󸶸�	-3204
�ʹ����	-3205
��(=��	-3206
��)201	-3207
��޴���	-3208
����¿�	-3209
����ʹ�	-3210
����࡯�	-3211
�����	-3212
,323,93	-3213
090����	-3214
1,600��	-3215
4������	-3216
޿��׿���	-3217
▁1,010,	-3218
▁12����	-3219
▁15����	-3220
▁1965��	-3221
▁25����	-3222
▁3,416,	-3223
▁30����	-3224
▁4(����	-3225
▁91��23	-3226
▁98��31	-3227
▁98��39	-3228
▁����⿡	-3229
▁��(���	-3230
▁��42��	-3231
▁��43��	-3232
▁��5274	-3233
▁��6465	-3234
▁��64��	-3235
▁��68��	-3236
▁��6��,	-3237
▁��7392	-3238
▁��74��	-3239
▁��86��	-3240
▁���￴�	-3241
▁�����󰢺	-3242
������	-3243
�(=����	-3244
�.����,	-3245
���(199	-3246
���޿���	-3247
����)��	-3248
/��(����	-3249
640.61�޷	-3250
▁2006��8	-3251
▁2006��9	-3252
▁2007��2	-3253
▁2009��2	-3254
▁�׸�����	-3255
▁��(-)��	-3256
▁��10237	-3257
▁��10580	-3258
▁��11017	-3259
▁��11��,	-3260
▁��133��	-3261
▁��135��	-3262
▁��15791	-3263
▁��18146	-3264
▁��188��	-3265
▁��20120	-3266
▁��201��	-3267
▁��276��	-3268
▁��325��	-3269
▁��391��	-3270
▁��393��	-3271
▁��3��).	-3272
▁��676��	-3273
▁���׵���	-3274
▁����'��	-3275
▁����2��	-3276
▁�����˰�	-3277
▁�����߾�	-3278
▁�񰡿�����	-3279
��(2010.	-3280
��(2018.	-3281
��)����,	-3282
���)����	-3283
�����(��	-3284
������񽺸�	-3285
6��������	-3286
surrender	-3287
▁12������	-3288
▁2002��45	-3289
▁2002��69	-3290
▁2005��32	-3291
▁2006��35	-3292
▁2006��48	-3293
▁2007��60	-3294
▁2009��29	-3295
▁2009��69	-3296
▁2010��34	-3297
▁397,225,	-3298
▁662,043,	-3299
▁98��9915	-3300
▁�׼������	-3301
▁��.�׿���	-3302
▁��103��,	-3303
▁��1115��	-3304
▁��1��)��	-3305
▁��1����2	-3306
▁��20����	-3307
▁��26����	-3308
▁��27����	-3309
▁���˰����	-3310
▁���߿����	-3311
▁���࡯����	-3312
▁���๰����	-3313
▁���࿡����	-3314
▁�����޼��	-3315
▁�������	-3316
▁������),	-3317
�(=������	-3318
�(�������	-3319
�)�������	-3320
��๰������	-3321
���߻�����	-3322
����࿡����	-3323
�����;���	-3324
▁1,100����	-3325
▁1,300����	-3326
▁109������	-3327
▁13.������	-3328
▁19,323,93	-3329
▁2002��635	-3330
▁2008��923	-3331
▁23.������	-3332
▁94��27151	-3333
▁99��10813	-3334
▁��162����	-3335
▁��202����	-3336
▁��208��).	-3337
▁��23����2	-3338
▁��26����4	-3339
▁��28����4	-3340
▁��33����6	-3341
▁��401����	-3342
▁��403����	-3343
▁��582����	-3344
▁��670����	-3345
▁��746����	-3346
▁��760����	-3347
▁��845����	-3348
▁��9������	-3349
▁������(=�	-3350
▁�������׷�	-3351
▁��������)	-3352
▁�������󸶰�	-3353
���(������	-3354
����(2011.	-3355
�������)��	-3356
������򰡾���	-3357
700,000����	-3358
755,238����	-3359
▁2000����26	-3360
▁3,416,704,	-3361
▁98��45379,	-3362
▁��173����7	-3363
▁��1��(����	-3364
▁��361����5	-3365
▁��3�׿�����	-3366
▁���׿������	-3367
▁�����޼����	-3368
▁2,975/5,402	-3369
▁2002��14242	-3370
▁2002��32332	-3371
▁2002��59788	-3372
▁2004��71881	-3373
▁2005��35707	-3374
▁2005��58823	-3375
▁2005��62747	-3376
▁2006����218	-3377
▁2009��88631	-3378
▁6,000������	-3379
▁Association	-3380
▁��2��������	-3381
▁��391������	-3382
▁���������3�	-3383
▁�������񽺼���	-3384
▁�������񽺾���	-3385
▁�����򰡹�����	-3386
�(����������	-3387
���(��)(����	-3388
������߻�����	-3389
▁2012��202819	-3390
▁��186����5��	-3391
▁����(=������	-3392
▁�������񽺼��͸�	-3393
▁�׼�����������	-3394
▁���ʼ���������	-3395
▁���޺���������	-3396
▁������(������	-3397
▁���������׿���	-3398
▁�����������׿�	-3399
▁19,323,936����	-3400
▁22,000,000����	-3401
▁��10��27������	-3402
▁��173����8����	-3403
▁�������������⿡	-3404
���������(2009.	-3405
�������(��������	-3406
%�	-3407
)(	-3408
**	-3409
,5	-3410
-2	-3411
06	-3412
0�	-3413
5�	-3414
9%	-3415
92	-3416
AS	-3417
Am	-3418
CL	-3419
CR	-3420
DE	-3421
Su	-3422
TE	-3423
YM	-3424
[�	-3425
bn	-3426
ey	-3427
ge	-3428
ia	-3429
iȣ	-3430
jo	-3431
mo	-3432
no	-3433
ra	-3434
ri	-3435
åƯ	-3436
ñǿ	-3437
öȭ	-3438
ûä	-3439
ýñ	-3440
ĵǰ	-3441
ĸż	-3442
Ÿs	-3443
Ÿä	-3444
ǰẸ	-3445
ǵǸ	-3446
Ǹš	-3447
ǸŹ	-3448
ǸŽ	-3449
ǽø	-3450
ǽü	-3451
ɻǴ	-3452
ʺ�	-3453
˴�	-3454
Ϸμ	-3455
һӴ	-3456
ӻӸ	-3457
׽�	-3458
رݰ	-3459
مم	-3460
ٲپ	-3461
ڰݰ	-3462
ڰݻ	-3463
ڱݳ	-3464
ڱݹ	-3465
ڱݿ	-3466
ڴ١	-3467
ڹٲ	-3468
۱ݹ	-3469
ݼ۵	-3470
▁=	-3471
▁V	-3472
▁g	-3473
▁Ű	-3474
▁Ƽ	-3475
�	-3476
,	-3477
�͹	-3478
�񺰷	-3479
�񽺱	-3480
𿡸�	-3481
񸮿�	-3482
񽺿�	-3483
󡱰�	-3484
󺴿�	-3485
󺹺�	-3486
(=�	-3487
,56	-3488
,75	-3489
,81	-3490
-20	-3491
-56	-3492
000	-3493
012	-3494
014	-3495
047	-3496
08,	-3497
1.2	-3498
10]	-3499
119	-3500
13,	-3501
131	-3502
135	-3503
15,	-3504
156	-3505
179	-3506
2,0	-3507
208	-3508
216	-3509
219	-3510
221	-3511
223	-3512
229	-3513
233	-3514
234	-3515
236	-3516
247	-3517
257	-3518
26,	-3519
262	-3520
267	-3521
277	-3522
282	-3523
285	-3524
296	-3525
303	-3526
304	-3527
308	-3528
331	-3529
335	-3530
339	-3531
370	-3532
378	-3533
379	-3534
385	-3535
4,7	-3536
425	-3537
447	-3538
449	-3539
454	-3540
477	-3541
48,	-3542
484	-3543
491	-3544
50,	-3545
525	-3546
532	-3547
586	-3548
598	-3549
6,9	-3550
606	-3551
607	-3552
619	-3553
633	-3554
648	-3555
674	-3556
70,	-3557
704	-3558
705	-3559
722	-3560
762	-3561
775	-3562
789	-3563
829	-3564
855	-3565
891	-3566
908	-3567
947	-3568
959	-3569
985	-3570
994	-3571
:35	-3572
MRI	-3573
UCP	-3574
acn	-3575
ail	-3576
ans	-3577
dzh	-3578
ebr	-3579
elo	-3580
ens	-3581
ess	-3582
har	-3583
hem	-3584
hip	-3585
ild	-3586
itr	-3587
olu	-3588
udy	-3589
urg	-3590
ute	-3591
ven	-3592
win	-3593
yne	-3594
~30	-3595
·�,	-3596
õDZ	-3597
ŸŰŷ	-3598
ƽþư	-3599
ǽɵǴ	-3600
ǾȰǿ	-3601
˱��	-3602
Ϻκδ	-3603
׿��	-3604
޸��	-3605
▁1%	-3606
▁2/	-3607
▁4]	-3608
▁4~	-3609
▁5)	-3610
▁56	-3611
▁59	-3612
▁6)	-3613
▁67	-3614
▁69	-3615
▁7~	-3616
▁94	-3617
▁im	-3618
▁iȣ	-3619
▁on	-3620
▁pH	-3621
▁âƲ	-3622
▁ġȯ	-3623
▁ƴŸ	-3624
▁ȨƮ	-3625
▁�޿	-3626
▁�⸣	-3627
▁�𸥴	-3628
▁�񳭰	-3629
▁�򰡺	-3630
▁�󵵴	-3631
��	-3632
��	-3633
��	-3634
�¡�	-3635
�԰�	-3636
��÷	-3637
��׶	-3638
��	-3639
�񺰷�	-3640
�򰡸�	-3641
�󿡼�	-3642
񡤼��	-3643
򿡵�,	-3644
)[3]	-3645
0,61	-3646
0101	-3647
0437	-3648
075,	-3649
0���	-3650
1393	-3651
1828	-3652
1���	-3653
2,35	-3654
2,68	-3655
2,77	-3656
205,	-3657
2060	-3658
212,	-3659
2268	-3660
2453	-3661
2835	-3662
2999	-3663
3409	-3664
3419	-3665
3852	-3666
4,65	-3667
4229	-3668
44��	-3669
5069	-3670
541,	-3671
545,	-3672
5714	-3673
611,	-3674
6553	-3675
6560	-3676
6680	-3677
6969	-3678
698,	-3679
77,4	-3680
8���	-3681
9947	-3682
Amer	-3683
CRPS	-3684
Unit	-3685
ambu	-3686
arly	-3687
ated	-3688
bers	-3689
edic	-3690
ence	-3691
ever	-3692
fici	-3693
ican	-3694
link	-3695
mmHg	-3696
mmun	-3697
oods	-3698
sion	-3699
synd	-3700
thum	-3701
ties	-3702
~100	-3703
¶���	-3704
ǽɵdz	-3705
׵)��	-3706
ۡۡۡۺ	-3707
▁1.�	-3708
▁127	-3709
▁16�	-3710
▁19,	-3711
▁192	-3712
▁2).	-3713
▁2,4	-3714
▁20%	-3715
▁23,	-3716
▁30�	-3717
▁310	-3718
▁41,	-3719
▁43,	-3720
▁45,	-3721
▁49,	-3722
▁52.	-3723
▁5�⸦	-3724
▁68,	-3725
▁70%	-3726
▁846	-3727
▁87.	-3728
▁88,	-3729
▁96�	-3730
▁98.	-3731
▁Cor	-3732
▁GCS	-3733
▁HCO	-3734
▁III	-3735
▁[19	-3736
▁con	-3737
▁hem	-3738
▁�˺�	-3739
▁�˿�	-3740
▁��	-3741
▁�򰡴�	-3742
▁�󸶸�	-3743
▁�󺹺�	-3744
�[��	-3745
�]��	-3746
�⿡��	-3747
��޿�	-3748
���鿡	-3749
���	-3750
��󡯿�	-3751
𰡰���	-3752
񰡰���	-3753
󾾿���	-3754
102��	-3755
12270	-3756
17161	-3757
1968.	-3758
1995.	-3759
200��	-3760
20730	-3761
22249	-3762
23��,	-3763
24891	-3764
24���	-3765
29474	-3766
30��,	-3767
35199	-3768
38623	-3769
38��,	-3770
4,800	-3771
48413	-3772
48994	-3773
50149	-3774
50586	-3775
52647	-3776
53812	-3777
62671	-3778
6��),	-3779
72572	-3780
75��,	-3781
855,4	-3782
8��),	-3783
9,516	-3784
agent	-3785
bnail	-3786
ction	-3787
joint	-3788
˹����	-3789
޾����	-3790
▁1%��	-3791
▁117,	-3792
▁13.�	-3793
▁14.�	-3794
▁177,	-3795
▁18.�	-3796
▁2,96	-3797
▁2009	-3798
▁22��	-3799
▁23��	-3800
▁258,	-3801
▁27.�	-3802
▁27��	-3803
▁28.,	-3804
▁28.�	-3805
▁3%��	-3806
▁3/10	-3807
▁30.�	-3808
▁312,	-3809
▁4.32	-3810
▁5��,	-3811
▁5���	-3812
▁6031	-3813
▁69��	-3814
▁6��,	-3815
▁6���	-3816
▁9%��	-3817
▁Sale	-3818
▁[[��	-3819
▁surg	-3820
▁�˸��	-3821
▁�׺��	-3822
▁�޴��	-3823
▁�޶󡯴�	-3824
▁�޹��	-3825
▁�޼�,	-3826
▁�߾�,	-3827
▁�⵵��	-3828
▁�⵶��	-3829
▁�⸣��	-3830
▁���	-3831
▁��(=	-3832
▁��0�	-3833
▁��42	-3834
▁��4�	-3835
▁��5�	-3836
▁��65	-3837
▁��78	-3838
▁��79	-3839
▁��81	-3840
▁���˼	-3841
▁���ࡹ	-3842
▁���๮	-3843
▁���	-3844
▁�񳭰��	-3845
▁�󵵴��	-3846
����	-3847
�ʹ���	-3848
�޶���	-3849
����	-3850
��°�,	-3851
��׷��	-3852
���).	-3853
���޿�	-3854
����	-3855
����򰡹	-3856
%(����	-3857
(1989.	-3858
(=����	-3859
(����,	-3860
,811��	-3861
11��),	-3862
12��),	-3863
19����	-3864
29����	-3865
37524,	-3866
426,75	-3867
51��),	-3868
6,610,	-3869
62251,	-3870
70420,	-3871
90095,	-3872
Marine	-3873
United	-3874
acnyne	-3875
edical	-3876
icated	-3877
tracts	-3878
↓����,	-3879
▁120��	-3880
▁12��,	-3881
▁180��	-3882
▁1943.	-3883
▁1973.	-3884
▁1974.	-3885
▁1978.	-3886
▁1979.	-3887
▁1��2]	-3888
▁2004�	-3889
▁24.��	-3890
▁37531	-3891
▁40%��	-3892
▁40��,	-3893
▁600��	-3894
▁62268	-3895
▁70437	-3896
▁90101	-3897
▁93��4	-3898
▁93��6	-3899
▁95��3	-3900
▁96,95	-3901
▁99,19	-3902
▁Goods	-3903
▁Immun	-3904
▁image	-3905
▁sever	-3906
▁�¶���	-3907
▁�÷���	-3908
▁�˱���	-3909
▁�˼���	-3910
▁�⿩��,	-3911
▁���,	-3912
▁��100	-3913
▁��101	-3914
▁��118	-3915
▁��140	-3916
▁��145	-3917
▁��401	-3918
▁��÷��	-3919
▁���1�	-3920
▁���»�	-3921
▁���⿹�	-3922
▁���鿡�	-3923
▁����	-3924
▁���,	-3925
▁���𿡸�	-3926
▁���񱸿�	-3927
▁���󡯿�	-3928
▁���󸶰�	-3929
▁�񴢱���	-3930
�(��25	-3931
��޾���	-3932
��߾���	-3933
����޺�	-3934
��򰡿���	-3935
250����	-3936
27����5	-3937
300����	-3938
394����	-3939
421����	-3940
6,720��	-3941
778����	-3942
hipping	-3943
olution	-3944
vention	-3945
÷������	-3946
⁄4�����	-3947
▁10��27	-3948
▁13����	-3949
▁171���	-3950
▁17����	-3951
▁1990��	-3952
▁1991��	-3953
▁1997�⿡	-3954
▁1�޷���	-3955
▁2)����	-3956
▁2006�⵵	-3957
▁2007�⵵	-3958
▁3(����	-3959
▁31����	-3960
▁3���޿�	-3961
▁63����	-3962
▁6��°��	-3963
▁88,668	-3964
▁8��9��	-3965
▁94��15	-3966
▁97��19	-3967
▁97��54	-3968
▁99����	-3969
▁9���ʿ�	-3970
▁�3⁄4��	-3971
▁�˸����	-3972
▁�˻����	-3973
▁�˾����	-3974
▁�׷���,	-3975
▁�鿡����	-3976
▁�����	-3977
▁�����	-3978
▁��1993	-3979
▁��2009	-3980
▁��4723	-3981
▁��52��	-3982
▁��6158	-3983
▁��6919	-3984
▁��7584	-3985
▁��77��	-3986
▁��79��	-3987
▁��8258	-3988
▁��8380	-3989
▁��8632	-3990
▁��8733	-3991
▁��8985	-3992
▁��9617	-3993
▁��9706	-3994
▁���£��	-3995
▁���޹��	-3996
▁���࿹��	-3997
▁���←��	-3998
▁���⿹��	-3999
▁����.[	-4000
▁�����¡	-4001
▁�����ʼ	-4002
▁�����ʿ	-4003
▁�����޿	-4004
�(2008.	-4005
�(2013.	-4006
�(��1��	-4007
�(��7��	-4008
�(��8��	-4009
�)(����	-4010
�.�׸���	-4011
��࿡����	-4012
���˿���	-4013
������	-4014
����(��	-4015
����׼��	-4016
�����;�	-4017
�����˷�	-4018
������(	-4019
������๰	-4020
�񽺱�����	-4021
(�������	-4022
/100����	-4023
12������	-4024
23������	-4025
49������	-4026
63������	-4027
67,831��	-4028
76������	-4029
7��(����	-4030
American	-4031
ficiency	-4032
▁0.47%��	-4033
▁1,855,4	-4034
▁10:00��	-4035
▁14,541,	-4036
▁17.����	-4037
▁17:00��	-4038
▁19:00��	-4039
▁2,102��	-4040
▁2,600��	-4041
▁2005��5	-4042
▁2005��8	-4043
▁2009��1	-4044
▁2009��7	-4045
▁2010��6	-4046
▁2011��7	-4047
▁2012��5	-4048
▁2013��5	-4049
▁22.����	-4050
▁24.����	-4051
▁29.����	-4052
▁312,101	-4053
▁34,523,	-4054
▁34,611,	-4055
▁4,500��	-4056
▁479����	-4057
▁6,000��	-4058
▁7������	-4059
▁9������	-4060
▁Medical	-4061
▁Nations	-4062
▁surgery	-4063
▁�˱�����	-4064
▁�˾�����	-4065
▁�⿬�����	-4066
▁��10893	-4067
▁��13521	-4068
▁��14014	-4069
▁��14��,	-4070
▁��152��	-4071
▁��168��	-4072
▁��17551	-4073
▁��213��	-4074
▁��21744	-4075
▁��217��	-4076
▁��21��,	-4077
▁��221��	-4078
▁��227��	-4079
▁��23015	-4080
▁��236��	-4081
▁��250��	-4082
▁��257��	-4083
▁��262��	-4084
▁��26553	-4085
▁��30��,	-4086
▁��389��	-4087
▁��418��	-4088
▁��913��	-4089
▁���±���	-4090
▁���»���	-4091
▁���׼���	-4092
▁���߻���	-4093
▁���⸻���	-4094
▁����1��	-4095
▁����¡��	-4096
▁�����鿡�	-4097
▁�����񽺸�	-4098
▁���𰡰���	-4099
▁�򰡴�����	-4100
�?������	-4101
��(1968.	-4102
��(2009.	-4103
��(2011.	-4104
��(����,	-4105
��๰����,	-4106
�������.	-4107
0,610����	-4108
3,680����	-4109
:10������	-4110
thumbnail	-4111
߻���(����	-4112
▁0.013%��	-4113
▁106,610,	-4114
▁1998�⵵��	-4115
▁1��(����	-4116
▁2,632,77	-4117
▁2005����	-4118
▁2006��18	-4119
▁2006��28	-4120
▁2007��10	-4121
▁2007��29	-4122
▁2008��11	-4123
▁2008��35	-4124
▁2008��48	-4125
▁2008��99	-4126
▁2009��35	-4127
▁2009��77	-4128
▁2009��80	-4129
▁2010��69	-4130
▁2010��77	-4131
▁258,545,	-4132
▁4.������	-4133
▁74��1393	-4134
▁96��3852	-4135
▁�׷�����,	-4136
▁�߿������	-4137
▁�⿩(����)	-4138
▁�������	-4139
▁��209��,	-4140
▁��25����	-4141
▁��275��,	-4142
▁��34����	-4143
▁��42����	-4144
▁��49����	-4145
▁��50����	-4146
▁��52����	-4147
▁��54����	-4148
▁��62����	-4149
▁��64����	-4150
▁��70����	-4151
▁��751��,	-4152
▁���¿����	-4153
▁���޴��󿡼�	-4154
▁���⿡����	-4155
▁�������	-4156
▁����(199	-4157
▁����(��,	-4158
▁����(��1	-4159
▁����(��3	-4160
▁����)[6]	-4161
▁����-���	-4162
▁����/���	-4163
▁�����⵶��	-4164
▁�������°	-4165
▁�����򿡵�,	-4166
�͹�������	-4167
���(2001.	-4168
���(2008.	-4169
�����(���	-4170
��������࿡	-4171
syndicated	-4172
▁(��)����,	-4173
▁11.������	-4174
▁16:00����	-4175
▁20.������	-4176
▁2007��354	-4177
▁2007����5	-4178
▁2009��118	-4179
▁2016��201	-4180
▁91��23707	-4181
▁92��48413	-4182
▁96,954,65	-4183
▁98��12270	-4184
▁98��31264	-4185
▁98��38623	-4186
▁98��39633	-4187
▁98��50586	-4188
▁98��62671	-4189
▁Contracts	-4190
▁�1�������	-4191
▁�޼�������	-4192
▁�޿�������	-4193
▁��(������	-4194
▁��101����	-4195
▁��125����	-4196
▁��13����4	-4197
▁��174����	-4198
▁��239��),	-4199
▁��265����	-4200
▁��266����	-4201
▁��415����	-4202
▁��447����	-4203
▁��623��).	-4204
▁��734����	-4205
▁��765����	-4206
▁���԰�����	-4207
▁���׹�����	-4208
▁���׼�����	-4209
▁���׿�����	-4210
▁���޺�����	-4211
▁�����3���	-4212
▁�����°���	-4213
▁�����޺���	-4214
▁�������÷�	-4215
▁�������׵�	-4216
▁�������࡯�	-4217
▁�񱳡�������	-4218
������޿���	-4219
�������(��	-4220
,000,000���	-4221
▁10��27����	-4222
▁2001��2129	-4223
▁2005������	-4224
▁2007��3162	-4225
▁2007��5069	-4226
▁2010��6680	-4227
▁Convention	-4228
▁�߿��׼�����	-4229
▁���������	-4230
▁��12������	-4231
▁��19������	-4232
▁��527����5	-4233
▁���޴������	-4234
▁���⹰������	-4235
▁���⿹������	-4236
▁����(2008.	-4237
▁����)(����	-4238
▁�����˹����	-4239
▁�����޴����	-4240
▁���������˻	-4241
▁���������鿡	-4242
�����(1993.	-4243
����������(	-4244
����������࿡	-4245
▁2000��22249	-4246
▁2000��72572	-4247
▁2001��24891	-4248
▁2002��45185	-4249
▁2002��50149	-4250
▁2002��63565	-4251
▁2003��52647	-4252
▁2003����262	-4253
▁2004��35199	-4254
▁2005��29474	-4255
▁2005��32999	-4256
▁2005��44138	-4257
▁2005��48994	-4258
▁2007��17161	-4259
▁2007��6024,	-4260
▁2008��38288	-4261
▁2008��53812	-4262
▁2008��77405	-4263
▁2008��84229	-4264
▁2009��29366	-4265
▁2009��66969	-4266
▁2009��82060	-4267
▁2009��91828	-4268
▁2009��95714	-4269
▁2010��79947	-4270
▁3,937������	-4271
▁�߻���������	-4272
▁��10����4��	-4273
▁��134������	-4274
▁��390������	-4275
▁��671������	-4276
▁���߿�������	-4277
▁����(��׵)��	-4278
▁����)������	-4279
▁�����÷�����	-4280
▁�������·���	-4281
▁����������	-4282
▁��������[2]	-4283
▁���������࡯�	-4284
����)�������	-4285
3������������	-4286
▁2000��37524,	-4287
▁2001��62251,	-4288
▁2004��70420,	-4289
▁2008��90095,	-4290
▁3,416,704,42	-4291
▁88,668,811��	-4292
▁��23��������	-4293
▁����).������	-4294
▁����[(��)��]	-4295
▁������(2003.	-4296
▁������(2011.	-4297
▁�����������⸦	-4298
�������(1994.	-4299
▁1,700,000����	-4300
▁14,541,426,75	-4301
▁180,690,457��	-4302
▁2,963,680����	-4303
▁International	-4304
▁����[(��)��],	-4305
▁����������(��	-4306
���(��)(������	-4307
����������)���	-4308
▁(�������������	-4309
▁99,190,610����	-4310
▁���๰����������	-4311
▁������(����)��	-4312
���(��)��������	-4313
���������(2011.	-4314
����������(����	-4315
,000,000,000����	-4316
▁180,690,457����	-4317
▁324,240,778����	-4318
▁�޼�������������	-4319
▁�����°���������	-4320
▁�����޿���������	-4321
����������(2006.	-4322
%(	-4323
-3	-4324
-8	-4325
.,	-4326
/8	-4327
2�	-4328
3-	-4329
4-	-4330
5~	-4331
7�	-4332
9)	-4333
;�	-4334
Ap	-4335
BC	-4336
BP	-4337
CD	-4338
CF	-4339
Ch	-4340
DR	-4341
GO	-4342
HI	-4343
IC	-4344
Jo	-4345
Mc	-4346
NN	-4347
SS	-4348
TD	-4349
TO	-4350
VE	-4351
aO	-4352
as	-4353
dn	-4354
do	-4355
dy	-4356
ee	-4357
hn	-4358
ie	-4359
iz	-4360
kg	-4361
os	-4362
pa	-4363
rb	-4364
re	-4365
to	-4366
ub	-4367
ul	-4368
us	-4369
wa	-4370
ws	-4371
xp	-4372
yd	-4373
~6	-4374
°,	-4375
åȸ	-4376
ñǰ	-4377
õǸ	-4378
üä	-4379
þƼ	-4380
ĵȡ	-4381
Ÿű	-4382
Ÿų	-4383
ŹG	-4384
žȿ	-4385
Ʒÿ	-4386
ǰǴ	-4387
ǵǰ	-4388
Ƿẹ	-4389
ǽL	-4390
Ǿȿ	-4391
ȥŹ	-4392
ȭź	-4393
ȭǥ	-4394
Ȱų	-4395
Ȱȯ	-4396
ȵȴ	-4397
ȸû	-4398
ȸǥ	-4399
ȸȭ	-4400
ɽÿ	-4401
ɽĻ	-4402
˳�	-4403
˹�	-4404
ͷκ	-4405
ιλ	-4406
κε	-4407
Ϸῡ	-4408
Ϻγ	-4409
Һо	-4410
Ҽӱ	-4411
ӼҼ	-4412
ش١	-4413
صل	-4414
ٲٴ	-4415
ڰݼ	-4416
ڱع	-4417
ڱݸ	-4418
ݹݾ	-4419
߽�	-4420
ࡱ�	-4421
▁m	-4422
▁~	-4423
▁£	-4424
▁Ģ	-4425
▁Į	-4426
▁ķ	-4427
▁Ƣ	-4428
▁Ʃ	-4429
ⱳó	-4430
�5	-4431
�˻	-4432
�߽	-4433
�𵨸	-4434
񡯶�	-4435
񱳸�	-4436
񽺴�	-4437
򰡵�	-4438
򼺰�	-4439
򼺿�	-4440
󱸸�	-4441
󱼿�	-4442
󸶴�	-4443
󿡰�	-4444
+3.	-4445
004	-4446
007	-4447
010	-4448
018	-4449
0�⿡	-4450
1)(	-4451
1,8	-4452
1.5	-4453
1.7	-4454
104	-4455
11]	-4456
12]	-4457
18,	-4458
235	-4459
241	-4460
246	-4461
25(	-4462
263	-4463
265	-4464
273	-4465
275	-4466
279	-4467
293	-4468
3,4	-4469
3.5	-4470
356	-4471
37,	-4472
390	-4473
396	-4474
4.5	-4475
418	-4476
443	-4477
47%	-4478
493	-4479
498	-4480
503	-4481
522	-4482
524	-4483
533	-4484
592	-4485
6%,	-4486
635	-4487
651	-4488
673	-4489
678	-4490
685	-4491
7),	-4492
72,	-4493
72-	-4494
745	-4495
755	-4496
76.	-4497
779	-4498
794	-4499
144	-4500
19(	-4501
230	-4502
316	-4503
357	-4504
416	-4505
795	-4506
797	-4507
807	-4508
809	-4509
856	-4510
869	-4511
898	-4512
9,5	-4513
927	-4514
929	-4515
931	-4516
974	-4517
AGI	-4518
BIS	-4519
CPA	-4520
DZǸ	-4521
MAS	-4522
OOD	-4523
RED	-4524
REN	-4525
URL	-4526
Uni	-4527
all	-4528
ank	-4529
aya	-4530
bil	-4531
dro	-4532
erv	-4533
gen	-4534
igh	-4535
ign	-4536
ile	-4537
isp	-4538
ley	-4539
man	-4540
oma	-4541
ool	-4542
ple	-4543
thm	-4544
und	-4545
yst	-4546
·ʹ�	-4547
ǵDZ	-4548
ɼǰŷ	-4549
˻�,	-4550
԰�,	-4551
׶��	-4552
׷�,	-4553
׹޾�	-4554
ٲۇٴ	-4555
߽��	-4556
೻��	-4557
▁(1	-4558
▁1(	-4559
▁25	-4560
▁3(	-4561
▁38	-4562
▁41	-4563
▁44	-4564
▁49	-4565
▁54	-4566
▁5]	-4567
▁63	-4568
▁64	-4569
▁6]	-4570
▁7)	-4571
▁76	-4572
▁78	-4573
▁83	-4574
▁95	-4575
▁Se	-4576
▁fa	-4577
▁la	-4578
▁õȣ	-4579
▁ûŹ	-4580
▁Ưȭ	-4581
▁ȭü	-4582
▁�͹	-4583
▁�׹	-4584
▁�޹	-4585
▁�	-4586
▁�	-4587
▁�	-4588
▁�񵵽	-4589
▁�򰡶	-4590
▁�򰡾	-4591
▁�󸰰	-4592
▁�󼳱	-4593
⸻��	-4594
⿹��	-4595
��	-4596
��	-4597
��	-4598
�],	-4599
,73	-4600
/26	-4601
/4,	-4602
049	-4603
120	-4604
134	-4605
14(	-4606
141	-4607
142	-4608
149	-4609
220	-4610
268	-4611
294	-4612
30,	-4613
326	-4614
329	-4615
654	-4616
865	-4617
920	-4618
mon	-4619
tip	-4620
ŵǰų	-4621
▁no	-4622
▁ȥŹ	-4623
�˻�	-4624
��1	-4625
��·	-4626
��¿	-4627
��˸	-4628
��԰	-4629
��׸	-4630
��鿪	-4631
��	-4632
��󡤿	-4633
(��)	-4634
-404	-4635
-502	-4636
0,58	-4637
06��	-4638
073,	-4639
1%��	-4640
1,72	-4641
1275	-4642
1313	-4643
1406	-4644
153,	-4645
160,	-4646
1683	-4647
17,1	-4648
18��	-4649
1915	-4650
2%��	-4651
2,44	-4652
2,88	-4653
2,90	-4654
2181	-4655
238,	-4656
2491	-4657
2600	-4658
273,	-4659
2748	-4660
287,	-4661
2882	-4662
294�	-4663
3062	-4664
363,	-4665
397,	-4666
4365	-4667
4701	-4668
4���	-4669
5,85	-4670
5.61	-4671
54��	-4672
5933	-4673
6%��	-4674
6,34	-4675
6069	-4676
66%,	-4677
66��	-4678
6849	-4679
694,	-4680
7044	-4681
709,	-4682
72%)	-4683
723,	-4684
7558	-4685
7619	-4686
8%��	-4687
8,26	-4688
8.16	-4689
8.57	-4690
8131	-4691
825,	-4692
836,	-4693
894,	-4694
8��,	-4695
9,98	-4696
965,	-4697
ISBP	-4698
OOCL	-4699
06,	-4700
060	-4701
21,	-4702
22,	-4703
3,7	-4704
342	-4705
347	-4706
348	-4707
4,0	-4708
480	-4709
482	-4710
499	-4711
51,	-4712
587	-4713
6,0	-4714
6,5	-4715
669	-4716
691	-4717
740	-4718
747	-4719
let	-4720
mun	-4721
phy	-4722
uri	-4723
ľǵǴ	-4724
▁tr	-4725
105,	-4726
1447	-4727
293,	-4728
3,24	-4729
3038	-4730
3830	-4731
543,	-4732
6,17	-4733
7721	-4734
7730	-4735
89%,	-4736
YMCA	-4737
emis	-4738
form	-4739
fort	-4740
high	-4741
imal	-4742
iple	-4743
melo	-4744
orum	-4745
port	-4746
rade	-4747
sted	-4748
stup	-4749
tice	-4750
tudy	-4751
ural	-4752
wins	-4753
yndr	-4754
׵��)	-4755
׻���	-4756
޴���	-4757
޸���	-4758
޼���	-4759
▁(10	-4760
▁1,0	-4761
▁1.2	-4762
▁1/2	-4763
▁101	-4764
▁105	-4765
▁109	-4766
▁10:	-4767
▁115	-4768
▁120	-4769
▁148	-4770
▁1�⿡	-4771
▁2.,	-4772
▁220	-4773
▁265	-4774
▁3,5	-4775
▁3,7	-4776
▁3.�	-4777
▁302	-4778
▁318	-4779
▁337	-4780
▁347	-4781
▁36-	-4782
▁36.	-4783
▁36�	-4784
▁379	-4785
▁38,	-4786
▁3�⿡	-4787
▁4.,	-4788
▁4.6	-4789
▁4.�	-4790
▁40~	-4791
▁416	-4792
▁42,	-4793
▁427	-4794
▁434	-4795
▁5.4	-4796
▁500	-4797
▁54,	-4798
▁598	-4799
453	-4800
496	-4801
545	-4802
602	-4803
639	-4804
670	-4805
684	-4806
739	-4807
892	-4808
con	-4809
ect	-4810
ist	-4811
mov	-4812
▁Ac	-4813
▁CO	-4814
▁or	-4815
)�˻�	-4816
-505	-4817
178,	-4818
1989	-4819
237,	-4820
45),	-4821
4760	-4822
6,51	-4823
602,	-4824
679,	-4825
TCDD	-4826
ޡޡޡޱ	-4827
▁57,	-4828
▁6.)	-4829
▁60%	-4830
▁628	-4831
▁64.	-4832
▁68.	-4833
▁7.�	-4834
▁73.	-4835
▁8.(	-4836
▁80%	-4837
▁80,	-4838
▁802	-4839
▁820	-4840
▁860	-4841
▁89.	-4842
▁9.�	-4843
▁94,	-4844
▁967	-4845
▁CIC	-4846
▁Car	-4847
▁Dar	-4848
▁Hey	-4849
▁Ins	-4850
▁PaO	-4851
▁Pol	-4852
▁Rep	-4853
▁SaO	-4854
▁Sec	-4855
▁Vir	-4856
▁[8]	-4857
▁bag	-4858
▁dam	-4859
▁def	-4860
▁lia	-4861
▁way	-4862
▁�ʺ�	-4863
▁�ʾ	-4864
▁�˼�	-4865
▁�׽�	-4866
▁�޽�	-4867
▁�⵵�	-4868
▁��	-4869
▁��-	-4870
▁�󵵴�	-4871
▁�󸲺�	-4872
�(4.	-4873
�1⁄2	-4874
�200	-4875
�7��	-4876
�[5]	-4877
���:	-4878
���ࡤ	-4879
���󿩱	-4880
񱳹���	-4881
񺯻���	-4882
󸶿���	-4883
󿬱���	-4884
(=���	-4885
,000,	-4886
,802,	-4887
01��,	-4888
106��	-4889
11715	-4890
12899	-4891
12���	-4892
16280	-4893
16713	-4894
17292	-4895
1898.	-4896
1908,	-4897
1��),	-4898
20007	-4899
1�	-4900
333	-4901
421	-4902
422	-4903
574	-4904
579	-4905
646	-4906
785	-4907
806	-4908
CPU	-4909
DPE	-4910
anc	-4911
fal	-4912
ory	-4913
صلى	-4914
▁0-	-4915
▁02	-4916
▁De	-4917
(199	-4918
-504	-4919
1021	-4920
1033	-4921
2126	-4922
2751	-4923
3411	-4924
350,	-4925
5635	-4926
6,75	-4927
6328	-4928
9446	-4929
964,	-4930
John	-4931
▁0.0	-4932
▁121	-4933
▁50,	-4934
▁ICA	-4935
▁Oil	-4936
▁Res	-4937
▁�ʼ�	-4938
�.�׼	-4939
(��46	-4940
21821	-4941
22276	-4942
23,78	-4943
23,96	-4944
23050	-4945
29%��	-4946
3,648	-4947
32053	-4948
328��	-4949
33333	-4950
37414	-4951
37647	-4952
3��(=	-4953
3��).	-4954
3���,	-4955
41499	-4956
44%��	-4957
46511	-4958
465��	-4959
47989	-4960
4��),	-4961
50610	-4962
52402	-4963
53197	-4964
53638	-4965
54282	-4966
55126	-4967
56��,	-4968
58491	-4969
63���	-4970
66691	-4971
67,95	-4972
69638	-4973
7,844	-4974
70��,	-4975
72599	-4976
76��,	-4977
774,9	-4978
7��(=	-4979
800��	-4980
846,9	-4981
96%��	-4982
:12��	-4983
:28��	-4984
:40��	-4985
:55��	-4986
URREN	-4987
ative	-4988
early	-4989
erebr	-4990
false	-4991
genic	-4992
omain	-4993
phylo	-4994
quity	-4995
ssing	-4996
xpend	-4997
·���,	-4998
˻�)��	-4999
-55	-5000
888	-5001
905	-5002
Apg	-5003
gro	-5004
icy	-5005
ome	-5006
ǽñǿ	-5007
ǽõǰ	-5008
ǽõǸ	-5009
ǾȰǡ	-5010
▁EL	-5011
023,	-5012
071,	-5013
1,95	-5014
1381	-5015
1690	-5016
2094	-5017
2407	-5018
2904	-5019
4093	-5020
5,09	-5021
5973	-5022
6873	-5023
798,	-5024
8411	-5025
845,	-5026
MOPS	-5027
▁28�	-5028
▁31�	-5029
▁402	-5030
▁99%	-5031
▁Llo	-5032
▁[7]	-5033
10479	-5034
24502	-5035
483,9	-5036
70600	-5037
:22��	-5038
:24��	-5039
Apgar	-5040
drows	-5041
group	-5042
inter	-5043
͸����	-5044
޵����	-5045
޿����	-5046
߼���)	-5047
▁0.03	-5048
▁1)��	-5049
▁1,00	-5050
▁1,26	-5051
▁1,58	-5052
▁10.)	-5053
▁10.�	-5054
▁107,	-5055
▁108,	-5056
▁116,	-5057
▁12.�	-5058
▁14.,	-5059
▁172,	-5060
▁173,	-5061
▁178,	-5062
▁1��)	-5063
▁2)��	-5064
▁2,27	-5065
▁2,32	-5066
▁20%,	-5067
▁2015	-5068
▁2016	-5069
▁2017	-5070
▁202,	-5071
▁203,	-5072
▁208,	-5073
▁209,	-5074
▁211,	-5075
▁212,	-5076
▁229,	-5077
▁22:0	-5078
▁231,	-5079
▁2406	-5080
▁267,	-5081
▁2849	-5082
▁286,	-5083
▁287,	-5084
▁29.)	-5085
▁291,	-5086
▁299,	-5087
▁2~3�	-5088
▁3,26	-5089
▁30.)	-5090
▁30.,	-5091
▁302,	-5092
▁303,	-5093
▁31.)	-5094
▁31.,	-5095
▁313,	-5096
▁314,	-5097
▁31��	-5098
▁328,	-5099
Hun	-5100
att	-5101
ode	-5102
▁Un	-5103
▁po	-5104
▁źõ	-5105
,300	-5106
229,	-5107
425,	-5108
465,	-5109
:30�	-5110
Hunt	-5111
ames	-5112
uman	-5113
▁505	-5114
▁Num	-5115
▁pol	-5116
03��)	-5117
33048	-5118
42797	-5119
69631	-5120
77848	-5121
99105	-5122
inked	-5123
▁140,	-5124
▁292,	-5125
▁298,	-5126
▁2]��	-5127
▁329,	-5128
▁37��	-5129
▁4,57	-5130
▁40%,	-5131
▁42��	-5132
▁46,1	-5133
▁5,10	-5134
▁5,68	-5135
▁50%�	-5136
▁6%��	-5137
▁68��	-5138
▁6968	-5139
▁73��	-5140
▁76��	-5141
▁78��	-5142
▁79��	-5143
▁Disp	-5144
▁ELIS	-5145
▁Hess	-5146
▁Pain	-5147
▁[200	-5148
▁same	-5149
▁�1⁄2	-5150
▁�1��	-5151
▁�˰�,	-5152
▁�˼�,	-5153
▁�׺�(	-5154
▁�׺�,	-5155
▁�׼�,	-5156
▁�޶󡱴�	-5157
▁��).	-5158
▁��29	-5159
▁��4,	-5160
▁��5,	-5161
▁��55	-5162
▁���ʾ	-5163
▁���׸	-5164
▁���޾	-5165
▁���ᳪ	-5166
▁���䷮	-5167
▁���	-5168
▁���	-5169
▁���񱳴	-5170
▁���󺹱	-5171
▁�򰡾׸�	-5172
����	-5173
����	-5174
�(��7	-5175
�)[7]	-5176
�1߻��	-5177
�ʿ���	-5178
�޺���	-5179
�߻���	-5180
��267	-5181
��2��	-5182
��[3]	-5183
��[4]	-5184
��¡��	-5185
��׿��	-5186
��߽��	-5187
���.�	-5188
���˿�	-5189
���׼�	-5190
����.	-5191
���񽺸�	-5192
(1984.	-5193
(2002.	-5194
)���׼�	-5195
,560��	-5196
010,68	-5197
0����,	-5198
0����3	-5199
rep	-5200
rhy	-5201
▁ĪŸ	-5202
񼮳󵵸�	-5203
4266	-5204
pool	-5205
▁96-	-5206
▁��	-5207
1485,	-5208
1962.	-5209
2390,	-5210
25611	-5211
25865	-5212
29945	-5213
34426	-5214
39013	-5215
45537	-5216
53865	-5217
6,726	-5218
61615	-5219
61689	-5220
cyber	-5221
event	-5222
gment	-5223
▁1403	-5224
▁160,	-5225
▁228,	-5226
▁331,	-5227
▁9328	-5228
▁PaCO	-5229
��150	-5230
1.28��	-5231
105,96	-5232
128%��	-5233
14����	-5234
17����	-5235
1�����	-5236
2008��	-5237
24��].	-5238
24����	-5239
251,68	-5240
26��).	-5241
2�����	-5242
3,419,	-5243
32828,	-5244
32��).	-5245
48����	-5246
5,423,	-5247
533,14	-5248
53��),	-5249
54��).	-5250
60072,	-5251
66��).	-5252
66��8,	-5253
68����	-5254
812,90	-5255
agency	-5256
harmon	-5257
munity	-5258
oolley	-5259
rhythm	-5260
wasted	-5261
°�����	-5262
·(����	-5263
˭��)��	-5264
޹�����	-5265
޼�����	-5266
▁)����	-5267
▁0.3��	-5268
▁03:40	-5269
▁1,100	-5270
▁1,300	-5271
▁1,500	-5272
▁10��)	-5273
▁10��,	-5274
▁11)��	-5275
▁125��	-5276
▁14,14	-5277
▁17��,	-5278
▁185.5	-5279
▁19.��	-5280
▁1910.	-5281
▁1912.	-5282
▁1938.	-5283
▁1939.	-5284
▁1941.	-5285
▁1951.	-5286
▁1965.	-5287
▁1967.	-5288
▁1969.	-5289
▁1970.	-5290
▁1983.	-5291
▁19:50	-5292
▁1��)�	-5293
▁2,200	-5294
▁20~30	-5295
▁230��	-5296
▁2�⿩��	-5297
▁2��2]	-5298
▁3,934	-5299
ASP	-5300
DRP	-5301
TER	-5302
قمم	-5303
▁to	-5304
-510	-5305
rans	-5306
▁(9)	-5307
▁04:	-5308
▁Arb	-5309
▁LTD	-5310
▁MGO	-5311
▁�񱳸�	-5312
▁�󱼿�	-5313
)(1)(	-5314
/80��	-5315
1,838	-5316
11956	-5317
31018	-5318
31361	-5319
39898	-5320
44327	-5321
44674	-5322
50308	-5323
Mcres	-5324
erate	-5325
iture	-5326
▁Name	-5327
▁UDRP	-5328
��񼮳󵵴�	-5329
�𵨸���	-5330
+3.72%	-5331
047,55	-5332
075,69	-5333
920���	-5334
MASTER	-5335
▁30���	-5336
▁32835	-5337
▁33%��	-5338
▁332��	-5339
▁414��	-5340
▁450��	-5341
▁455��	-5342
▁45���	-5343
▁47038	-5344
▁48%��	-5345
▁4��19	-5346
▁570��	-5347
▁6.���	-5348
▁60089	-5349
▁677,4	-5350
▁68,38	-5351
▁69,88	-5352
▁700��	-5353
▁75%��	-5354
▁91��4	-5355
▁92��4	-5356
▁990��	-5357
▁Names	-5358
▁Syndr	-5359
▁[����	-5360
▁�3⁄4	-5361
▁�3⁄4	-5362
▁�»���	-5363
▁�˺���	-5364
▁�˻��	-5365
▁�׵鿡��	-5366
▁�޹���	-5367
▁���,	-5368
▁��105	-5369
▁��106	-5370
▁��110	-5371
▁��114	-5372
▁��125	-5373
▁��178	-5374
▁��291	-5375
▁��301	-5376
▁��302	-5377
▁��305	-5378
▁��36�	-5379
▁��535	-5380
▁��667	-5381
▁��887	-5382
▁��996	-5383
▁���ʹ�	-5384
▁���˿�	-5385
▁���׵鿡	-5386
▁���޸�	-5387
▁���޹޴	-5388
▁���߻�	-5389
▁���߾	-5390
▁���࡯(	-5391
▁���๮�	-5392
▁���๰�	-5393
▁����	-5394
▁���񽺴�	-5395
▁���񿡼�	-5396
▁���򼺰�	-5397
▁���򼺿�	-5398
▁���󡯰�	-5399
▁tip	-5400
74560	-5401
9311,	-5402
DERED	-5403
Himal	-5404
igned	-5405
ystem	-5406
▁230,	-5407
▁472-	-5408
▁bank	-5409
▁tree	-5410
▁�󸰰��	-5411
��󡤿��	-5412
(1898.	-5413
1,721,	-5414
47014,	-5415
694,94	-5416
825,56	-5417
bility	-5418
letter	-5419
melody	-5420
moving	-5421
stupor	-5422
▁-2,44	-5423
▁-5.61	-5424
▁4294�	-5425
▁71915	-5426
▁Forum	-5427
▁ICANN	-5428
▁Virus	-5429
▁grade	-5430
▁study	-5431
▁���󱸸�	-5432
▁�򰡵���	-5433
▁�򰡶���	-5434
▁�򰡿���	-5435
▁�󱼱���	-5436
�����	-5437
�'����	-5438
�(��47	-5439
�.���	-5440
�⵵����	-5441
��)[2]	-5442
��°���	-5443
��׶���	-5444
��׷���	-5445
��׸���	-5446
��޿���	-5447
��鿪���	-5448
�����	-5449
���(=�	-5450
���°��	-5451
�����	-5452
����(�	-5453
����°�	-5454
����·�	-5455
����˹�	-5456
����԰�	-5457
����׵�	-5458
�����	-5459
��󿡼���	-5460
󸶡�����	-5461
(����),	-5462
,000�޷�	-5463
,736,51	-5464
-11����	-5465
-20%)��	-5466
071,609	-5467
097����	-5468
10��)��	-5469
164����	-5470
1�����	-5471
2,359��	-5472
205,800	-5473
29,237,	-5474
3,684,9	-5475
460����	-5476
500����	-5477
520����	-5478
600����	-5479
65��)��	-5480
65����7	-5481
698,646	-5482
789����	-5483
850����	-5484
89��)��	-5485
990����	-5486
Suction	-5487
Uniform	-5488
harmony	-5489
tractor	-5490
urities	-5491
~100)��	-5492
׷������	-5493
▁1,000,	-5494
▁1,510,	-5495
▁1,836,	-5496
▁1.1%��	-5497
▁1.25��	-5498
▁1001��	-5499
Equity	-5500
SURREN	-5501
▁ELISA	-5502
▁Human	-5503
▁Lloyd	-5504
passing	-5505
▁15,250	-5506
▁152,68	-5507
▁16.��,	-5508
▁163,24	-5509
▁1949��	-5510
▁1955��	-5511
▁1983��	-5512
▁1992��	-5513
▁1��)��	-5514
▁1����,	-5515
▁2000�⵵	-5516
▁2004�⿡	-5517
▁2010�⿡	-5518
▁24����	-5519
▁3,350,	-5520
▁3.24��	-5521
▁38,775	-5522
▁3���ʿ�	-5523
▁40����	-5524
▁42,568	-5525
▁4278��	-5526
▁45,616	-5527
▁45����	-5528
▁47021,	-5529
▁475,09	-5530
▁4����,	-5531
▁5,679,	-5532
▁591,95	-5533
▁6)����	-5534
▁64.203	-5535
▁6]����	-5536
▁751-2,	-5537
▁751-3,	-5538
▁751-4,	-5539
▁86����	-5540
▁8���ʿ�	-5541
▁9001��	-5542
▁91��35	-5543
▁923,96	-5544
▁93��16	-5545
▁93��27	-5546
▁94��36	-5547
▁95��24	-5548
▁95��87	-5549
▁98��17	-5550
▁98����	-5551
▁99��38	-5552
▁Arbitr	-5553
▁Clause	-5554
▁Corpor	-5555
▁Domain	-5556
▁Heyman	-5557
▁Linked	-5558
▁Policy	-5559
▁WECPNL	-5560
▁clause	-5561
▁damage	-5562
▁expend	-5563
▁notice	-5564
▁�˱��԰�	-5565
▁�׼���,	-5566
▁�޸����	-5567
▁�޾��޿�	-5568
▁�߿��׼�	-5569
▁�⵵����	-5570
▁�����	-5571
▁��)[3]	-5572
▁��1116	-5573
▁��1118	-5574
▁��1957	-5575
▁��3725	-5576
▁��4118	-5577
▁��41��	-5578
▁��4226	-5579
▁��4506	-5580
▁��5116	-5581
▁��51��	-5582
▁��54��	-5583
▁��55��	-5584
▁��5��-	-5585
▁��6004	-5586
▁��6987	-5587
▁��6�׿�	-5588
▁��71��	-5589
▁��7352	-5590
▁��7353	-5591
▁��73��	-5592
▁��7583	-5593
▁��8050	-5594
▁��8127	-5595
▁��8340	-5596
▁��8366	-5597
▁��8496	-5598
▁��8581	-5599
▁��85��	-5600
▁��8630	-5601
▁��87��	-5602
▁��9361	-5603
▁��9405	-5604
▁��9425	-5605
▁��9727	-5606
▁��9746	-5607
▁��9905	-5608
▁���1�(	-5609
▁���»��	-5610
▁���԰�,	-5611
▁���׶��	-5612
▁���׷�,	-5613
▁���׼��	-5614
▁���޼��	-5615
▁���޿��	-5616
▁���߿ʹ�	-5617
▁���࡯��	-5618
▁���⵵��	-5619
▁����],	-5620
▁����].	-5621
▁�����˱	-5622
▁�����	-5623
▁�����	-5624
▁���𵨸��	-5625
������	-5626
�(2005.	-5627
�(2007.	-5628
�(2016.	-5629
�(��3��	-5630
�(��4��	-5631
�(��9��	-5632
�(����)	-5633
�)�����	-5634
�.�����	-5635
�1⁄2���	-5636
�˼�����	-5637
���(��׵	-5638
���˻���	-5639
����1�,	-5640
����԰��	-5641
������	-5642
�����(=	-5643
�����(�	-5644
�����¿�	-5645
�����׿�	-5646
������÷	-5647
������⵵	-5648
������⿡	-5649
������񡤼	-5650
���񼮳���	-5651
���󿡼���	-5652
,000��(=	-5653
03������	-5654
30������	-5655
36������	-5656
3����2��	-5657
4,024���	-5658
5�������	-5659
6��(����	-5660
812,908,	-5661
9��(����	-5662
Himalaya	-5663
National	-5664
▁0.44%��	-5665
▁00:05��	-5666
▁01:05��	-5667
▁1,774,9	-5668
▁109,238	-5669
▁127,300	-5670
▁13:00��	-5671
▁14:00��	-5672
▁15:00��	-5673
▁164,800	-5674
▁16:00��	-5675
▁17:30��	-5676
▁1990���	-5677
▁1998��,	-5678
▁1~2����	-5679
▁2004��5	-5680
▁2005��7	-5681
▁2006��5	-5682
▁2008��4	-5683
▁2009��3	-5684
▁200����	-5685
▁2011��8	-5686
▁2012��9	-5687
▁20:20��	-5688
▁21:00��	-5689
▁22:50��	-5690
▁23:30��	-5691
▁23:35��	-5692
▁266,600	-5693
▁2~3����	-5694
▁3.����,	-5695
▁393,648	-5696
▁4,100��	-5697
▁481����	-5698
▁49,293,	-5699
▁4������	-5700
▁5,600��	-5701
▁5.����,	-5702
▁50%����	-5703
▁50,965,	-5704
▁51.28��	-5705
▁5��(��,	-5706
▁6,600��	-5707
▁628����	-5708
▁68��725	-5709
▁69,073,	-5710
▁6��)���	-5711
▁6��8%��	-5712
▁7,600��	-5713
▁8,500��	-5714
▁846����	-5715
▁89.66%,	-5716
▁9,000��	-5717
▁92��947	-5718
▁96��301	-5719
▁Darwins	-5720
▁Dispute	-5721
▁Numbers	-5722
▁Woolley	-5723
▁comfort	-5724
▁defence	-5725
▁several	-5726
▁�3⁄4��	-5727
▁�3�����	-5728
▁�˰�����	-5729
▁�׵�����	-5730
▁�׻�����	-5731
▁�޷�����	-5732
▁�޼�����	-5733
▁�⿩�����	-5734
▁��)[10]	-5735
▁��)[11]	-5736
▁��100��	-5737
▁��10361	-5738
▁��103��	-5739
▁��104��	-5740
▁��10587	-5741
▁��105��	-5742
▁��10698	-5743
▁��10�׿�	-5744
▁��110��	-5745
▁��11194	-5746
▁��1125(	-5747
▁��11690	-5748
▁��11814	-5749
▁��118��	-5750
▁��12094	-5751
▁��120��	-5752
▁��12115	-5753
▁��12751	-5754
▁��128��	-5755
▁��12��,	-5756
▁��13453	-5757
▁��136��	-5758
▁��13��,	-5759
▁��14083	-5760
▁��16069	-5761
▁��16284	-5762
▁��164��	-5763
▁��16�׿�	-5764
▁��16��,	-5765
▁��178��	-5766
▁��183��	-5767
▁��197��	-5768
▁��19935	-5769
▁��2004-	-5770
▁��2005.	-5771
▁��2006.	-5772
▁��2009.	-5773
▁��20189	-5774
▁��205��	-5775
▁��20722	-5776
▁��211��	-5777
▁��21765	-5778
▁��22160	-5779
▁��22254	-5780
▁��226��	-5781
▁��233��	-5782
▁��23��,	-5783
▁��24307	-5784
▁��245��	-5785
▁��25��,	-5786
▁��2��],	-5787
▁��315��	-5788
▁��368��	-5789
▁��377��	-5790
▁��387��	-5791
▁��390��	-5792
▁��396��	-5793
▁��414��	-5794
▁��416��	-5795
▁��43��,	-5796
▁��441��	-5797
▁��444��	-5798
▁��46��,	-5799
▁��49��,	-5800
▁��500��	-5801
▁��51��,	-5802
▁��52��,	-5803
▁��59��,	-5804
▁��61��,	-5805
▁��659��	-5806
▁��682��	-5807
▁��741��	-5808
▁��750��	-5809
▁��769��	-5810
▁��83��,	-5811
▁��840��	-5812
▁��9��),	-5813
▁���˰���	-5814
▁�����˳�	-5815
▁�����͸�	-5816
▁�����޹�	-5817
▁�����࡯�	-5818
▁������	-5819
▁�����򰡵�	-5820
▁�����򰡸�	-5821
▁�����򰡾�	-5822
▁�����󡱰�	-5823
▁���񽺿���	-5824
▁�󡤰�����	-5825
▁�󱼱�����	-5826
�(4.72%)	-5827
�(=�����	-5828
�(���⿹��	-5829
�(����)�	-5830
�[��64��	-5831
��(2005.	-5832
��(2012.	-5833
��(2014.	-5834
��(�����	-5835
��˸�����	-5836
��԰�����	-5837
���(��)(	-5838
���(��)�	-5839
���ࡤ����	-5840
�������	-5841
����(���	-5842
����)���	-5843
����¿���	-5844
����޿���	-5845
�����;׿�	-5846
������÷�	-5847
106������	-5848
196,720��	-5849
3�������,	-5850
400,000��	-5851
4��������	-5852
500,000��	-5853
8,269����	-5854
:35������	-5855
▁(5,000��	-5856
▁-5.61%��	-5857
▁0.128%��	-5858
▁1,488.16	-5859
▁1,533,14	-5860
▁153,419,	-5861
▁160,964,	-5862
▁1991����	-5863
▁1996����	-5864
▁1999�⿡��	-5865
▁1�������	-5866
▁2,694,94	-5867
▁2002��34	-5868
▁2002��68	-5869
▁2003��18	-5870
▁2004��39	-5871
▁2004��48	-5872
▁2004��94	-5873
▁2005��38	-5874
▁2005��62	-5875
▁2005��65	-5876
▁2005��70	-5877
▁2006��37	-5878
▁2006��87	-5879
▁2007��12	-5880
▁2007��13	-5881
▁2007��16	-5882
▁2007��18	-5883
▁2007��27	-5884
▁2007��44	-5885
▁2007��70	-5886
▁2008��15	-5887
▁2008��17	-5888
▁2008��18	-5889
▁2008��30	-5890
▁2009��11	-5891
▁2009��14	-5892
▁2009��16	-5893
▁2009��20	-5894
▁2009��26	-5895
▁2009��31	-5896
▁2009��36	-5897
▁2009��45	-5898
▁2009��58	-5899
▁2009��59	-5900
▁2009��85	-5901
▁2009��98	-5902
▁2010��10	-5903
▁2010��11	-5904
▁2010��13	-5905
▁2010��15	-5906
▁2010��26	-5907
▁2010��29	-5908
▁2010��78	-5909
▁2010��99	-5910
▁2011��17	-5911
▁2011��18	-5912
▁2011��88	-5913
▁2012��24	-5914
▁2012��75	-5915
▁2015��20	-5916
▁20������	-5917
▁26.5����	-5918
▁2849����	-5919
▁29.����,	-5920
▁3,047,55	-5921
▁3,251,68	-5922
▁337,802,	-5923
▁40.29%��	-5924
▁46,846,9	-5925
▁46������	-5926
▁677,458,	-5927
▁80��2904	-5928
▁87.96%��	-5929
▁9.������	-5930
▁912,533,	-5931
▁93��6560	-5932
▁94��1517	-5933
▁96��5933	-5934
▁97��1716	-5935
▁97��4760	-5936
▁Assigned	-5937
▁Immunode	-5938
▁Internet	-5939
▁Syndrome	-5940
▁shipping	-5941
▁�3⁄4�(��	-5942
▁�3�(����	-5943
▁�ʹ�����,	-5944
▁�˻�����,	-5945
▁�˻����񽺸�	-5946
▁�׸������	-5947
▁�׼�(=���	-5948
▁�߽�����,	-5949
▁��(�����	-5950
▁��+3.72%	-5951
▁��162��,	-5952
▁��21����	-5953
▁��24����	-5954
▁��2����,	-5955
▁��2�����	-5956
▁��31����	-5957
▁��376��,	-5958
▁��390��)	-5959
▁��393��,	-5960
▁��3��)��	-5961
▁��3����3	-5962
▁��423��,	-5963
▁��4��)��	-5964
▁��501��,	-5965
▁��55����	-5966
▁��59����	-5967
▁��5�׿���	-5968
▁��68����	-5969
▁��7�׿���	-5970
▁��8�׿���	-5971
▁��93����	-5972
▁���¿���.	-5973
▁���޵����	-5974
▁���޸����	-5975
▁���޹޵���	-5976
▁���޹����	-5977
▁���޺����	-5978
▁�������	-5979
▁�������	-5980
▁���￴����	-5981
▁����)��,	-5982
▁����)���	-5983
▁����.���	-5984
▁����[12]	-5985
▁�����3��	-5986
▁�����˼�,	-5987
▁�����޹��	-5988
▁�����๰��	-5989
▁������)�	-5990
▁�������£	-5991
▁�������·	-5992
▁�������÷	-5993
▁�������⵵	-5994
▁�������	-5995
▁�������𺴿	-5996
▁�����򰡾��	-5997
▁���𰡾����	-5998
▁���񱳴����	-5999
▁�󼳱������	-6000
�(��1��),	-6001
�(��2��),	-6002
�(��2��).	-6003
�.[������	-6004
�1�������	-6005
�޾�������	-6006
��)2009��	-6007
��)2011��	-6008
��)������	-6009
���(1962.	-6010
���(1992.	-6011
���(2013.	-6012
���)(����	-6013
���)�����	-6014
����)����	-6015
�����˰���	-6016
������)��	-6017
������࡯��	-6018
������೻��	-6019
��������)	-6020
��������޽	-6021
��������򰡹	-6022
(���������	-6023
500,000��,	-6024
67,831����	-6025
6����(����	-6026
contractor	-6027
phylogenic	-6028
▁(10,000��	-6029
▁(��������	-6030
▁1,486,726	-6031
▁10,010,68	-6032
▁103,684,9	-6033
▁106,610,8	-6034
▁15.������	-6035
▁19.������	-6036
▁1��������	-6037
▁2,199,516	-6038
▁2,321,838	-6039
▁2002��700	-6040
▁2003��340	-6041
▁2003��402	-6042
▁2008��177	-6043
▁2008��207	-6044
▁2008��445	-6045
▁2009��101	-6046
▁2009��424	-6047
▁2010��259	-6048
▁2010��368	-6049
▁2011��215	-6050
▁2012��105	-6051
▁21,075,69	-6052
▁25.������	-6053
▁397,225,8	-6054
▁46,123,78	-6055
▁5,687,844	-6056
▁5��������	-6057
▁6,000����	-6058
▁810,000��	-6059
▁91��32053	-6060
▁91��44674	-6061
▁92~100)��	-6062
▁92��31361	-6063
▁93��11715	-6064
▁93��52402	-6065
▁93��61703	-6066
▁94��20730	-6067
▁95��32747	-6068
▁967������	-6069
▁97��20007	-6070
▁97��47989	-6071
▁97��54482	-6072
▁97��55126	-6073
▁97��58491	-6074
▁99��10479	-6075
▁99��42797	-6076
▁99��66328	-6077
▁99��69631	-6078
▁99��70600	-6079
▁community	-6080
▁liability	-6081
▁�3�������	-6082
▁�°�������	-6083
▁�ʻ�������	-6084
▁�޶�������	-6085
▁�߽�������	-6086
▁�߾�������	-6087
▁��100����	-6088
▁��110����	-6089
▁��117����	-6090
▁��134����	-6091
▁��135����	-6092
▁��138����	-6093
▁��14����2	-6094
▁��15����2	-6095
▁��164����	-6096
▁��180����	-6097
▁��197����	-6098
▁��2009-56	-6099
▁��204��),	-6100
▁��23����5	-6101
▁��271����	-6102
▁��278����	-6103
▁��291����	-6104
▁��32����2	-6105
▁��338����	-6106
▁��341��).	-6107
▁��358����	-6108
▁��378����	-6109
▁��396����	-6110
▁��40����3	-6111
▁��424��].	-6112
▁��432��).	-6113
▁��466��).	-6114
▁��46����2	-6115
▁��576����	-6116
▁��578����	-6117
▁��5������	-6118
▁��67����2	-6119
▁��681����	-6120
▁��682��).	-6121
▁��741��).	-6122
▁��758����	-6123
▁��826��).	-6124
▁��8������	-6125
▁��¡������	-6126
▁���±�����	-6127
▁���޼�����	-6128
▁���߿�����	-6129
▁���(����	-6130
▁����'����	-6131
▁����1����	-6132
▁����2����	-6133
▁����7����	-6134
▁�����÷���	-6135
▁�����԰���	-6136
▁�����׻���	-6137
▁�����޶���	-6138
▁�����߾���	-6139
▁�����߿���	-6140
▁�������ʹ�	-6141
▁�������߿�	-6142
▁�������񽺾�	-6143
▁�����󰢺���	-6144
▁�񵵽�������	-6145
▁�򰡹�������	-6146
▁�򰡺�������	-6147
�(��11��),	-6148
�(��25��),	-6149
�(��53��),	-6150
�(��54��).	-6151
��(����)��	-6152
���.������	-6153
����(2005.	-6154
����(2013.	-6155
������(��3	-6156
��������޿�	-6157
����򰡹�����	-6158
,000��(����	-6159
100,000����	-6160
1⁄4��޻�����	-6161
800,000����	-6162
825,560����	-6163
SURRENDERED	-6164
▁-2,441����	-6165
▁135,736,51	-6166
▁15,000,000	-6167
▁15,698,646	-6168
▁1963������	-6169
▁1993������	-6170
▁1998�⵵����	-6171
▁2,195,423,	-6172
▁2001��2181	-6173
▁2001������	-6174
▁2002��6965	-6175
▁2002��8131	-6176
▁2003��6873	-6177
▁2004��3038	-6178
▁2005��3229	-6179
▁2006��1381	-6180
▁2006��4876	-6181
▁2006��9446	-6182
▁2006������	-6183
▁2007��2275	-6184
▁2007��8411	-6185
▁2009��1050	-6186
▁2009��1313	-6187
▁2009��6980	-6188
▁2009������	-6189
▁2010��1204	-6190
▁3.(������)	-6191
▁34,611,502	-6192
▁397,225,86	-6193
▁3��1�����	-6194
▁4,329,237,	-6195
▁591,956,34	-6196
▁65��������	-6197
▁860,000�޷�	-6198
▁93��32828,	-6199
▁Resolution	-6200
▁Securities	-6201
▁�¿���(����	-6202
▁�ʹ��������	-6203
▁�߻���(����	-6204
▁�߻�������,	-6205
▁��13������	-6206
▁��165����7	-6207
▁��186����2	-6208
▁��1����2��	-6209
▁��214��)��	-6210
▁��21������	-6211
▁��266����3	-6212
▁��27������	-6213
▁��2��(����	-6214
▁��415����2	-6215
▁���¿�����,	-6216
▁���ʿ��񰡰���	-6217
▁���๰������	-6218
▁����(2013.	-6219
▁����(2015.	-6220
▁����(��)��	-6221
▁����(����,	-6222
▁����).����	-6223
▁����)�����	-6224
▁����.�����	-6225
▁�����÷����	-6226
▁�����ʿ����	-6227
▁������(��2	-6228
▁�������1�,	-6229
▁�������԰�,	-6230
▁�������๰��	-6231
▁�������⸸��	-6232
▁���������	-6233
▁��������(�	-6234
▁���������࿡	-6235
▁���������	-6236
�(��47��)��	-6237
�.����¡����	-6238
��(��������	-6239
����������	-6240
���(��)��(�	-6241
�����(1998.	-6242
�����(2009.	-6243
�������(���	-6244
�������)[2]	-6245
��������)��	-6246
��������˱��	-6247
����������)	-6248
����������,	-6249
(��������)��	-6250
640.61�޷�)��	-6251
▁08:00������	-6252
▁11.(������)	-6253
▁2000��34426	-6254
▁2000��37647	-6255
▁2000��46511	-6256
▁2001��33048	-6257
▁2001��52407	-6258
▁2001��9311,	-6259
▁2002��31018	-6260
▁2002��53865	-6261
▁2002��63411	-6262
▁2002��6951,	-6263
▁2002����14,	-6264
▁2003��2390,	-6265
▁2003��50610	-6266
▁2003��61689	-6267
▁2003��69638	-6268
▁2004��16280	-6269
▁2004��25611	-6270
▁2004��53197	-6271
▁2004��54282	-6272
▁2005��16713	-6273
▁2005��21821	-6274
▁2005��31033	-6275
▁2005��32197	-6276
▁2005��39013	-6277
▁2005��45537	-6278
▁2006��18228	-6279
▁2006��28256	-6280
▁2006��29945	-6281
▁2006��33333	-6282
▁2006��35865	-6283
▁2006��39898	-6284
▁2006��48465	-6285
▁2007��25865	-6286
▁2007��29379	-6287
▁2007��37721	-6288
▁2007��51703	-6289
▁2007��63409	-6290
▁2007��64365	-6291
▁2007��74560	-6292
▁2007��85973	-6293
▁2007����109	-6294
▁2008��22276	-6295
▁2008��37414	-6296
▁2008��41499	-6297
▁2008��48490	-6298
▁2008��53638	-6299
▁2008��61615	-6300
▁2008��72882	-6301
▁2008��73830	-6302
▁2008��77795	-6303
▁2009��44327	-6304
▁2009��50308	-6305
▁2009��72599	-6306
▁2009��99105	-6307
▁2010��18829	-6308
▁2010��18850	-6309
▁2010��51406	-6310
▁2010��53419	-6311
▁2010��76849	-6312
▁2010��95635	-6313
▁2010��97044	-6314
▁2013��17292	-6315
▁2013��20109	-6316
▁258,545,739	-6317
▁2����������	-6318
▁324,240,778	-6319
▁7��)�������	-6320
▁912,990����	-6321
▁98����11956	-6322
▁Arbitration	-6323
▁Corporation	-6324
▁expenditure	-6325
▁�°���������	-6326
▁��(��������	-6327
▁��104������	-6328
▁��125������	-6329
▁��16����2��	-6330
▁��178������	-6331
▁��23��(����	-6332
▁��449������	-6333
▁��576������	-6334
▁��6��(2005.	-6335
▁���๰�������	-6336
▁����(˭��)��	-6337
▁�����˻�����	-6338
▁�����߻�����	-6339
▁�������¡���	-6340
▁�������¶���	-6341
▁�������׿���	-6342
▁��������(��	-6343
▁���������˻�	-6344
▁����������)	-6345
▁����������.	-6346
▁�������󸶿���	-6347
▁�������󿬱���	-6348
�(=�����޿���	-6349
��(���������	-6350
�����(������	-6351
������(1989.	-6352
����������ʹ�	-6353
International	-6354
▁(����)2008��	-6355
▁(����)2009��	-6356
▁(����)2012��	-6357
▁1,510,920���	-6358
▁1992��������	-6359
▁1996��������	-6360
▁2,632,770��,	-6361
▁2004��60072,	-6362
▁2004��������	-6363
▁2005��47014,	-6364
▁2006��71908,	-6365
▁2007����5209	-6366
▁2008��92312,	-6367
▁3,251,680,58	-6368
▁68,381,600��	-6369
▁69,073,465��	-6370
▁69,881,600��	-6371
▁¡�����������	-6372
▁��1112������	-6373
▁��1118������	-6374
▁����.�������	-6375
▁�����°������	-6376
▁�����޿��׿���	-6377
▁������(1999.	-6378
▁������(2004.	-6379
▁������(2005.	-6380
▁������(2006.	-6381
▁������(2013.	-6382
▁������(2014.	-6383
▁������(2015.	-6384
▁������(�����	-6385
▁�������߻����	-6386
▁�����������	-6387
▁��������(��)	-6388
▁���������鿡��	-6389
▁����������(�	-6390
▁�����������߿	-6391
▁�����������࿡	-6392
������񡤼������	-6393
▁1,533,142����	-6394
▁1,836,205,800	-6395
▁103,684,967��	-6396
▁163,242,359��	-6397
▁2,278,269����	-6398
▁2,694,940����	-6399
▁2008����23050	-6400
▁3,047,557����	-6401
▁30,000,000���	-6402
▁312,101,560��	-6403
▁337,802,328��	-6404
▁393,648,000��	-6405
▁5,679,394����	-6406
▁6,500,000����	-6407
▁662,043,106��	-6408
▁820,000������	-6409
▁��100��������	-6410
▁��1��(����)��	-6411
▁���˼���������	-6412
▁����(��1��)��	-6413
▁����(��30����	-6414
▁����(����)[7]	-6415
▁�����¡�������	-6416
▁�����÷�������	-6417
▁�����ʼ�������	-6418
▁�����޼�������	-6419
▁�����޾�������	-6420
▁������(�߼���)	-6421
▁������(��׵��)	-6422
▁������������	-6423
▁���������߻���	-6424
▁����������)��	-6425
▁�����������޴�	-6426
▁������������(	-6427
����°���������	-6428
����޹��������޽	-6429
�������������(	-6430
������������󹰿�	-6431
▁1,000,640.61�޷	-6432
▁1,488.16������	-6433
▁10,010,682����	-6434
▁17,000,000����	-6435
▁30,000,000����	-6436
▁34,523,421����	-6437
▁38,775,000����	-6438
▁46,846,958����	-6439
▁49,293,090����	-6440
▁50,965,250����	-6441
▁�����޼����ʿ���	-6442
▁���������3���,	-6443
▁�����������࡯��	-6444
���������(�����	-6445
▁1,855,467,831��	-6446
▁100,000,000����	-6447
▁109,238,000����	-6448
▁109,825,560����	-6449
▁110,000,000����	-6450
▁135,736,513����	-6451
▁15,000,000��)��	-6452
▁150,000,000����	-6453
▁160,964,090����	-6454
▁5,687,844������	-6455
▁677,458,300����	-6456
▁923,964,000����	-6457
▁��(=����������)	-6458
▁��2,000,000����	-6459
▁����(=��������)	-6460
▁������(��������	-6461
▁�������������߾�	-6462
▁�������������࡯�	-6463
�7��������������	-6464
���(��)(��������	-6465
���(��׵������)��	-6466
(+	-6467
(2	-6468
,9	-6469
.)	-6470
/4	-6471
5-	-6472
7-	-6473
7~	-6474
=1	-6475
AG	-6476
DO	-6477
EP	-6478
ES	-6479
GV	-6480
KO	-6481
NA	-6482
NG	-6483
PI	-6484
SM	-6485
cl	-6486
gh	-6487
ho	-6488
hr	-6489
li	-6490
ok	-6491
ýÿ	-6492
ýŰ	-6493
ġȯ	-6494
īƮ	-6495
űǹ	-6496
ŵǵ	-6497
Ƽĸ	-6498
ǰż	-6499
1-	-6500
UC	-6501
üȰ	-6502
ƽǷ	-6503
Ǵɺ	-6504
ǽĺ	-6505
ȭó	-6506
Ȱǿ	-6507
Ȳǥ	-6508
ɵǰ	-6509
ɼų	-6510
εΰ	-6511
κλ	-6512
ομ	-6513
мҡ	-6514
Ӻа	-6515
ٴڸ	-6516
ڱر	-6517
ۡ۵	-6518
޸�	-6519
޸𸮾	-6520
޻�	-6521
ࡤ�	-6522
࡯)	-6523
▁ݫ	-6524
⸶�	-6525
⸻�	-6526
�	-6527
�'	-6528
�/	-6529
�:	-6530
�߻	-6531
�߼	-6532
�߾	-6533
�	-6534
�	-6535
�	-6536
�￵	-6537
�񼮳	-6538
𷡰�	-6539
𺸰�	-6540
򰡽�	-6541
󰡴�	-6542
󵵡�	-6543
,33	-6544
-**	-6545
-1)	-6546
-��	-6547
011	-6548
06)	-6549
1,0	-6550
13%	-6551
173	-6552
225	-6553
25)	-6554
27,	-6555
271	-6556
289	-6557
305	-6558
306	-6559
319	-6560
364	-6561
373	-6562
3⁄4	-6563
4,3	-6564
4-1	-6565
420	-6566
431	-6567
437	-6568
440	-6569
450	-6570
466	-6571
540	-6572
547	-6573
561	-6574
571	-6575
590	-6576
599	-6577
6.8	-6578
677	-6579
75,	-6580
754	-6581
759	-6582
776	-6583
781	-6584
802	-6585
81,	-6586
84]	-6587
8].	-6588
921	-6589
934	-6590
AMA	-6591
Com	-6592
DEC	-6593
Dec	-6594
EDS	-6595
Hoc	-6596
Jac	-6597
Man	-6598
RUC	-6599
(1	-6600
7%	-6601
El	-6602
OP	-6603
if	-6604
ǽǿ	-6605
ȣü	-6606
ͷμ	-6607
ر۷	-6608
⿡�	-6609
�	-6610
�£	-6611
�°	-6612
�԰	-6613
�߿	-6614
󵵷�	-6615
623	-6616
895	-6617
BBK	-6618
OPö	-6619
Wes	-6620
_��	-6621
any	-6622
ble	-6623
egr	-6624
hol	-6625
hyl	-6626
igi	-6627
ith	-6628
lay	-6629
neg	-6630
orr	-6631
ors	-6632
ose	-6633
ran	-6634
roe	-6635
roj	-6636
sey	-6637
zel	-6638
~13	-6639
~16	-6640
ŸŽñ	-6641
ǸŽü	-6642
ʽ��	-6643
˻��	-6644
׷¿�	-6645
޵��	-6646
▁36	-6647
▁4(	-6648
▁43	-6649
▁5%	-6650
▁5:	-6651
▁6(	-6652
▁8%	-6653
▁86	-6654
▁97	-6655
▁AY	-6656
▁Ap	-6657
▁DB	-6658
▁WB	-6659
▁ev	-6660
▁õõ	-6661
▁ǥâ	-6662
▁�׾	-6663
▁�䷮	-6664
▁�𵨷	-6665
▁�𵿸	-6666
▁�񳭹	-6667
▁�񵵸	-6668
▁�񵿺	-6669
▁�񸮷	-6670
▁�򰡡	-6671
▁�󰡷	-6672
▁�󱸿	-6673
▁�󼱾	-6674
⵵��	-6675
⸶��	-6676
��	-6677
��	-6678
��	-6679
�3�	-6680
�4�	-6681
�޹޾	-6682
��;	-6683
��⵵	-6684
��	-6685
��񽺰	-6686
��򰡱	-6687
��򰡼	-6688
󸶻󿡼�	-6689
(13.	-6690
)201	-6691
)[4]	-6692
)�׿�	-6693
0228	-6694
065,	-6695
1,15	-6696
1.5%	-6697
1019	-6698
118,	-6699
(6	-6700
BS	-6701
WH	-6702
io	-6703
κγ	-6704
⸸�	-6705
鿩,	-6706
�	-6707
�ʽ	-6708
񡤰�	-6709
255	-6710
583	-6711
625	-6712
782	-6713
WHC	-6714
ian	-6715
jun	-6716
▁7%	-6717
▁�󰡿	-6718
��޹	-6719
1084	-6720
12��	-6721
136,	-6722
1372	-6723
1427	-6724
1444	-6725
1695	-6726
16��	-6727
1725	-6728
1746	-6729
175,	-6730
1878	-6731
1886	-6732
1985	-6733
1��)	-6734
2,03	-6735
2,22	-6736
2,36	-6737
2,81	-6738
2093	-6739
2259	-6740
2318	-6741
2337	-6742
2365	-6743
2467	-6744
2506	-6745
2525	-6746
2529	-6747
2542	-6748
2571	-6749
2583	-6750
2618	-6751
2757	-6752
2815	-6753
29),	-6754
2964	-6755
2965	-6756
29��	-6757
331,	-6758
3377	-6759
33��	-6760
3421	-6761
3466	-6762
35%,	-6763
3529	-6764
356,	-6765
3690	-6766
3786	-6767
3889	-6768
3892	-6769
3904	-6770
3914	-6771
3930	-6772
396,	-6773
3967	-6774
3995	-6775
3��(	-6776
4111	-6777
4199	-6778
42%,	-6779
4210	-6780
4421	-6781
451,	-6782
45��	-6783
4634	-6784
47%-	-6785
4725	-6786
4834	-6787
4880	-6788
4924	-6789
4965	-6790
5,30	-6791
5-18	-6792
5.17	-6793
5073	-6794
5097	-6795
5477	-6796
5511	-6797
568,	-6798
5847	-6799
,2	-6800
-�	-6801
1%	-6802
Me	-6803
Ƿá	-6804
ȣó	-6805
ɵǴ	-6806
˾�	-6807
κμ	-6808
Ϻα	-6809
мҰ	-6810
ᳳ�	-6811
▁X	-6812
�	-6813
򰡼�	-6814
󸶵�	-6815
467	-6816
511	-6817
56,	-6818
933	-6819
˳��	-6820
޷ᳳ�	-6821
▁3/	-6822
▁Ra	-6823
▁�񿵾	-6824
��	-6825
��	-6826
,224	-6827
09��	-6828
1,01	-6829
1304	-6830
171,	-6831
2147	-6832
2428	-6833
2551	-6834
2992	-6835
329,	-6836
3622	-6837
4923	-6838
5079	-6839
513.	-6840
5��~	-6841
6,76	-6842
604,	-6843
6088	-6844
638,	-6845
6388	-6846
6520	-6847
6646	-6848
666,	-6849
678,	-6850
6955	-6851
6��)	-6852
7,21	-6853
7,72	-6854
7,82	-6855
750,	-6856
7749	-6857
8,14	-6858
8,37	-6859
8125	-6860
826,	-6861
843,	-6862
85-2	-6863
854,	-6864
8637	-6865
9,84	-6866
91(�	-6867
910,	-6868
928,	-6869
9363	-6870
9539	-6871
9548	-6872
96).	-6873
978,	-6874
9816	-6875
991,	-6876
;���	-6877
=�߽�	-6878
=���	-6879
Fors	-6880
acet	-6881
anri	-6882
aris	-6883
aten	-6884
eche	-6885
enti	-6886
most	-6887
octr	-6888
oked	-6889
post	-6890
raud	-6891
reac	-6892
roex	-6893
rund	-6894
trol	-6895
~233	-6896
~525	-6897
ǽõDZ	-6898
ʹ�(�	-6899
4%	-6900
8%	-6901
HP	-6902
Op	-6903
Rt	-6904
ju	-6905
ty	-6906
~1	-6907
~3	-6908
âȣ	-6909
ƽǿ	-6910
ȭü	-6911
׾�	-6912
رݸ	-6913
,	-6914
�←	-6915
05%	-6916
2,7	-6917
840	-6918
~7.	-6919
▁�󵿼	-6920
⹰��	-6921
��͹	-6922
05%~	-6923
2215	-6924
2447	-6925
4949	-6926
4990	-6927
532,	-6928
5���	-6929
7,13	-6930
7323	-6931
Unju	-6932
alty	-6933
etec	-6934
tute	-6935
uild	-6936
~3�鿡	-6937
˶���	-6938
׹���	-6939
׽���	-6940
޻���	-6941
▁0.5	-6942
▁1.6	-6943
▁106	-6944
▁124	-6945
▁128	-6946
▁130	-6947
▁160	-6948
▁204	-6949
▁219	-6950
▁234	-6951
▁235	-6952
▁23~	-6953
▁301	-6954
▁350	-6955
▁365	-6956
▁369	-6957
▁4.)	-6958
▁40%	-6959
▁428	-6960
▁47,	-6961
▁47.	-6962
▁479	-6963
▁50.	-6964
▁560	-6965
▁570	-6966
▁6,9	-6967
▁60,	-6968
▁620	-6969
▁623	-6970
▁750	-6971
▁767	-6972
▁76�	-6973
▁7],	-6974
▁882	-6975
▁9.,	-6976
▁91�	-6977
▁922	-6978
▁99.	-6979
▁Cas	-6980
▁Com	-6981
▁DNA	-6982
▁Gas	-6983
▁Wel	-6984
▁Wim	-6985
▁Wor	-6986
▁[9]	-6987
▁clo	-6988
▁rep	-6989
▁war	-6990
▁�;�	-6991
▁�񸮿�	-6992
⸸���	-6993
鿩���	-6994
��,	-6995
�(45	-6996
�)�޾	-6997
�1��	-6998
�»��	-6999
.(	-7000
0-	-7001
5(	-7002
Eq	-7003
cc	-7004
ov	-7005
~9	-7006
ŵǰ	-7007
ŵǸ	-7008
ǥġ	-7009
ǽļ	-7010
ȰȰ	-7011
رݾ	-7012
ٴٿ	-7013
▁,	-7014
�	-7015
󼭸�	-7016
244	-7017
269	-7018
627	-7019
:20	-7020
lam	-7021
mEq	-7022
▁9%	-7023
▁�˿	-7024
��	-7025
𼳸��	-7026
1147	-7027
280�	-7028
4165	-7029
48,8	-7030
5039	-7031
53��	-7032
831,	-7033
8331	-7034
emov	-7035
▁3,3	-7036
▁489	-7037
▁501	-7038
▁��	-7039
�鿡��	-7040
��23	-7041
���2	-7042
���]	-7043
���޾	-7044
���	-7045
�񼮳󵵰�	-7046
𷡡���	-7047
񹮾���	-7048
񽺡���	-7049
񽺸���	-7050
󡱶���	-7051
(��18	-7052
,570,	-7053
,808,	-7054
/64��	-7055
0.13%	-7056
047,5	-7057
062��	-7058
065,9	-7059
072��	-7060
094��	-7061
0��28	-7062
12129	-7063
13148	-7064
13219	-7065
13533	-7066
14036	-7067
15501	-7068
15865	-7069
159��	-7070
17976	-7071
1884]	-7072
18925	-7073
1894,	-7074
19121	-7075
19240	-7076
2(���	-7077
2,600	-7078
20,23	-7079
20,30	-7080
20029	-7081
2003.	-7082
2005.	-7083
20065	-7084
20104	-7085
20279	-7086
20326	-7087
20580	-7088
20873	-7089
2161,	-7090
22115	-7091
22326	-7092
22607	-7093
22897	-7094
23,91	-7095
23879	-7096
24040	-7097
24218	-7098
24390	-7099
AD	-7100
BL	-7101
IO	-7102
LA	-7103
^�	-7104
fu	-7105
iv	-7106
nr	-7107
rd	-7108
õh	-7109
ýð	-7110
ýü	-7111
ŸŻ	-7112
Žǿ	-7113
ưư	-7114
Ʒû	-7115
ƽñ	-7116
ǰŵ	-7117
κἺ	-7118
▁ĭ	-7119
▁Ź	-7120
�񳳺	-7121
�񼮵	-7122
002	-7123
009	-7124
3%,	-7125
737	-7126
919	-7127
991	-7128
▁wo	-7129
▁ưư	-7130
▁�𷡴	-7131
▁�񽺵	-7132
�񼮵�	-7133
(�˴�	-7134
2762	-7135
5041	-7136
6823	-7137
6947	-7138
8914	-7139
9)��	-7140
ADIN	-7141
LANG	-7142
NRIO	-7143
]���	-7144
eliv	-7145
nric	-7146
ocal	-7147
ouse	-7148
rder	-7149
▁1,7	-7150
▁202	-7151
▁�񿵸�	-7152
▁�򰡽�	-7153
󡤸���	-7154
(���޺	-7155
-3��,	-7156
00081	-7157
1,737	-7158
20807	-7159
24856	-7160
25066	-7161
25299	-7162
25477	-7163
25885	-7164
25934	-7165
26131	-7166
27022	-7167
27054	-7168
27150	-7169
276,9	-7170
29661	-7171
30762	-7172
32986	-7173
32���	-7174
33599	-7175
34,97	-7176
34405	-7177
34654	-7178
35��)	-7179
36932	-7180
37278	-7181
37294	-7182
37342	-7183
38010	-7184
38233	-7185
38438	-7186
38470	-7187
388��	-7188
3907,	-7189
39939	-7190
3��),	-7191
40031	-7192
400��	-7193
40��,	-7194
41159	-7195
41991	-7196
43361	-7197
438��	-7198
44114	-7199
GS	-7200
hs	-7201
öȫ	-7202
ĵȴ	-7203
Űǰ	-7204
Ÿŷ	-7205
ŸƮ	-7206
Žÿ	-7207
ƩƮ	-7208
ƿø	-7209
ǥħ	-7210
Ǵɿ	-7211
Ƿo	-7212
Ƿÿ	-7213
ǽŵ	-7214
ǾƳ	-7215
ȣȭ	-7216
ȭȭ	-7217
Ȱġ	-7218
ȸȸ	-7219
ȹȫ	-7220
ȾƳ	-7221
ɽð	-7222
ɽŻ	-7223
ɾƼ	-7224
ɾȿ	-7225
ʹ޶	-7226
ιΰ	-7227
κκ	-7228
ϺΡ	-7229
Ϻξ	-7230
ϿͰ	-7231
кҹ	-7232
лӸ	-7233
Һа	-7234
ҼӰ	-7235
մԵ	-7236
ٲٱ	-7237
ٴٹ	-7238
ٴڡ	-7239
ڱݷ	-7240
ڱݺ	-7241
ۡۻ	-7242
ۡ۾	-7243
۴ٴ	-7244
ݡݸ	-7245
�	-7246
�񡤰	-7247
�󿵰	-7248
󡯸�	-7249
󿡴�	-7250
GSĮ	-7251
ƼƩƮ	-7252
��3	-7253
1)��	-7254
Comm	-7255
ʹ޶󡱴�	-7256
▁268	-7257
▁4),	-7258
▁48�	-7259
▁56,	-7260
▁sac	-7261
鿴��.	-7262
��󡯸�	-7263
15665	-7264
3-(��	-7265
41746	-7266
42532	-7267
48025	-7268
48527	-7269
50,04	-7270
50747	-7271
51288	-7272
52513	-7273
54489	-7274
55533	-7275
56116	-7276
58%��	-7277
5967,	-7278
5��10	-7279
600,9	-7280
60778	-7281
60908	-7282
62667	-7283
63138	-7284
63752	-7285
643��	-7286
67755	-7287
68)��	-7288
6��13	-7289
706,5	-7290
706��	-7291
70���	-7292
72678	-7293
78��,	-7294
8,270	-7295
9,113	-7296
91)��	-7297
955��	-7298
96474	-7299
)'	-7300
CJ	-7301
IP	-7302
ҼҺ	-7303
�	-7304
𵿸�	-7305
𷫼�	-7306
𸣵�	-7307
񷦿�	-7308
񿡴�	-7309
򸮰�	-7310
󡸺�	-7311
󳻿�	-7312
󵵵�	-7313
󺸴�	-7314
567	-7315
71.	-7316
756	-7317
:42	-7318
Sim	-7319
÷��	-7320
׺��	-7321
��	-7322
142,	-7323
2/4,	-7324
5687	-7325
7577	-7326
8610	-7327
׶���	-7328
▁11%	-7329
▁272	-7330
▁�,	-7331
▁�𸣵�	-7332
▁�򰡹�	-7333
▁�򸮰�	-7334
▁�󵵵�	-7335
�.1.	-7336
15934	-7337
2046,	-7338
3,7,8	-7339
39567	-7340
3��14	-7341
48)��	-7342
50116	-7343
71.51	-7344
834��	-7345
89698	-7346
9��19	-7347
:09��	-7348
:18��	-7349
:21��	-7350
:31��	-7351
:46��	-7352
Demis	-7353
LANGU	-7354
Trans	-7355
aling	-7356
arter	-7357
enden	-7358
iness	-7359
ipleg	-7360
istur	-7361
oment	-7362
oodar	-7363
osens	-7364
quatt	-7365
~����	-7366
°���(	-7367
׸����	-7368
ۡۡۡۡۡ	-7369
ۡۡۡۡ۴	-7370
ࡱ����	-7371
↓����	-7372
▁(200	-7373
▁0.02	-7374
▁0.13	-7375
▁00:2	-7376
▁08:3	-7377
▁1,07	-7378
▁1,68	-7379
▁1.46	-7380
▁1.57	-7381
▁10~1	-7382
▁110,	-7383
▁114,	-7384
▁119,	-7385
▁125,	-7386
▁134,	-7387
▁137,	-7388
▁154,	-7389
▁169,	-7390
▁1737	-7391
▁17:3	-7392
▁1818	-7393
▁1923	-7394
▁1948	-7395
▁1950	-7396
▁1980	-7397
▁1984	-7398
▁19:5	-7399
(1,	-7400
222	-7401
591	-7402
65)	-7403
Net	-7404
ina	-7405
ket	-7406
¥��	-7407
ŸŵǾ	-7408
࿬��	-7409
▁89	-7410
▁öü	-7411
▁�˳	-7412
▁�޲	-7413
▁�⸻	-7414
▁�⿡	-7415
▁�	-7416
▁�𵨰	-7417
▁�𸣳	-7418
▁�󡤰	-7419
⿴��	-7420
��	-7421
��	-7422
��	-7423
��	-7424
��񽺻	-7425
��󡤱	-7426
11(�	-7427
2,40	-7428
3628	-7429
4600	-7430
9,85	-7431
Netw	-7432
▁4.7	-7433
▁52-	-7434
▁81.	-7435
▁��¿	-7436
�(15	-7437
���⹰	-7438
1,500	-7439
13474	-7440
49454	-7441
5��),	-7442
Deliv	-7443
hylen	-7444
▁2,42	-7445
▁2,50	-7446
▁20.�	-7447
▁21.�	-7448
▁22.7	-7449
▁23:4	-7450
▁2749	-7451
▁283,	-7452
▁29.7	-7453
▁3)��	-7454
▁3,27	-7455
▁3,68	-7456
▁3,80	-7457
▁3,98	-7458
▁301,	-7459
▁3047	-7460
▁3091	-7461
▁36-3	-7462
▁3733	-7463
▁4)��	-7464
▁4047	-7465
▁4048	-7466
▁43��	-7467
▁4~10	-7468
▁4~5�	-7469
▁4��)	-7470
▁4��,	-7471
▁5,07	-7472
▁5,94	-7473
▁51��	-7474
▁554.	-7475
▁556,	-7476
▁58��	-7477
▁6,20	-7478
▁6,57	-7479
▁603,	-7480
▁657,	-7481
▁6591	-7482
▁65��	-7483
▁7607	-7484
▁77��	-7485
▁83��	-7486
▁890.	-7487
▁926.	-7488
▁955,	-7489
▁EWHC	-7490
▁GOPö	-7491
▁Nitr	-7492
▁Repe	-7493
▁Star	-7494
▁Step	-7495
▁Wimp	-7496
▁[192	-7497
▁[198	-7498
▁good	-7499
428	-7500
588	-7501
73.	-7502
771	-7503
801	-7504
lin	-7505
▁-6	-7506
▁�󰡺	-7507
▁�󹫷	-7508
▁�󼼾	-7509
�.)	-7510
08��	-7511
1376	-7512
17��	-7513
2741	-7514
3218	-7515
3873	-7516
lind	-7517
~199	-7518
޾���	-7519
▁559	-7520
▁70,	-7521
▁923	-7522
⸻���	-7523
���[	-7524
���׿	-7525
���࡯	-7526
���鿪	-7527
���𺴿	-7528
򽺡���	-7529
󡯶���	-7530
16771	-7531
48801	-7532
4��(=	-7533
95159	-7534
:03��	-7535
:53��	-7536
~1995	-7537
▁-65.	-7538
▁1953	-7539
▁1996	-7540
▁2418	-7541
▁26.5	-7542
▁3(19	-7543
▁60%,	-7544
▁�˻�(	-7545
▁�׿��	-7546
▁�޷�,	-7547
▁��'�	-7548
▁��3)	-7549
▁��31	-7550
▁��8�	-7551
▁��9,	-7552
▁��°�	-7553
▁���׽	-7554
▁���౳	-7555
▁���๫	-7556
▁���⸮	-7557
▁���⸸	-7558
▁���	-7559
▁���	-7560
▁���𰡴	-7561
▁���𳪹	-7562
▁���񾾹	-7563
▁���򽺷	-7564
▁���󡤹	-7565
▁�񵵸�,	-7566
▁�򰡡��	-7567
����	-7568
�(��9	-7569
�.2��	-7570
�˿���	-7571
�׽���	-7572
��200	-7573
���(1	-7574
���(8	-7575
���10	-7576
���[�	-7577
���·�	-7578
���÷�	-7579
����÷	-7580
����򰡾	-7581
���󵵴�	-7582
���󵵸�	-7583
���󿩱�	-7584
񡤰����	-7585
񼭸�)��	-7586
(1973.	-7587
(1981.	-7588
(=2��)	-7589
(��60,	-7590
049���	-7591
1,843,	-7592
100���	-7593
110-20	-7594
117551	-7595
147��,	-7596
153,08	-7597
153,15	-7598
157)��	-7599
1⁄4	-7600
281	-7601
848	-7602
22��	-7603
2626	-7604
3109	-7605
31��	-7606
6984	-7607
707,	-7608
7484	-7609
▁1,6	-7610
▁2.7	-7611
▁3,0	-7612
▁3.2	-7613
▁6],	-7614
▁8.)	-7615
▁833	-7616
��20	-7617
2,867	-7618
325��	-7619
35699	-7620
37830	-7621
39676	-7622
40454	-7623
410��	-7624
42696	-7625
53419	-7626
55162	-7627
69245	-7628
anrio	-7629
±����	-7630
࡯����	-7631
࿵����	-7632
▁2%��	-7633
▁���𸷿	-7634
▁���󸣵	-7635
▁���󼺰	-7636
⸸����	-7637
⿵����	-7638
��583	-7639
����3	-7640
����¡	-7641
����׸	-7642
����޵	-7643
����	-7644
(2013.	-7645
15����	-7646
1����2	-7647
24238,	-7648
27��).	-7649
2����)	-7650
3%����	-7651
30666,	-7652
382,88	-7653
38921,	-7654
422��,	-7655
44%)��	-7656
454��)	-7657
48,474	-7658
50,000	-7659
532,17	-7660
543,45	-7661
60017,	-7662
600��(	-7663
602,37	-7664
677,61	-7665
67��),	-7666
685��,	-7667
68��).	-7668
698,64	-7669
747��,	-7670
77,400	-7671
8,329,	-7672
854,99	-7673
87��),	-7674
89��),	-7675
9.5��,	-7676
902��)	-7677
959��,	-7678
99����	-7679
Transf	-7680
[��2��	-7681
emovac	-7682
ential	-7683
iralty	-7684
lamina	-7685
resent	-7686
~100),	-7687
¡����(	-7688
·����(	-7689
¿�����	-7690
͹߻����	-7691
׸�����	-7692
׼�����	-7693
▁0.207	-7694
▁0.8��	-7695
▁00:53	-7696
▁05:40	-7697
▁10.9%	-7698
▁100%,	-7699
1],	-7700
21�	-7701
601	-7702
702	-7703
9.4	-7704
rin	-7705
yet	-7706
޾�,	-7707
▁2%	-7708
▁2]	-7709
񱫻�,	-7710
.)��	-7711
0,01	-7712
1129	-7713
1301	-7714
198,	-7715
1⁄2�	-7716
2140	-7717
2239	-7718
2263	-7719
256,	-7720
4637	-7721
492,	-7722
7929	-7723
862,	-7724
aliz	-7725
onal	-7726
rinc	-7727
▁1.5	-7728
▁180	-7729
▁705	-7730
▁72�	-7731
24668	-7732
27889	-7733
39923	-7734
5.5��	-7735
60148	-7736
79295	-7737
ional	-7738
maliz	-7739
▁253,	-7740
▁26.,	-7741
▁31],	-7742
▁3516	-7743
▁45��	-7744
▁621�	-7745
▁6917	-7746
▁7,59	-7747
▁71��	-7748
▁79.4	-7749
��927	-7750
-�����	-7751
425��,	-7752
492,41	-7753
5.5��4	-7754
72256,	-7755
862,51	-7756
ʺ�����	-7757
ʿ�����	-7758
޷�����	-7759
޽�����	-7760
߿�����	-7761
▁10014	-7762
▁107��	-7763
▁10:32	-7764
▁10~30	-7765
▁11,28	-7766
▁117��	-7767
▁127��	-7768
▁13���	-7769
▁16:09	-7770
▁17:00	-7771
▁18:30	-7772
▁192��	-7773
▁1963.	-7774
▁1976,	-7775
▁198��	-7776
▁1998�	-7777
▁1~3��	-7778
▁1��(�	-7779
▁2(��,	-7780
▁2(���	-7781
▁2)���	-7782
▁2.5��	-7783
▁20.8�	-7784
▁210��	-7785
▁220-2	-7786
▁2200.	-7787
▁22���	-7788
▁23403	-7789
▁238��	-7790
▁2652-	-7791
▁29363	-7792
▁3,105	-7793
▁3.5��	-7794
▁34708	-7795
▁37��,	-7796
▁39,19	-7797
▁40~50	-7798
▁43��,	-7799
00,	-7800
080	-7801
594	-7802
six	-7803
▁1:	-7804
▁3%	-7805
▁Ir	-7806
�׵�	-7807
02��	-7808
080�	-7809
1,46	-7810
1543	-7811
2545	-7812
4,26	-7813
772,	-7814
8.24	-7815
9003	-7816
quir	-7817
▁1,1	-7818
▁20,	-7819
▁207	-7820
▁580	-7821
▁som	-7822
▁�1�	-7823
��׶�	-7824
1772,	-7825
19,36	-7826
25339	-7827
34���	-7828
38927	-7829
56216	-7830
Fraud	-7831
ilean	-7832
lasix	-7833
▁200,	-7834
▁2003	-7835
▁7594	-7836
▁Iron	-7837
▁Pian	-7838
▁�׿ʹ�	-7839
▁��1-	-7840
▁��43	-7841
��˻�,	-7842
054,26	-7843
781,46	-7844
quired	-7845
▁1,680	-7846
▁44,27	-7847
▁485-2	-7848
▁50097	-7849
▁55%��	-7850
▁57247	-7851
▁5��(�	-7852
▁5��16	-7853
▁6.��,	-7854
▁661��	-7855
▁67619	-7856
▁6��25	-7857
▁72263	-7858
▁74��8	-7859
▁751-7	-7860
▁81��9	-7861
▁84639	-7862
▁85��6	-7863
▁86��2	-7864
▁88.24	-7865
▁890.6	-7866
▁9.)��	-7867
▁93%��	-7868
▁94��2	-7869
▁95��5	-7870
▁96��2	-7871
▁97��3	-7872
▁98��7	-7873
▁Enric	-7874
▁Trans	-7875
▁[1980	-7876
▁breac	-7877
▁dural	-7878
▁hemip	-7879
▁somat	-7880
▁�˾���	-7881
▁�׻���	-7882
▁����	-7883
▁���,	-7884
▁��122	-7885
▁��137	-7886
▁��168	-7887
▁��353	-7888
▁��384	-7889
▁��536	-7890
▁��570	-7891
▁��631	-7892
▁��647	-7893
▁��742	-7894
▁��952	-7895
▁��985	-7896
▁��[2]	-7897
▁��¥�⸦	-7898
▁��¥�⿡	-7899
191	-7900
1�⿡	-7901
2.9	-7902
38.	-7903
9.7	-7904
9.9	-7905
iod	-7906
ɷȰų	-7907
˻�)	-7908
شيٴ	-7909
ٲيٴ	-7910
▁Pl	-7911
1990	-7912
4��)	-7913
5191	-7914
5411	-7915
5455	-7916
6836	-7917
8543	-7918
▁1),	-7919
▁181	-7920
▁37.	-7921
▁400	-7922
▁523	-7923
▁Sub	-7924
▁�𷡰�	-7925
鿡��,	-7926
��)]	-7927
��׸�	-7928
(29.7	-7929
,315,	-7930
16328	-7931
1938.	-7932
19888	-7933
25632	-7934
27449	-7935
28619	-7936
30401	-7937
32679	-7938
eriod	-7939
޸���,	-7940
▁1,86	-7941
▁1000	-7942
▁7/10	-7943
▁poss	-7944
▁��2)	-7945
▁��3,	-7946
▁��3-	-7947
▁��33	-7948
���(=	-7949
2.94��	-7950
▁139.9	-7951
▁15���	-7952
▁285.5	-7953
▁32��,	-7954
▁36836	-7955
▁5.��,	-7956
▁90��8	-7957
▁Platt	-7958
▁possi	-7959
▁��294	-7960
▁��549	-7961
▁���˻�	-7962
▁���ࡹ(	-7963
▁���೻�	-7964
▁���๰,	-7965
▁���⿡,	-7966
▁���,	-7967
▁����/	-7968
▁����2	-7969
▁���𷫼�	-7970
▁�򰡱���	-7971
▁�󸲺���	-7972
鿩�����	-7973
鿪�����	-7974
꡼�����	-7975
�����	-7976
�2003.	-7977
��(��)	-7978
��˿���	-7979
��׼���	-7980
���[3]	-7981
���]��	-7982
�����6	-7983
�����⸦	-7984
񼭸�����	-7985
󸲸�����	-7986
'������	-7987
(2003��	-7988
.������	-7989
/100���	-7990
047,557	-7991
0��2812	-7992
1,000��	-7993
106����	-7994
15��)��	-7995
16�����	-7996
1⁄4����	-7997
1����13	-7998
2,031��	-7999
1�⵵	-8000
2,9	-8001
31.	-8002
717	-8003
924	-8004
~2.	-8005
κημ	-8006
▁üũ	-8007
0026	-8008
070,	-8009
0��9	-8010
1018	-8011
1493	-8012
2193	-8013
3761	-8014
400�	-8015
5,08	-8016
5831	-8017
6021	-8018
65��	-8019
▁0.8	-8020
▁0��	-8021
▁1).	-8022
▁1.8	-8023
▁2.0	-8024
▁2.5	-8025
▁2.�	-8026
▁359	-8027
�.2.	-8028
�.3.	-8029
124��	-8030
132,9	-8031
13��)	-8032
15715	-8033
20010	-8034
31.01	-8035
42433	-8036
5360,	-8037
~2.10	-8038
·�)��	-8039
▁�ʾ�,	-8040
▁��56	-8041
▁��71	-8042
�)��(	-8043
��236	-8044
070,72	-8045
0��944	-8046
16,717	-8047
7,118,	-8048
95360,	-8049
985,08	-8050
System	-8051
▁10:35	-8052
▁22:20	-8053
▁36940	-8054
▁60��)	-8055
▁Sales	-8056
▁����	-8057
,000��)	-8058
132,950	-8059
20,303,	-8060
2020010	-8061
2087313	-8062
240����	-8063
26,315,	-8064
286����	-8065
305%)��	-8066
310����	-8067
34,755,	-8068
40,136,	-8069
425,635	-8070
530����	-8071
599,516	-8072
5����35	-8073
5����5,	-8074
5������	-8075
684����	-8076
6������	-8077
725����	-8078
765����	-8079
870����	-8080
Chilean	-8081
[����(�	-8082
[������	-8083
entials	-8084
estment	-8085
iplegia	-8086
segment	-8087
udgment	-8088
~64����	-8089
¿������	-8090
˻������	-8091
޼������	-8092
޾�����,	-8093
޿�����:	-8094
߻������	-8095
߼���(��	-8096
▁09:30�	-8097
▁1,067,	-8098
▁1.84��	-8099
355	-8100
992	-8101
Sub	-8102
▁93	-8103
▁96	-8104
1285	-8105
3108	-8106
3��[	-8107
4925	-8108
5001	-8109
6,00	-8110
8448	-8111
9,14	-8112
9��/	-8113
mmol	-8114
term	-8115
uran	-8116
▁32)	-8117
▁508	-8118
▁93.	-8119
10814	-8120
18900	-8121
28228	-8122
41471	-8123
ficit	-8124
▁0%��	-8125
▁1,25	-8126
▁11,1	-8127
▁142,	-8128
▁1992	-8129
▁39��	-8130
▁461,	-8131
▁671,	-8132
▁��4-	-8133
▁��46	-8134
���)�	-8135
3,977,	-8136
593��[	-8137
9,145.	-8138
endenn	-8139
termin	-8140
urance	-8141
▁05:20	-8142
▁17418	-8143
▁203��	-8144
▁28.64	-8145
▁5.���	-8146
▁55974	-8147
▁��10,	-8148
▁��295	-8149
▁���׽�	-8150
▁���󼭸�	-8151
,009��/	-8152
,806,00	-8153
113��(=	-8154
2��(���	-8155
400����	-8156
lendenn	-8157
▁10%)��	-8158
▁10.��,	-8159
▁1000-1	-8160
▁102748	-8161
▁10:35�	-8162
▁119,24	-8163
▁12.��,	-8164
▁152��,	-8165
▁166,76	-8166
▁167,95	-8167
▁18.8��	-8168
▁19.3��	-8169
▁1943��	-8170
▁1984��	-8171
▁1986��	-8172
▁1987��	-8173
▁1988��	-8174
▁1993��	-8175
▁1996��	-8176
▁1997��	-8177
▁1998�⿡	-8178
▁1~2%��	-8179
▁1�����	-8180
▁2,504,	-8181
▁2,677,	-8182
▁2004�⵵	-8183
▁2009�⵵	-8184
▁20��30	-8185
▁23,200	-8186
▁25.4��	-8187
▁28.3��	-8188
▁3,765,	-8189
▁300��,	-8190
▁352,81	-8191
▁36����	-8192
▁37����	-8193
▁59858,	-8194
▁6(����	-8195
▁6.6%��	-8196
▁632,88	-8197
▁65����	-8198
▁7,425,	-8199
123	-8200
391	-8201
04%�	-8202
13),	-8203
2,29	-8204
2490	-8205
3059	-8206
4039	-8207
4902	-8208
6261	-8209
733,	-8210
▁12,	-8211
▁360	-8212
▁MBC	-8213
▁rup	-8214
)��	-8215
�2��	-8216
�񡤼��	-8217
-13),	-8218
28391	-8219
2��),	-8220
3073,	-8221
43��)	-8222
46123	-8223
46515	-8224
57949	-8225
61)��	-8226
hster	-8227
thres	-8228
▁1,47	-8229
▁102,	-8230
▁11,9	-8231
▁11],	-8232
▁17.,	-8233
▁2,00	-8234
▁33��	-8235
▁54��	-8236
▁570;	-8237
▁7,09	-8238
▁rupt	-8239
▁�⸸��	-8240
▁��70	-8241
▁��72	-8242
328��,	-8243
42��),	-8244
▁1,354	-8245
▁32,29	-8246
▁36-12	-8247
▁813��	-8248
▁9.��,	-8249
▁��880	-8250
��׿���	-8251
244����	-8252
▁2,006,	-8253
▁38����	-8254
▁4��°��	-8255
▁5(����	-8256
▁7.451,	-8257
▁70����	-8258
▁743��)	-8259
▁751-1,	-8260
▁756,75	-8261
▁76����	-8262
▁79��14	-8263
▁81����	-8264
▁82��12	-8265
▁9(����	-8266
▁91��40	-8267
▁91��45	-8268
▁92��19	-8269
▁92��24	-8270
▁92��46	-8271
▁92��55	-8272
▁93��59	-8273
▁94��30	-8274
▁94��68	-8275
▁95��34	-8276
▁96��13	-8277
▁96��14	-8278
▁96��16	-8279
▁96��17	-8280
▁97��12	-8281
▁98��38	-8282
▁99��17	-8283
▁99��45	-8284
▁99��67	-8285
▁9�����	-8286
▁Wimpey	-8287
▁[1884]	-8288
▁[1980]	-8289
▁evoked	-8290
▁severe	-8291
▁�÷����	-8292
▁�׸���,	-8293
▁�׼����	-8294
▁�޸���,	-8295
▁�޾����	-8296
▁�߻��ʿ�	-8297
▁�߻���,	-8298
▁�߼����	-8299
523	-8300
890	-8301
COD	-8302
▁68	-8303
▁6~	-8304
▁82	-8305
�࡯�	-8306
-200	-8307
2200	-8308
3049	-8309
5008	-8310
6556	-8311
7%��	-8312
7859	-8313
▁1/5	-8314
▁125	-8315
▁39,	-8316
▁665	-8317
▁77.	-8318
1997.	-8319
2,499	-8320
31667	-8321
33609	-8322
51057	-8323
5511,	-8324
59140	-8325
67890	-8326
7591,	-8327
ances	-8328
▁105.	-8329
▁207,	-8330
▁6)��	-8331
▁64��	-8332
▁67��	-8333
▁6~12	-8334
▁7%��	-8335
▁72��	-8336
▁Sing	-8337
▁¡��,	-8338
▁�3�)	-8339
▁�԰�(	-8340
▁��)�	-8341
▁��51	-8342
▁��83	-8343
▁��85	-8344
▁��92	-8345
(��9��	-8346
200��,	-8347
50080,	-8348
bances	-8349
▁0.6��	-8350
▁2,523	-8351
▁43%��	-8352
▁68455	-8353
▁6~12�	-8354
▁7.740	-8355
▁Singa	-8356
▁��273	-8357
2,686��	-8358
2076556	-8359
78)����	-8360
▁2.5%��	-8361
▁207,94	-8362
▁39,060	-8363
▁6�����	-8364
▁77.47%	-8365
▁�߿���,	-8366
▁�๰����	-8367
▁�⵶����	-8368
▁�⸻����	-8369
▁�䷮����	-8370
▁�鿩����	-8371
▁��(5��	-8372
▁��)[4]	-8373
▁��1��(	-8374
▁��2000	-8375
▁��4102	-8376
▁��45��	-8377
▁��4��)	-8378
▁��4���	-8379
▁��5437	-8380
▁��5��)	-8381
▁��62��	-8382
▁��6411	-8383
▁��6651	-8384
▁��6955	-8385
▁��6992	-8386
▁��7240	-8387
▁��7379	-8388
▁��7678	-8389
▁��7872	-8390
▁��78��	-8391
▁��8112	-8392
▁��8260	-8393
▁��82��	-8394
▁��8377	-8395
▁��8485	-8396
▁��84��	-8397
▁��95��	-8398
▁���3⁄4	-8399
(�񴢱	-8400
1(�	-8401
2(�	-8402
35,	-8403
508	-8404
605	-8405
645	-8406
719	-8407
910	-8408
Tal	-8409
gin	-8410
~19	-8411
žȱǵ	-8412
ɵdz	-8413
▁°�	-8414
▁âȣ	-8415
079,	-8416
1100	-8417
1455	-8418
4424	-8419
7269	-8420
7709	-8421
Talc	-8422
▁2(�	-8423
▁222	-8424
▁635	-8425
▁814	-8426
▁Nay	-8427
▁ûdz	-8428
079,4	-8429
0��(�	-8430
13101	-8431
23858	-8432
25117	-8433
28719	-8434
354��	-8435
482��	-8436
60~19	-8437
62280	-8438
64573	-8439
68357	-8440
77091	-8441
argin	-8442
icens	-8443
▁7.35	-8444
▁7]��	-8445
▁Nayl	-8446
▁��].	-8447
16����	-8448
30465,	-8449
65��),	-8450
Licens	-8451
cerebr	-8452
margin	-8453
▁22:00	-8454
▁3��(�	-8455
▁40143	-8456
▁43253	-8457
▁5535,	-8458
(�񴢱���)	-8459
240,910	-8460
350����	-8461
858����	-8462
960��(�	-8463
▁119257	-8464
▁27.��,	-8465
▁3����)	-8466
▁3����,	-8467
▁51����	-8468
▁96����	-8469
▁Naylor	-8470
▁�׶��׶�	-8471
▁���3��	-8472
▁���׸��	-8473
▁���ࡤ��	-8474
▁���䷮��	-8475
▁�����	-8476
▁����(׵	-8477
▁����))	-8478
▁����)]	-8479
▁����1.	-8480
▁����][	-8481
▁����]�	-8482
▁�����·	-8483
▁�����˴	-8484
▁�����˾	-8485
▁�����͸	-8486
▁�����԰	-8487
▁�����๰	-8488
▁�����	-8489
▁�����񡤳	-8490
▁���𼳸��	-8491
▁���󸶻󿡼�	-8492
▁�𳪹����	-8493
▁�򰡹����	-8494
鿩������	-8495
������	-8496
�(1995.	-8497
�(2010.	-8498
�(��)��	-8499
145	-8500
161	-8501
397	-8502
504	-8503
509	-8504
omy	-8505
1864	-8506
2374	-8507
269,	-8508
2802	-8509
4703	-8510
70,9	-8511
7028	-8512
▁377	-8513
▁612	-8514
▁727	-8515
▁859	-8516
10004	-8517
10763	-8518
16542	-8519
167��	-8520
26048	-8521
27��,	-8522
48397	-8523
5044,	-8524
56509	-8525
765��	-8526
▁101,	-8527
▁1989	-8528
▁2082	-8529
▁21.,	-8530
▁22.�	-8531
▁3,34	-8532
▁6.50	-8533
(��1��	-8534
10,235	-8535
269,79	-8536
70,940	-8537
88��),	-8538
ectomy	-8539
▁109��	-8540
▁2,415	-8541
▁400��	-8542
▁67%��	-8543
▁800��	-8544
����޵�	-8545
0,000��	-8546
110,235	-8547
506����	-8548
oderate	-8549
ression	-8550
׷�(����	-8551
▁1982��	-8552
▁22:08�	-8553
▁24.���	-8554
▁94��40	-8555
�(����,	-8556
�.�׷���	-8557
�[��1��	-8558
��(��17	-8559
��48)��	-8560
��׷����	-8561
��׸���,	-8562
���)[2]	-8563
���)[3]	-8564
���.[2]	-8565
���.��,	-8566
���¿���	-8567
���׿���	-8568
���࡯)��	-8569
����3��	-8570
����[2]	-8571
����£��	-8572
����߽��	-8573
����⿡��	-8574
����鿡��	-8575
�����67	-8576
�����,	-8577
������޾	-8578
񼭸�(����	-8579
(=������	-8580
(��)����	-8581
,330����	-8582
,553����	-8583
,560����	-8584
.��(����	-8585
08������	-8586
1.74����	-8587
1000����	-8588
101��)��	-8589
13������	-8590
1955����	-8591
1⁄4�����	-8592
1��(����	-8593
1����)��	-8594
1�������	-8595
2,000��,	-8596
2,985,08	-8597
22������	-8598
3��12899	-8599
2),	-8600
202	-8601
205	-8602
26%	-8603
266	-8604
OUR	-8605
Pol	-8606
ɵǰų	-8607
509,	-8608
5312	-8609
714,	-8610
8,45	-8611
8503	-8612
▁21~	-8613
▁426	-8614
▁646	-8615
%(26%	-8616
,552,	-8617
16201	-8618
20,80	-8619
22266	-8620
25061	-8621
26��,	-8622
33918	-8623
35268	-8624
47���	-8625
67020	-8626
OURSE	-8627
▁17.6	-8628
▁3,20	-8629
▁4.),	-8630
▁�˸�,	-8631
▁�׵��	-8632
100205	-8633
23��),	-8634
3,509,	-8635
4��)��	-8636
620,80	-8637
▁2��),	-8638
▁42673	-8639
▁64620	-8640
▁�˹���	-8641
▁��126	-8642
▁��374	-8643
��˻���	-8644
����),	-8645
598,270	-8646
8,454��	-8647
Polaris	-8648
׸����񽺿�	-8649
▁3,203,	-8650
▁5��)��	-8651
▁80��23	-8652
▁COURSE	-8653
▁�����	-8654
▁��1049	-8655
▁���°�,	-8656
▁���޺��	-8657
������	-8658
�����),	-8659
3��~1995	-8660
3����2),	-8661
4,740��,	-8662
4����)��	-8663
4����260	-8664
54������	-8665
5��(����	-8666
6,056��,	-8667
600��)��	-8668
60������	-8669
65)����,	-8670
7,532,17	-8671
9,620,80	-8672
90������	-8673
96������	-8674
egration	-8675
etection	-8676
judgment	-8677
pression	-8678
quatting	-8679
udiation	-8680
yethylen	-8681
¡�������	-8682
˼�������	-8683
׿�������	-8684
޹�������	-8685
޾�������	-8686
▁01:53��	-8687
▁02:45��	-8688
▁03:35��	-8689
▁05:30��	-8690
▁05:35��	-8691
▁08:30��	-8692
▁1,300��	-8693
▁1.4����	-8694
▁10,212,	-8695
▁100%��,	-8696
▁106����	-8697
▁10:50��	-8698
▁10��)��	-8699
115	-8700
136	-8701
137	-8702
15�	-8703
297	-8704
614	-8705
652	-8706
656	-8707
659	-8708
728	-8709
787	-8710
▁SI	-8711
1510	-8712
1528	-8713
2104	-8714
2342	-8715
2413	-8716
2765	-8717
2782	-8718
2901	-8719
4324	-8720
6317	-8721
6656	-8722
6876	-8723
orgh	-8724
▁114	-8725
▁465	-8726
▁bar	-8727
��29	-8728
0��(=	-8729
1014,	-8730
11802	-8731
15531	-8732
17297	-8733
2-137	-8734
22030	-8735
25136	-8736
28��)	-8737
29��,	-8738
44737	-8739
44956	-8740
58339	-8741
61457	-8742
65977	-8743
72834	-8744
▁123,	-8745
▁Cons	-8746
▁Weld	-8747
106296	-8748
43246,	-8749
orghin	-8750
▁465,3	-8751
▁750��	-8752
▁barge	-8753
▁��115	-8754
▁��315	-8755
▁��814	-8756
▁���׹޾	-8757
13�����	-8758
291����	-8759
orghini	-8760
▁114���	-8761
▁22:15�	-8762
▁40481,	-8763
▁Constr	-8764
▁winter	-8765
▁��÷���	-8766
�����鿡�	-8767
29������	-8768
8.573%��	-8769
osensory	-8770
▁09:20��	-8771
▁10���ʿ�	-8772
▁11,124,	-8773
▁11,977,	-8774
▁11:20��	-8775
▁11:25��	-8776
▁11:50��	-8777
▁129����	-8778
▁13.25��	-8779
▁134,400	-8780
▁1454��)	-8781
▁15:10��	-8782
▁15:30��	-8783
▁15:55��	-8784
▁160����	-8785
▁181��).	-8786
▁1980���	-8787
▁1999��,	-8788
▁2(1973.	-8789
▁2,100��	-8790
▁20,000�	-8791
▁2003��8	-8792
▁2004��2	-8793
▁2007��4	-8794
▁2007��9	-8795
▁2010��8	-8796
▁2013��,	-8797
▁2014��3	-8798
▁2016��7	-8799
343	-8800
345	-8801
349	-8802
534	-8803
734	-8804
770	-8805
773	-8806
774	-8807
7�⵵	-8808
▁ŰƼ	-8809
1981	-8810
2818	-8811
3427	-8812
3435	-8813
3450	-8814
5077	-8815
5846	-8816
629,	-8817
7446	-8818
7750	-8819
7777	-8820
ipat	-8821
▁118	-8822
▁25�	-8823
▁277	-8824
▁734	-8825
▁Ldn	-8826
1,045	-8827
14345	-8828
14478	-8829
2,066	-8830
33253	-8831
34��,	-8832
4517,	-8833
53413	-8834
98%��	-8835
cipat	-8836
▁15.�	-8837
▁156.	-8838
▁1773	-8839
▁dead	-8840
(2001.	-8841
(2014.	-8842
281883	-8843
2����2	-8844
2����3	-8845
59834,	-8846
629,49	-8847
▁277).	-8848
▁LADIN	-8849
▁��907	-8850
�����	-8851
(2005��	-8852
2����35	-8853
ticipat	-8854
▁15.)��	-8855
▁156.45	-8856
▁16,867	-8857
▁51,045	-8858
▁LADING	-8859
▁��9079	-8860
▁�����	-8861
2����3��	-8862
▁102����	-8863
▁156.45/	-8864
▁2006��1	-8865
▁20:45��	-8866
▁21,991,	-8867
▁21.5��,	-8868
▁21:10��	-8869
▁21:45��	-8870
▁2200.04	-8871
▁22:03��	-8872
▁22:30��	-8873
▁22:45��	-8874
▁23,677,	-8875
▁23:20��	-8876
▁23:45��	-8877
▁280����	-8878
▁2����(�	-8879
▁3(1976.	-8880
▁3,200��	-8881
▁347��),	-8882
▁357����	-8883
▁4,570��	-8884
▁4.32%��	-8885
▁4.����,	-8886
▁5,167��	-8887
▁5,200��	-8888
▁5.�����	-8889
▁6,500��	-8890
▁64.203%	-8891
▁64�����	-8892
▁751-7��	-8893
▁75��119	-8894
▁75��450	-8895
▁7��)���	-8896
▁8,100��	-8897
▁8.2����	-8898
▁8.3����	-8899
038	-8900
172	-8901
690	-8902
692	-8903
693	-8904
903	-8905
tra	-8906
063,	-8907
1149	-8908
1317	-8909
1938	-8910
2582	-8911
2769	-8912
2953	-8913
3412	-8914
3517	-8915
5075	-8916
5377	-8917
6917	-8918
tron	-8919
▁138	-8920
▁31,	-8921
▁438	-8922
14375	-8923
17252	-8924
21518	-8925
33858	-8926
6933,	-8927
72%��	-8928
ultra	-8929
▁17:1	-8930
▁25%,	-8931
▁7.48	-8932
�˻���	-8933
�׺���	-8934
�߼���	-8935
��׼�,	-8936
100148	-8937
110692	-8938
38��),	-8939
47%-0.	-8940
69����	-8941
83��),	-8942
ectron	-8943
▁53��,	-8944
▁95377	-8945
▁arter	-8946
154����	-8947
2010418	-8948
6��/���	-8949
▁160%��	-8950
▁34����	-8951
▁7.488,	-8952
▁75����	-8953
▁93��57	-8954
▁artery	-8955
0.47%-0.	-8956
Electron	-8957
▁01:00��	-8958
▁1,550��	-8959
▁109����	-8960
▁17:11��	-8961
▁20,552,	-8962
▁2003��9	-8963
▁2004��6	-8964
▁3.72%��	-8965
▁31,910,	-8966
▁57,063,	-8967
▁81��236	-8968
▁81��626	-8969
▁850,000	-8970
▁9004��,	-8971
▁91��366	-8972
▁91��411	-8973
▁92��146	-8974
▁92��328	-8975
▁92��489	-8976
▁93.35%,	-8977
▁93��215	-8978
▁93��609	-8979
▁94��299	-8980
▁95��220	-8981
▁95��702	-8982
▁96��114	-8983
▁96��200	-8984
▁96��315	-8985
▁97��366	-8986
▁97��501	-8987
▁98��185	-8988
▁98��218	-8989
▁98��357	-8990
▁98��510	-8991
▁98��700	-8992
▁995����	-8993
▁99��335	-8994
▁99��368	-8995
▁facnyne	-8996
▁�3�)[2]	-8997
▁�˸�����	-8998
▁�޺�����	-8999
(2)	-9000
2).	-9001
3,2	-9002
47,	-9003
475	-9004
73,	-9005
84,	-9006
972	-9007
(2)(	-9008
1439	-9009
192,	-9010
2,34	-9011
3,77	-9012
3076	-9013
503,	-9014
773,	-9015
9,11	-9016
▁22,	-9017
▁33,	-9018
▁4,5	-9019
▁65,	-9020
▁73,	-9021
▁74,	-9022
▁83,	-9023
▁Fin	-9024
�)�鿡	-9025
���	-9026
񼭸�),	-9027
1614,	-9028
20901	-9029
28150	-9030
403,2	-9031
41647	-9032
5��(=	-9033
ctive	-9034
▁(1)�	-9035
▁1(19	-9036
▁104,	-9037
▁1052	-9038
▁147,	-9039
▁165,	-9040
▁250,	-9041
▁729,	-9042
298���	-9043
▁1(196	-9044
▁33��,	-9045
▁48925	-9046
▁52,34	-9047
▁83,09	-9048
▁��257	-9049
▁���󺸴�	-9050
▁(2001.	-9051
▁14,972	-9052
▁1931��	-9053
▁2���鿡�	-9054
▁4,773,	-9055
▁472-36	-9056
▁Financ	-9057
��.����	-9058
3,770��,	-9059
junctive	-9060
▁4,550��	-9061
▁65,178,	-9062
▁7.35~7.	-9063
▁83,093,	-9064
▁94��284	-9065
▁�޽�����	-9066
▁������	-9067
▁��10046	-9068
▁��10485	-9069
▁��10699	-9070
▁��106��	-9071
▁��107��	-9072
▁��119��	-9073
▁��12207	-9074
▁��12374	-9075
▁��1454,	-9076
▁��148��	-9077
▁��174��	-9078
▁��179��	-9079
▁��19979	-9080
▁��1999.	-9081
▁��2008.	-9082
▁��2014.	-9083
▁��20947	-9084
▁��210��	-9085
▁��22102	-9086
▁��22��,	-9087
▁��23076	-9088
▁��237��	-9089
▁��25733	-9090
▁��269��	-9091
▁��26��,	-9092
▁��27263	-9093
▁��275��	-9094
▁��28�׿�	-9095
▁��327��	-9096
▁��353��	-9097
▁��382��	-9098
▁��39��,	-9099
337	-9100
39)	-9101
394	-9102
409	-9103
492	-9104
530	-9105
858	-9106
BTO	-9107
▁SA	-9108
0137	-9109
1512	-9110
1530	-9111
2058	-9112
3439	-9113
3924	-9114
3950	-9115
4552	-9116
4904	-9117
4935	-9118
496,	-9119
5834	-9120
6,30	-9121
6312	-9122
8485	-9123
▁72%	-9124
▁76,	-9125
▁FDS	-9126
▁GYM	-9127
��󹰿�	-9128
17409	-9129
19378	-9130
2717,	-9131
33875	-9132
37��)	-9133
402��	-9134
46346	-9135
69,05	-9136
remis	-9137
▁1489	-9138
▁1958	-9139
▁7.95	-9140
�.[��	-9141
121530	-9142
39����	-9143
496,78	-9144
756,30	-9145
7��(1,	-9146
▁14%��	-9147
▁44935	-9148
405����	-9149
490����	-9150
757����	-9151
remises	-9152
▁19.���	-9153
▁1984�⿡	-9154
▁5���ʿ�	-9155
▁SANRIO	-9156
▁��1�׵�	-9157
▁��2394	-9158
0,685��,	-9159
3,969,05	-9160
85868)��	-9161
9��1939)	-9162
▁2002��5	-9163
▁5,402��	-9164
▁527��).	-9165
▁92��756	-9166
▁93��247	-9167
▁��31�׿�	-9168
▁��3�׿��	-9169
▁��412��	-9170
▁��422��	-9171
▁��439��	-9172
▁��484��	-9173
▁��56��,	-9174
▁��588��	-9175
▁��5��),	-9176
▁��5��).	-9177
▁��618��	-9178
▁��670��	-9179
▁��6��).	-9180
▁��765��	-9181
▁��85��,	-9182
▁��8��),	-9183
▁��9��).	-9184
▁��¥����	-9185
▁���˶���	-9186
▁���˿���	-9187
▁���߼���	-9188
▁���߽���	-9189
▁���๰���	-9190
▁���⹰���	-9191
▁����(3,	-9192
▁����)].	-9193
▁����3��	-9194
▁����7��	-9195
▁����9��	-9196
▁�����¡�	-9197
▁�����߿�	-9198
▁�����󵵴�	-9199
.60	-9200
451	-9201
456	-9202
604	-9203
660	-9204
681	-9205
HIV	-9206
zon	-9207
▁si	-9208
1,60	-9209
4067	-9210
4515	-9211
5068	-9212
6769	-9213
6845	-9214
7069	-9215
9814	-9216
▁�׵鿡	-9217
11165	-9218
12209	-9219
13046	-9220
26256	-9221
455��	-9222
47733	-9223
49370	-9224
57856	-9225
enzon	-9226
▁2,97	-9227
▁4,76	-9228
▁5,49	-9229
▁881,	-9230
▁[185	-9231
▁side	-9232
�޹���	-9233
��.��	-9234
.608].	-9235
79��),	-9236
▁18456	-9237
▁1956.	-9238
▁2~3��	-9239
▁5,200	-9240
▁59451	-9241
▁84,05	-9242
▁���,	-9243
▁��745	-9244
▁�򰡹���	-9245
�(��29	-9246
1,603,7	-9247
3����31	-9248
etative	-9249
▁(2007.	-9250
▁Benzon	-9251
▁[1853]	-9252
▁�����	-9253
�(��5��	-9254
��(��14	-9255
6,756��,	-9256
▁100%)��	-9257
▁5,494,9	-9258
▁84,056,	-9259
▁881,625	-9260
▁�߾�����	-9261
▁��19��,	-9262
▁��796��	-9263
▁���ʿ��񰡰	-9264
▁����[��	-9265
▁���󸶵���	-9266
▁�𵨰�����	-9267
▁�񱳴�����	-9268
�(2008��	-9269
�(459,98	-9270
�(=2015.	-9271
�(��15��	-9272
�(����),	-9273
�)������	-9274
�.[[����	-9275
�3������	-9276
�ʽ������	-9277
�޾�����,	-9278
��(1999.	-9279
��.�����	-9280
��˻�����	-9281
��޾�����	-9282
���(��1�	-9283
����(��,	-9284
����¶���	-9285
����׺���	-9286
�������	-9287
������°�	-9288
������ʹ�	-9289
������ʿ�	-9290
������͸�	-9291
������޿�	-9292
�������5	-9293
�������⸦	-9294
�������⿡	-9295
󾾿�������	-9296
)��������	-9297
,000��(��	-9298
,000��)��	-9299
886	-9300
970	-9301
Mer	-9302
▁IT	-9303
▁SK	-9304
▁Żũ	-9305
1387	-9306
1570	-9307
1684	-9308
1887	-9309
221,	-9310
239,	-9311
2553	-9312
2653	-9313
358,	-9314
3984	-9315
5318	-9316
5365	-9317
6.53	-9318
608,	-9319
7569	-9320
▁152	-9321
▁154	-9322
▁253	-9323
▁29,	-9324
16,55	-9325
2094,	-9326
24499	-9327
2774,	-9328
28569	-9329
36588	-9330
39935	-9331
51239	-9332
88644	-9333
▁151,	-9334
▁5(��	-9335
�)(��	-9336
��޹޾�	-9337
15708,	-9338
84608,	-9339
926.53	-9340
Mersey	-9341
▁1.(��	-9342
▁191.5	-9343
▁770��	-9344
▁9,700	-9345
▁��16�	-9346
▁��172	-9347
16,552,	-9348
▁1)����	-9349
▁18,970	-9350
▁28����	-9351
▁48����	-9352
▁98��26	-9353
▁98��34	-9354
▁98��37	-9355
▁98��60	-9356
2653��).	-9357
▁151,806	-9358
▁17,239,	-9359
▁19:05��	-9360
▁2003��,	-9361
▁3,260��	-9362
▁91��375	-9363
▁��10551	-9364
▁�����񿡴�	-9365
,000����,	-9366
050��)���	-9367
16,552,08	-9368
1�(������	-9369
2��(�����	-9370
46����2),	-9371
502��(���	-9372
6,950����	-9373
698,646��	-9374
7��)����,	-9375
8,144����	-9376
812,908,1	-9377
854,995��	-9378
9,110����	-9379
90������,	-9380
926.53���	-9381
޾�������,	-9382
▁-65.04%�	-9383
▁1,105,96	-9384
▁10.5����	-9385
▁119�����	-9386
▁11������	-9387
▁12.��)��	-9388
▁12.���ʹ�	-9389
▁12.�����	-9390
▁120/80��	-9391
▁13������	-9392
▁15,000��	-9393
▁16.����)	-9394
▁165,023,	-9395
▁17,706,5	-9396
▁17.����,	-9397
▁18.����,	-9398
▁18��)���	-9399
122	-9400
595	-9401
904	-9402
951	-9403
adm	-9404
osp	-9405
tio	-9406
0189	-9407
1332	-9408
2463	-9409
2889	-9410
4963	-9411
587,	-9412
5949	-9413
595,	-9414
6589	-9415
7707	-9416
8912	-9417
8938	-9418
elop	-9419
gosp	-9420
��1�	-9421
11007	-9422
1183,	-9423
20746	-9424
23367	-9425
40430	-9426
40904	-9427
42420	-9428
510��	-9429
5119,	-9430
5~5.5	-9431
6060,	-9432
7,500	-9433
▁3,63	-9434
▁clos	-9435
(��32,	-9436
evelop	-9437
gospel	-9438
▁11:00	-9439
▁1972.	-9440
▁38938	-9441
▁96��6	-9442
▁Ratio	-9443
▁��3-4	-9444
▁��451	-9445
▁��789	-9446
▁���⹰�	-9447
��߿���	-9448
387����	-9449
595,404	-9450
5~5.5),	-9451
▁1,798,	-9452
▁117,49	-9453
▁270��,	-9454
���󿩱���	-9455
7,500���	-9456
Hochster	-9457
roexport	-9458
▁2,510��	-9459
▁3,631��	-9460
▁93��951	-9461
▁Develop	-9462
▁closure	-9463
▁�޶����⵵	-9464
▁��11848	-9465
▁��62��,	-9466
▁�����޽�	-9467
�(��75��	-9468
������󿡼�	-9469
9,527����	-9470
admiralty	-9471
▁1970����	-9472
▁1975����	-9473
▁1980����	-9474
▁1987����	-9475
▁1988����	-9476
▁1994����	-9477
▁1995����	-9478
▁1998�⿡��	-9479
▁2000�⿡��	-9480
▁2000��10	-9481
▁2000��29	-9482
▁2000��33	-9483
▁2000��37	-9484
▁2000��47	-9485
▁2000��68	-9486
▁2000��83	-9487
▁2001��10	-9488
▁2001��37	-9489
▁2001��44	-9490
▁2001����	-9491
▁2002��29	-9492
▁2002��35	-9493
▁2002��49	-9494
▁2003��13	-9495
▁2003��40	-9496
▁2003��64	-9497
▁2003��76	-9498
▁2004��19	-9499
336	-9500
572	-9501
576	-9502
1611	-9503
1757	-9504
2057	-9505
2135	-9506
26%,	-9507
2775	-9508
366,	-9509
3677	-9510
3785	-9511
4177	-9512
5739	-9513
5750	-9514
6957	-9515
754,	-9516
▁11:	-9517
▁575	-9518
19950	-9519
26043	-9520
78336	-9521
85552	-9522
▁111,	-9523
▁1114	-9524
▁15%,	-9525
▁241,	-9526
▁30%�	-9527
▁5,11	-9528
�(=�߽	-9529
�¿���	-9530
621,01	-9531
70520,	-9532
▁30673	-9533
▁��185	-9534
▁��207	-9535
▁��566	-9536
▁���𰡾�	-9537
17,366,	-9538
▁111492	-9539
▁�߻��󵵴�	-9540
▁��8�׿�	-9541
1����199	-9542
6.88����	-9543
▁241,850	-9544
▁68.26%,	-9545
▁77%����	-9546
▁84��572	-9547
▁92��135	-9548
▁�߼�����	-9549
▁��13677	-9550
▁��18542	-9551
▁��20741	-9552
▁��20��,	-9553
▁��278��	-9554
▁��482��	-9555
▁��799��	-9556
▁���;���	-9557
����)�ʹ�	-9558
810,000��	-9559
▁1001����	-9560
▁111,178,	-9561
▁2004��11	-9562
▁2004��34	-9563
▁2004��59	-9564
▁2004��60	-9565
▁2004��62	-9566
▁2004��67	-9567
▁2004��89	-9568
▁2005��15	-9569
▁2005��17	-9570
▁2005��23	-9571
▁2005��26	-9572
▁2005��68	-9573
▁2005��75	-9574
▁2006��15	-9575
▁2006��50	-9576
▁2006��67	-9577
▁2006��90	-9578
▁2007�⵵��	-9579
▁2007��23	-9580
▁2007��25	-9581
▁2007��36	-9582
▁2007��77	-9583
▁2008�⵵��	-9584
▁2008��16	-9585
▁2008��37	-9586
▁2008��58	-9587
▁2008��65	-9588
▁2008��74	-9589
▁2009��17	-9590
▁2009��23	-9591
▁2009��24	-9592
▁2009��41	-9593
▁2009��57	-9594
▁2009��60	-9595
▁2009��64	-9596
▁2009��73	-9597
▁2009��75	-9598
▁2009��92	-9599
441	-9600
542	-9601
803	-9602
804	-9603
Cli	-9604
ant	-9605
bor	-9606
ork	-9607
0144	-9608
1.74	-9609
444,	-9610
4613	-9611
5,80	-9612
7630	-9613
8377	-9614
▁30%	-9615
▁546	-9616
▁�޵�	-9617
13810	-9618
39308	-9619
49129	-9620
▁2.8%	-9621
▁3080	-9622
▁5812	-9623
▁5836	-9624
▁abor	-9625
�÷���	-9626
��⵶��	-9627
885,80	-9628
Client	-9629
ervant	-9630
▁221��	-9631
▁27630	-9632
▁30��)	-9633
▁5528,	-9634
▁��146	-9635
▁���׷�	-9636
Network	-9637
▁1941��	-9638
▁1942��	-9639
▁1950��	-9640
▁3,986,	-9641
▁93��83	-9642
▁99��19	-9643
▁99��57	-9644
▁��9803	-9645
▁��9�׿�	-9646
�(2011.	-9647
�(��209	-9648
���)��(	-9649
31������	-9650
▁20:00��	-9651
▁54611(�	-9652
▁Control	-9653
▁servant	-9654
▁��181��	-9655
▁��186��	-9656
▁��450��	-9657
▁�����׷�	-9658
▁�����޵�	-9659
�(=���߿�	-9660
▁2009����	-9661
▁2010��27	-9662
▁2010��30	-9663
▁2010��35	-9664
▁2010��42	-9665
▁2010��48	-9666
▁2010��89	-9667
▁2010��93	-9668
▁2010��95	-9669
▁2011��10	-9670
▁2011��15	-9671
▁2011��29	-9672
▁2011��33	-9673
▁2011��47	-9674
▁2011��53	-9675
▁2011��57	-9676
▁2011��63	-9677
▁2012��10	-9678
▁2012��16	-9679
▁2012��19	-9680
▁2012��21	-9681
▁2012��25	-9682
▁2012��65	-9683
▁2013��29	-9684
▁2013��50	-9685
▁2013��69	-9686
▁2013��70	-9687
▁2014��10	-9688
▁2014��25	-9689
▁2015��23	-9690
▁2015��66	-9691
▁2016��26	-9692
▁2016��49	-9693
▁2016����	-9694
▁2017��59	-9695
▁2017����	-9696
▁2018��73	-9697
▁26.4����	-9698
▁26.58%��	-9699
7-3	-9700
ۡۡۺ	-9701
�'�	-9702
�].	-9703
1542	-9704
3442	-9705
41%,	-9706
4126	-9707
524,	-9708
7556	-9709
▁356	-9710
1369,	-9711
41��,	-9712
59842	-9713
▁0.75	-9714
▁1621	-9715
▁168.	-9716
▁412.	-9717
▁Unit	-9718
▁WOOD	-9719
16058,	-9720
526���	-9721
intrac	-9722
▁163��	-9723
▁166��	-9724
▁1961.	-9725
▁7.296	-9726
▁94��4	-9727
▁94��7	-9728
▁97��8	-9729
▁����	-9730
▁1910��	-9731
▁1960��	-9732
▁4,709,	-9733
▁91��12	-9734
▁94��17	-9735
▁94��28	-9736
▁96��37	-9737
▁97��15	-9738
▁97��23	-9739
▁97��36	-9740
▁98��42	-9741
▁��8617	-9742
▁��¡��,	-9743
55������	-9744
▁1(100��	-9745
▁21.41%,	-9746
▁41,524,	-9747
▁86��484	-9748
▁��12��(	-9749
▁��69��,	-9750
����°���	-9751
▁(2)�׿���	-9752
▁1.46����	-9753
▁168.5��,	-9754
▁1926����	-9755
▁1961����	-9756
▁2008��72	-9757
▁2009��42	-9758
▁2010��56	-9759
▁27.����,	-9760
▁278,329,	-9761
▁2��/����	-9762
▁2����(��	-9763
▁30.���ʹ�	-9764
▁31.�����	-9765
▁32(����)	-9766
▁334,755,	-9767
▁34,079,4	-9768
▁3����°��	-9769
▁49������	-9770
▁6.������	-9771
▁60������	-9772
▁632,884,	-9773
▁63������	-9774
▁641,721,	-9775
▁65������	-9776
▁70��1985	-9777
▁75��1193	-9778
▁78��1542	-9779
▁79��1746	-9780
▁87��273,	-9781
▁88.24%��	-9782
▁890.68��	-9783
▁89��1317	-9784
▁9,621,01	-9785
▁90%(����	-9786
▁91��5365	-9787
▁926.53��	-9788
▁92��4581	-9789
▁92��7269	-9790
▁93��3409	-9791
▁94��3469	-9792
▁94��4684	-9793
▁94��7348	-9794
▁95��6823	-9795
▁96��7069	-9796
▁97��5015	-9797
▁97��8809	-9798
▁98��2188	-9799
054	-9800
090	-9801
943	-9802
Car	-9803
ray	-9804
�¡,	-9805
1043	-9806
1279	-9807
2409	-9808
2831	-9809
2861	-9810
4088	-9811
4431	-9812
4809	-9813
5088	-9814
5361	-9815
5412	-9816
5890	-9817
722,	-9818
7612	-9819
▁174	-9820
▁273	-9821
▁3).	-9822
▁3~4	-9823
▁554	-9824
▁572	-9825
▁law	-9826
�޾�,	-9827
��񿡼�	-9828
11341	-9829
16867	-9830
318��	-9831
31��,	-9832
33596	-9833
747��	-9834
8��(=	-9835
Cario	-9836
▁4.72	-9837
▁7,46	-9838
▁875,	-9839
▁�÷��	-9840
▁�񼮳󵵸�	-9841
��.�	-9842
42666,	-9843
▁130��	-9844
▁2002�	-9845
▁37348	-9846
▁70370	-9847
▁82053	-9848
▁92��5	-9849
▁92��8	-9850
▁���3�	-9851
▁���͸�	-9852
091����	-9853
43)����	-9854
erebral	-9855
▁81��12	-9856
▁92��26	-9857
▁���׹��	-9858
�(2003.	-9859
DECCario	-9860
▁05:10��	-9861
▁171����	-9862
▁505����	-9863
▁7,464,9	-9864
▁875,259	-9865
▁��383��	-9866
287,318��	-9867
▁17������	-9868
▁2015��34	-9869
▁2200.04-	-9870
▁31.98%��	-9871
▁415��)��	-9872
▁92��8453	-9873
▁96��6240	-9874
▁98��7001	-9875
▁98��7735	-9876
▁99��3686	-9877
▁99��4923	-9878
▁Acquired	-9879
▁Shipping	-9880
▁contract	-9881
▁decerebr	-9882
▁moderate	-9883
▁¡�������	-9884
▁�÷�����,	-9885
▁�˷�����,	-9886
▁�˷������	-9887
▁�˻�(����	-9888
▁�˻������	-9889
▁�׶������	-9890
▁�׼���)��	-9891
▁�޼������	-9892
▁�⵶������	-9893
▁��(2006.	-9894
▁��(��919	-9895
▁��10��).	-9896
▁��114��)	-9897
▁��11��(�	-9898
▁��121��)	-9899
071	-9900
973	-9901
984	-9902
WBC	-9903
hed	-9904
our	-9905
▁OF	-9906
▁OO	-9907
041,	-9908
1006	-9909
1784	-9910
2507	-9911
3,04	-9912
78%,	-9913
7801	-9914
7876	-9915
8,90	-9916
8334	-9917
9031	-9918
9053	-9919
9059	-9920
ares	-9921
pore	-9922
▁13%	-9923
▁504	-9924
10119	-9925
10139	-9926
15828	-9927
50751	-9928
739��	-9929
:32��	-9930
:57��	-9931
hedge	-9932
▁11,5	-9933
▁3�޿�	-9934
▁4,90	-9935
▁OOCL	-9936
▁Tour	-9937
64��],	-9938
663,04	-9939
[��1��	-9940
aresis	-9941
▁1)���	-9942
▁1954.	-9943
▁1958.	-9944
▁19904	-9945
▁37332	-9946
▁4)���	-9947
▁94��,	-9948
▁��778	-9949
,003��,	-9950
040����	-9951
▁498,90	-9952
▁830��,	-9953
▁95��29	-9954
▁Marine	-9955
▁�����	-9956
▁�𷡴���,	-9957
▁10:32��	-9958
▁10:57��	-9959
▁2016��8	-9960
▁20:50��	-9961
▁70,041,	-9962
▁99.78%,	-9963
▁��19053	-9964
▁��2000.	-9965
▁��21461	-9966
▁��281��	-9967
▁��63��,	-9968
▁��82��,	-9969
:40������	-9970
represent	-9971
▁11,517,1	-9972
▁2,663,04	-9973
▁2001��73	-9974
▁2010��90	-9975
▁2011��84	-9976
▁2016��13	-9977
▁4,907,13	-9978
▁89��7801	-9979
▁��(2003.	-9980
▁��(����,	-9981
▁��122��,	-9982
▁��130��,	-9983
▁��137��,	-9984
▁��163��,	-9985
▁��19����	-9986
▁��1��(��	-9987
▁��1��2��	-9988
▁��2001�⵵	-9989
▁��2003��	-9990
▁��2004��	-9991
▁��202��,	-9992
▁��208��)	-9993
▁��223��,	-9994
▁��225��,	-9995
▁��226��,	-9996
▁��26��),	-9997
▁��29����	-9998
▁��2��(��	-9999
).�	-10000
555	-10001
BAS	-10002
SET	-10003
ick	-10004
lot	-10005
)�˿�	-10006
2881	-10007
55%,	-10008
6095	-10009
6584	-10010
olon	-10011
▁13�	-10012
▁21�	-10013
▁7�⿡	-10014
▁Inv	-10015
▁Nor	-10016
▁PTE	-10017
��52	-10018
��޸𸮾	-10019
16550	-10020
38544	-10021
60080	-10022
62322	-10023
814��	-10024
click	-10025
▁2,55	-10026
▁4,52	-10027
▁922;	-10028
▁Tild	-10029
▁blot	-10030
▁conv	-10031
���׸�	-10032
394��,	-10033
BASSET	-10034
▁129��	-10035
▁14��,	-10036
▁1�⿩��	-10037
▁24��,	-10038
▁27.)�	-10039
▁285��	-10040
▁44,97	-10041
▁54,77	-10042
▁66��)	-10043
▁colon	-10044
▁��584	-10045
)2012��	-10046
▁90��11	-10047
▁Tilden	-10048
▁convul	-10049
������	-10050
��޸𸮾���	-10051
����򰡹��	-10052
94������	-10053
▁11:30��	-10054
▁12:00��	-10055
▁2,554.5	-10056
▁2004��,	-10057
▁22:28��	-10058
▁407����	-10059
▁44,976,	-10060
▁79.4%��	-10061
▁81.55%,	-10062
▁��24��,	-10063
▁��425��	-10064
▁�����󰢺�	-10065
�(��4��,	-10066
�������	-10067
��(2016.	-10068
-30������	-10069
20,303,58	-10070
▁2003��52	-10071
▁2014��28	-10072
▁665�����	-10073
▁66������	-10074
▁93��3622	-10075
▁Normaliz	-10076
▁��1��]��	-10077
▁��2��)��	-10078
▁��334��,	-10079
▁��34��),	-10080
▁��35��),	-10081
▁��37����	-10082
▁��390��,	-10083
▁��43����	-10084
▁��4�����	-10085
▁��53����	-10086
▁��5�����	-10087
▁��60����	-10088
▁��638��,	-10089
▁��63����	-10090
▁��69����	-10091
▁��6�׸���	-10092
▁��6��(��	-10093
▁��6����1	-10094
▁��75����	-10095
▁��763��,	-10096
▁��89����	-10097
▁��9��)��	-10098
▁���¶���,	-10099
▁UK	-10100
▁UN	-10101
100�	-10102
3586	-10103
4994	-10104
6429	-10105
6647	-10106
7798	-10107
9872	-10108
dity	-10109
▁27�	-10110
▁5/4	-10111
▁Int	-10112
▁Pet	-10113
12659	-10114
33069	-10115
42610	-10116
8.573	-10117
¡�¡��	-10118
▁1190	-10119
▁15:0	-10120
▁2,98	-10121
▁3759	-10122
▁451.	-10123
▁4524	-10124
▁56,6	-10125
▁�๰��	-10126
�/���	-10127
�޵���	-10128
64��),	-10129
±�)���	-10130
▁15370	-10131
▁231��	-10132
▁�⵶���	-10133
▁��798	-10134
▁���޷�	-10135
▁���߼�	-10136
��޷���	-10137
igidity	-10138
▁3,100�	-10139
▁45,501	-10140
▁�����	-10141
▁��9541	-10142
▁��9625	-10143
��¡����	-10144
����࡯��	-10145
Delivery	-10146
▁100.13%	-10147
▁15:08��	-10148
▁23:00��	-10149
▁266����	-10150
▁3.���ʹ�	-10151
▁380����	-10152
▁80��218	-10153
▁93��626	-10154
▁��1,500	-10155
▁��2012.	-10156
▁��232��	-10157
▁��235��	-10158
▁��96��,	-10159
▁���1⁄4�	-10160
▁���޷���	-10161
▁�����1�	-10162
▁�����˸�	-10163
▁���󼼺���	-10164
8.573%)��	-10165
▁4��)����	-10166
▁80��2185	-10167
▁90��9872	-10168
▁rigidity	-10169
▁�������	-10170
▁��1�׺���	-10171
▁���»���,	-10172
▁���԰��·�	-10173
▁���޹޾���	-10174
▁���޺���:	-10175
▁���߼����	-10176
▁���߾���,	-10177
▁���߾����	-10178
▁���ࡤ����	-10179
▁���࿹����	-10180
▁���⵵����	-10181
▁���⿹����	-10182
▁�������	-10183
▁�������	-10184
▁����(��4	-10185
▁����(��5	-10186
▁����(��6	-10187
▁����.[6]	-10188
▁����1���	-10189
▁����50��	-10190
▁�����°��	-10191
▁�����ʼ�,	-10192
▁�����˻��	-10193
▁�����˼��	-10194
▁������3�	-10195
▁�������˻	-10196
▁�������޾	-10197
▁�������๰	-10198
▁�������	-10199
,82	-10200
ats	-10201
ǽɵȴ	-10202
▁pO	-10203
0982	-10204
1482	-10205
1591	-10206
2505	-10207
CORE	-10208
ǽɵǰų	-10209
▁'��	-10210
▁562	-10211
▁791	-10212
▁Sat	-10213
▁Uni	-10214
�'��	-10215
�[6]	-10216
020��	-10217
1(���	-10218
10523	-10219
5,900	-10220
layed	-10221
▁1,02	-10222
▁8,89	-10223
▁1)��,	-10224
▁10:50	-10225
▁17,49	-10226
▁2008�	-10227
▁41668	-10228
▁52%��	-10229
▁73��1	-10230
▁75051	-10231
▁SCORE	-10232
▁����	-10233
▁��'��	-10234
▁��28�	-10235
1(���޽�	-10236
delayed	-10237
▁434303	-10238
▁��567,	-10239
▁��6852	-10240
��޹����	-10241
,820����	-10242
▁03:00��	-10243
▁1,600��	-10244
▁18:30��	-10245
▁2015��4	-10246
▁21:30��	-10247
▁655,900	-10248
▁Repeats	-10249
▁��13540	-10250
▁��487��	-10251
▁��48��,	-10252
▁���ࡤ���	-10253
▁�����񸮿�	-10254
��(2013.	-10255
1(�������	-10256
225,020��	-10257
900,000��	-10258
▁1(������	-10259
▁2015��48	-10260
▁73��1253	-10261
▁8,897,72	-10262
▁���ʼ����	-10263
▁���͹����	-10264
▁���׿����	-10265
▁�����񡤼��	-10266
▁���񡤰����	-10267
▁���󡤹����	-10268
��������	-10269
��������	-10270
�(��8��),	-10271
�.��3����	-10272
�.������,	-10273
�߻�������	-10274
��¿�����,	-10275
��޾�����,	-10276
���(1990.	-10277
���(2009.	-10278
���(2016.	-10279
���(��9��	-10280
���(�����	-10281
���°�����	-10282
���͸�����	-10283
�����)���	-10284
�����׶���	-10285
�����׺���	-10286
�������࡯�	-10287
���񼮳�����	-10288
$(��������	-10289
(=��������	-10290
(��18��)��	-10291
(��46��)��	-10292
,000(�����	-10293
,560������	-10294
10,000����	-10295
110,235��,	-10296
189,003��,	-10297
2/4,526���	-10298
2447(����)	-10299
~08	-10300
1185	-10301
1188	-10302
14,0	-10303
3908	-10304
7257	-10305
7708	-10306
917,	-10307
SSEP	-10308
ۡۡۡ۴	-10309
ۡۡۡۻ	-10310
ۡۡۡۿ	-10311
▁4-1	-10312
▁pum	-10313
��׼�	-10314
089��	-10315
11888	-10316
20731	-10317
2075,	-10318
27611	-10319
30712	-10320
32905	-10321
3742,	-10322
41349	-10323
5,700	-10324
5805,	-10325
60610	-10326
hment	-10327
▁5542	-10328
▁6]��	-10329
▁712,	-10330
▁�ʻ��	-10331
▁���	-10332
�)]��	-10333
490��)	-10334
~08:30	-10335
▁1/2��	-10336
▁13:00	-10337
▁18]��	-10338
▁2000�	-10339
▁315��	-10340
▁42��,	-10341
▁45238	-10342
▁72��,	-10343
▁73%��	-10344
▁�ʺ���	-10345
▁�ʻ���	-10346
▁��¡'�	-10347
▁��°��	-10348
�(154,	-10349
�.�׷��	-10350
�2015.	-10351
��)]��	-10352
2-1����	-10353
34,917,	-10354
4,314,0	-10355
▁9.89%,	-10356
▁[2009]	-10357
▁���׿��	-10358
▁���󸣵�(	-10359
�����׼�	-10360
▁16:35��	-10361
▁1981��,	-10362
▁22:15��	-10363
▁29�����	-10364
▁3,089��	-10365
▁48%����	-10366
▁pumping	-10367
▁��(��)�	-10368
▁��31��,	-10369
▁��32��,	-10370
▁��71��,	-10371
▁���⿹��,	-10372
▁����)],	-10373
�(��1��,	-10374
�2-1����	-10375
��(2001.	-10376
5,700��(=	-10377
6��(2009.	-10378
9��(�����	-10379
▁-34,917,	-10380
▁13:00~16	-10381
▁67��1185	-10382
▁712,845,	-10383
▁��2���׿�	-10384
▁����)]��	-10385
▁�����󰢺�,	-10386
278,000��)	-10387
29,387����	-10388
39,553����	-10389
50,044��(=	-10390
600,000��,	-10391
600,925��,	-10392
67,954,800	-10393
71.51%����	-10394
722,328��,	-10395
990��(����	-10396
=10��(����	-10397
ultraearly	-10398
߻���������	-10399
FDS	-10400
▁by	-10401
1130	-10402
4002	-10403
▁pCO	-10404
/4,52	-10405
16800	-10406
32360	-10407
32809	-10408
33803	-10409
36511	-10410
38677	-10411
39629	-10412
44563	-10413
47052	-10414
58323	-10415
80079	-10416
intub	-10417
▁10,3	-10418
▁26%,	-10419
▁786.	-10420
▁9365	-10421
▁IASP	-10422
▁Rent	-10423
▁�޶󡯰�	-10424
▁�𸥴�.	-10425
����	-10426
190��,	-10427
366��,	-10428
atened	-10429
fender	-10430
▁144��	-10431
▁453,7	-10432
▁751-2	-10433
�÷����	-10434
17,120,	-10435
76.33��	-10436
Demised	-10437
▁2���ʿ�	-10438
▁��5497	-10439
����°��	-10440
����߻��	-10441
�����󿡴�	-10442
reatened	-10443
▁00:20��	-10444
▁03:20��	-10445
▁09:30��	-10446
▁140����	-10447
▁17:20��	-10448
▁17:50��	-10449
▁1997��,	-10450
▁21:20��	-10451
▁��29��,	-10452
▁��341��	-10453
▁�����𵨷�	-10454
▁�򰡱�����	-10455
,000,000�	-10456
▁100%����	-10457
▁802/4,52	-10458
▁876.33��	-10459
▁��109��,	-10460
▁��303��)	-10461
▁�����߻��	-10462
�.�׼�����	-10463
19,360����	-10464
intubation	-10465
threatened	-10466
▁00:26����	-10467
▁1,023����	-10468
▁1,106����	-10469
▁1,240����	-10470
▁1,500,000	-10471
▁1,960��(�	-10472
▁10.������	-10473
▁10��(����	-10474
▁10������,	-10475
▁12.(�����	-10476
▁12��/����	-10477
▁14,146,72	-10478
▁16,862,51	-10479
▁17,497,21	-10480
▁17.������	-10481
▁18.������	-10482
▁1948����,	-10483
▁2/1,000��	-10484
▁2000��449	-10485
▁2001��228	-10486
▁2001��277	-10487
▁2001��376	-10488
▁2002��416	-10489
▁2002��490	-10490
▁2004��109	-10491
▁2004��195	-10492
▁2004��221	-10493
▁2004��245	-10494
▁2004��685	-10495
▁2004��850	-10496
▁2005��318	-10497
▁2005��814	-10498
▁2006��248	-10499
***	-10500
2-7	-10501
air	-10502
eel	-10503
nep	-10504
2285	-10505
2971	-10506
3-11	-10507
3186	-10508
posi	-10509
▁***	-10510
▁1-4	-10511
▁BIS	-10512
�445	-10513
11422	-10514
11436	-10515
11607	-10516
11665	-10517
11689	-10518
14076	-10519
18539	-10520
25985	-10521
28840	-10522
31868	-10523
32371	-10524
57429	-10525
nephr	-10526
��109	-10527
��140	-10528
050��,	-10529
318��,	-10530
▁10,99	-10531
▁1934.	-10532
▁202-7	-10533
▁53-11	-10534
▁Steel	-10535
▁�򰡼���	-10536
325����	-10537
5687)��	-10538
▁***-**	-10539
▁1937��	-10540
▁225985	-10541
▁555,85	-10542
▁repair	-10543
▁��2694	-10544
▁���׵��	-10545
Licensed	-10546
positive	-10547
▁01:50��	-10548
▁05:00��	-10549
▁14:50��	-10550
▁16:12��	-10551
▁18:50��	-10552
▁19:50��	-10553
▁��11050	-10554
▁��15��,	-10555
▁���԰���	-10556
▁�����򿡵�	-10557
��109)��	-10558
��2007�⵵	-10559
񼭸�(2009.	-10560
585687)��	-10561
84(����),	-10562
▁***-****	-10563
▁4.32%��,	-10564
▁55������	-10565
▁94��3186	-10566
▁99��3358	-10567
▁��457429	-10568
▁��758��)	-10569
(��������)	-10570
120,000���	-10571
678,318��,	-10572
▁2006��257	-10573
▁2006��307	-10574
▁2006��648	-10575
▁2006��762	-10576
▁2007��100	-10577
▁2007��248	-10578
▁2007��668	-10579
▁2007��726	-10580
▁2008��118	-10581
▁2008��202	-10582
▁2008��219	-10583
▁2008��277	-10584
▁2008��404	-10585
▁2008��681	-10586
▁2009��110	-10587
▁2009��151	-10588
▁2009��291	-10589
▁2009��646	-10590
▁2009��684	-10591
▁2009��726	-10592
▁2009��797	-10593
▁2010��109	-10594
▁2010��114	-10595
▁2010��223	-10596
▁2010��347	-10597
▁2010��924	-10598
▁2010��963	-10599
1139	-10600
4277	-10601
hage	-10602
▁1/4	-10603
▁FAX	-10604
15983	-10605
17169	-10606
19510	-10607
24021	-10608
28410	-10609
39927	-10610
40,53	-10611
42789	-10612
48932	-10613
51650	-10614
52673	-10615
6-4��	-10616
86782	-10617
94375	-10618
▁1102	-10619
▁274,	-10620
▁7229	-10621
▁8229	-10622
��354	-10623
����	-10624
101980	-10625
1��264	-10626
424��,	-10627
▁07:30	-10628
▁110%,	-10629
▁203,9	-10630
▁240-6	-10631
▁4)��,	-10632
▁58%��	-10633
▁5829,	-10634
▁70537	-10635
▁72%��	-10636
�����	-10637
2010955	-10638
2014277	-10639
orrhage	-10640
▁2(15��	-10641
160,543,	-10642
].������	-10643
▁00:10��	-10644
▁07:00��	-10645
▁08:45��	-10646
▁1,100��	-10647
▁11:35��	-10648
▁206-4��	-10649
▁240����	-10650
▁7~8����	-10651
▁Facnyne	-10652
▁��10239	-10653
▁��155��	-10654
▁��570��	-10655
�����׼��	-10656
40,533���	-10657
▁07:30~13	-10658
▁2005�⵵��	-10659
鿪�����˻�,	-10660
%(0.47%-0.	-10661
▁2011��921	-10662
▁2013��195	-10663
▁2013��802	-10664
▁2016��242	-10665
▁2016��248	-10666
▁2016��264	-10667
▁2016��292	-10668
▁21�������	-10669
▁22.������	-10670
▁26.5��)��	-10671
▁28.������	-10672
▁29.������	-10673
▁3,548,474	-10674
▁3,900����	-10675
▁3.5~5.5),	-10676
▁34,070,72	-10677
▁3��(2008.	-10678
▁3��������	-10679
▁4,000,000	-10680
▁4,570����	-10681
▁475,097,8	-10682
▁4��������	-10683
▁5,000����	-10684
▁56,000��,	-10685
▁56,634,97	-10686
▁58��)����	-10687
▁6.50%����	-10688
▁60~64����	-10689
▁68,424��,	-10690
▁6��25����	-10691
▁70,000��,	-10692
▁7��������	-10693
▁80,677,61	-10694
▁81��1223,	-10695
▁8��(�����	-10696
▁90��19121	-10697
▁91��12257	-10698
▁91��41118	-10699
GCS	-10700
401,	-10701
4141	-10702
Lamb	-10703
▁7~8	-10704
▁Inc	-10705
▁Reg	-10706
▁rel	-10707
▁veg	-10708
���	-10709
0136,	-10710
10749	-10711
11038	-10712
1478,	-10713
1942]	-10714
24842	-10715
31323	-10716
32500	-10717
3509,	-10718
41749	-10719
41794	-10720
6373,	-10721
~45),	-10722
▁3/9,	-10723
▁5126	-10724
▁6380	-10725
▁9893	-10726
▁Word	-10727
�?��,	-10728
(2016.	-10729
27623,	-10730
69,278	-10731
▁08:50	-10732
▁18��(	-10733
▁349��	-10734
▁34��)	-10735
▁relie	-10736
▁�󵵿���	-10737
�����	-10738
▁4~5%��	-10739
▁825��,	-10740
▁Sanrio	-10741
▁[1942]	-10742
▁relief	-10743
▁��5908	-10744
▁��9369	-10745
����࡯�	-10746
▁04:00��	-10747
▁11:10��	-10748
▁21:25��	-10749
▁340����	-10750
▁35~45),	-10751
▁��10303	-10752
▁��18325	-10753
▁��[����	-10754
�(��13��	-10755
483,977,4	-10756
▁1358��),	-10757
▁6)������	-10758
▁9004����	-10759
▁Regional	-10760
▁��125��,	-10761
▁��3-4��,	-10762
▁����31��	-10763
�.��(��14	-10764
▁1,669,278	-10765
▁2004��759	-10766
▁2006��532	-10767
▁4,599,516	-10768
▁91��43466	-10769
▁91��45929	-10770
▁92��51372	-10771
▁92��55350	-10772
▁93��16338	-10773
▁93��3073,	-10774
▁93��57100	-10775
▁93��59779	-10776
▁93��60953	-10777
▁94��15530	-10778
▁94��28000	-10779
▁94��36241	-10780
▁95��22115	-10781
▁95��26131	-10782
▁95��29130	-10783
▁95��38233	-10784
▁95��49370	-10785
▁95��56095	-10786
▁96��31574	-10787
▁96��32126	-10788
▁97��12235	-10789
▁97��13474	-10790
▁97��19090	-10791
▁98��17869	-10792
▁98��18520	-10793
▁98��19950	-10794
▁98��34126	-10795
▁98��39060	-10796
▁98��42141	-10797
▁990������	-10798
▁99��19797	-10799
bri	-10800
dge	-10801
kno	-10802
غمم	-10803
▁ŰȦ	-10804
060.	-10805
1352	-10806
81.2	-10807
SMPS	-10808
know	-10809
rier	-10810
▁89%	-10811
▁�±�	-10812
��[�	-10813
��񽺿�	-10814
17911	-10815
8637,	-10816
▁126,	-10817
▁3.5�	-10818
▁40.6	-10819
▁50%,	-10820
▁600)	-10821
▁9.9%	-10822
▁[10]	-10823
▁�±޿�	-10824
�1021	-10825
��񼮳󵵸�	-10826
bridge	-10827
ensity	-10828
▁13149	-10829
▁3(��,	-10830
▁360��	-10831
▁571��	-10832
▁60024	-10833
▁77204	-10834
▁779��	-10835
▁9,221	-10836
▁91352	-10837
▁�¡���	-10838
���񼮳󵵰�	-10839
(��31��	-10840
81.26��	-10841
density	-10842
▁(���·�	-10843
▁0.47%�	-10844
▁1,060.	-10845
▁13,485	-10846
▁2,636,	-10847
▁2001�⵵	-10848
▁��2826	-10849
▁���⿩��	-10850
���߾���	-10851
��񼮳����	-10852
▁0.015��	-10853
▁08:25��	-10854
▁12����)	-10855
▁139��),	-10856
▁22:25��	-10857
▁99��628	-10858
▁Carrier	-10859
▁��10175	-10860
▁��28��,	-10861
�(��27��	-10862
�(��28��	-10863
����׼���	-10864
������[�	-10865
▁3,937���	-10866
▁40.63��(	-10867
▁96��1733	-10868
▁�׶����ʹ�	-10869
▁��672��)	-10870
���(1997.	-10871
�������ʺ�	-10872
▁2006��913	-10873
▁66.88����	-10874
▁90%������	-10875
▁93��17911	-10876
▁99��24218	-10877
▁99��32905	-10878
▁99��38705	-10879
▁99��63138	-10880
▁99��67147	-10881
▁9��������	-10882
▁[��������	-10883
▁�1⁄4�����	-10884
▁�3⁄4�����	-10885
▁�˾�������	-10886
▁�׶�������	-10887
▁�׸�������	-10888
▁�޷�������	-10889
▁�޾��޿����	-10890
▁��(-)����	-10891
▁��(��4��)	-10892
▁��102����	-10893
▁��109����	-10894
▁��114��),	-10895
▁��119����	-10896
▁��121��),	-10897
▁��123��).	-10898
▁��126����	-10899
4476	-10900
449,	-10901
28515	-10902
30440	-10903
47734	-10904
47787	-10905
49789	-10906
61951	-10907
haron	-10908
▁56-4	-10909
▁726,	-10910
▁98.8	-10911
▁Corp	-10912
▁Febr	-10913
▁�޿�,	-10914
3,7,8-	-10915
4,714,	-10916
cybers	-10917
quence	-10918
uction	-10919
▁12753	-10920
▁19,26	-10921
▁2/3��	-10922
▁6,385	-10923
▁8212,	-10924
▁Study	-10925
▁agent	-10926
▁early	-10927
▁joint	-10928
���񡤼��	-10929
075,580	-10930
▁(1995.	-10931
▁1929��	-10932
▁2009�⿡	-10933
▁4.32%,	-10934
▁52.9��	-10935
▁530��,	-10936
▁84615,	-10937
▁84622,	-10938
▁Sharon	-10939
▁period	-10940
▁�޿����	-10941
▁��7834	-10942
▁���𸷿�,	-10943
2,350��,	-10944
~525��).	-10945
▁1,200��	-10946
▁2,400��	-10947
▁52.5%��	-10948
▁56,000�	-10949
▁98.3%��	-10950
▁Febrile	-10951
▁rupture	-10952
▁��20378	-10953
▁��544��	-10954
▁��798��	-10955
▁��816��	-10956
▁���ʹ޶󡱴�	-10957
▁���߾��	-10958
��󡤱�����	-10959
4,765����	-10960
▁104,714,	-10961
▁2,3,7,8-	-10962
▁Sequence	-10963
▁��238��,	-10964
▁��338��,	-10965
▁��65��).	-10966
▁��703��)	-10967
▁�������	-10968
▁2008��607	-10969
▁93��28515	-10970
▁98��61951	-10971
▁��12����2	-10972
▁��141����	-10973
▁��147����	-10974
▁��16�׿���	-10975
▁��16����3	-10976
▁��176��),	-10977
▁��181����	-10978
▁��182����	-10979
▁��188����	-10980
▁��1961)��	-10981
▁��1��]���	-10982
▁��1���࿡��	-10983
▁��202��).	-10984
▁��205����	-10985
▁��20��)��	-10986
▁��212��),	-10987
▁��238��),	-10988
▁��241��).	-10989
▁��248����	-10990
▁��256����	-10991
▁��262��).	-10992
▁��26����,	-10993
▁��28����6	-10994
▁��294��),	-10995
▁��3,483,9	-10996
▁��354����	-10997
▁��366����	-10998
▁��390��).	-10999
Biz	-11000
Ldn	-11001
SSR	-11002
dow	-11003
ardo	-11004
▁97�	-11005
▁BTO	-11006
▁Die	-11007
�529	-11008
��󸶴�	-11009
-30��	-11010
160-8	-11011
Chest	-11012
▁10~6	-11013
▁1~2�	-11014
▁2.5~	-11015
▁mild	-11016
���񡯶�	-11017
window	-11018
▁95493	-11019
▁£����	-11020
▁���;�	-11021
▁���ࡱ�	-11022
Facnyne	-11023
allardo	-11024
▁103914	-11025
▁Diezel	-11026
▁Immune	-11027
▁£�����	-11028
▁���ࡹ��	-11029
3⁄4�����	-11030
▁2.5~3.5	-11031
▁22:17��	-11032
▁951��),	-11033
▁��10166	-11034
▁��14033	-11035
▁��14548	-11036
▁��448,8	-11037
▁��665��	-11038
▁���˼���	-11039
▁�����߽�	-11040
1,300����	-11041
▁10~60%��	-11042
▁505-30��	-11043
▁671,280�	-11044
▁85%(����	-11045
▁93��4250	-11046
▁99����14	-11047
▁Gallardo	-11048
▁Solution	-11049
▁abortion	-11050
▁�˹��˻���	-11051
▁����.[8]	-11052
▁����.[9]	-11053
▁������7�	-11054
����(��2,	-11055
▁2007��103	-11056
▁93��50116	-11057
▁95��22061	-11058
▁95��24340	-11059
▁97��19427	-11060
▁��145��),	-11061
▁��393��).	-11062
▁��397����	-11063
▁��4-5����	-11064
▁��402��).	-11065
▁��410����	-11066
▁��412��),	-11067
▁��413����	-11068
▁��418��).	-11069
▁��419����	-11070
▁��422����	-11071
▁��423����	-11072
▁��424����	-11073
▁��427����	-11074
▁��429����	-11075
▁��451��),	-11076
▁��485����	-11077
▁��4������	-11078
▁��535����	-11079
▁��551��),	-11080
▁��627����	-11081
▁��665��),	-11082
▁��667��).	-11083
▁��752����	-11084
▁��756��),	-11085
▁��764����	-11086
▁��840����	-11087
▁��91����2	-11088
▁��¥�⿡����	-11089
▁���1⁄4���	-11090
▁���3⁄4���	-11091
▁���׺�����	-11092
▁���޵�����	-11093
▁���޿�����	-11094
▁���ࡹ(����	-11095
▁���๮(����	-11096
▁����(=��,	-11097
▁����(��1,	-11098
▁����).[2]	-11099
Serv	-11100
WOOD	-11101
plex	-11102
▁Sea	-11103
-8/26	-11104
12093	-11105
1345,	-11106
26577	-11107
27973	-11108
32668	-11109
54599	-11110
▁(11)	-11111
▁2974	-11112
▁34.5	-11113
▁44%,	-11114
▁53.5	-11115
▁59,5	-11116
▁833.	-11117
▁fair	-11118
��1⁄2	-11119
��794	-11120
��⸻��	-11121
����	-11122
1.7)��	-11123
1137),	-11124
13132,	-11125
Jacket	-11126
Server	-11127
▁0.7),	-11128
▁29294	-11129
▁40498	-11130
▁54%��	-11131
▁546��	-11132
▁71%��	-11133
▁80755	-11134
▁���󸶴�	-11135
�.(��)	-11136
·����(1	-11137
▁0.1%��	-11138
▁20.6%,	-11139
▁3(50��	-11140
▁5,160,	-11141
▁87.6%,	-11142
▁Jacket	-11143
▁��2356	-11144
▁��7049	-11145
▁��8974	-11146
▁�����	-11147
/26-8/26	-11148
7~1.7)��	-11149
▁81��230	-11150
▁84��522	-11151
▁Complex	-11152
▁��19503	-11153
▁��21683	-11154
▁��25273	-11155
▁��25522	-11156
▁��27418	-11157
��׸�����	-11158
▁38,000��	-11159
▁833.18��	-11160
������⸻��	-11161
(6/26-8/26	-11162
33943)����	-11163
▁2005��263	-11164
▁2009��493	-11165
▁59,512���	-11166
▁93��32668	-11167
▁98��31356	-11168
▁99��12093	-11169
▁99����755	-11170
▁��202��),	-11171
▁����.(��)	-11172
▁����3����	-11173
▁����]����	-11174
▁����~����	-11175
▁�����»���	-11176
▁�����˼���	-11177
▁�����˿���	-11178
▁�����͸���	-11179
▁�����׷���	-11180
▁�����׸���	-11181
▁�����޴���	-11182
▁�����޵���	-11183
▁�����޼���	-11184
▁������(28	-11185
▁������101	-11186
▁������[3]	-11187
▁������[��	-11188
▁������¡��	-11189
▁�������˰�	-11190
▁�������˻�	-11191
▁�������԰�	-11192
▁�������߾�	-11193
▁�������ࡱ�	-11194
▁�������࿡�	-11195
▁�������鿡�	-11196
▁�������𿡰�	-11197
▁�������񡯶�	-11198
▁�������񽺿�	-11199
7854	-11200
HDPE	-11201
iste	-11202
▁Act	-11203
14473	-11204
42110	-11205
54520	-11206
66911	-11207
dural	-11208
▁(10)	-11209
▁3187	-11210
▁434;	-11211
▁HDPE	-11212
�޴���	-11213
�޼���	-11214
��639	-11215
(1998.	-11216
113422	-11217
19898,	-11218
27488,	-11219
7,273,	-11220
9,983,	-11221
▁1,740	-11222
▁12050	-11223
▁26,17	-11224
▁2709,	-11225
▁3,760	-11226
▁37900	-11227
▁59841	-11228
▁756,0	-11229
▁80223	-11230
▁Insti	-11231
▁����	-11232
�2001.	-11233
(1998��	-11234
7619)��	-11235
▁0-3���	-11236
▁0.8��,	-11237
▁1/2���	-11238
▁295,85	-11239
▁3.89%,	-11240
▁318��,	-11241
▁3~6%��	-11242
▁466,17	-11243
▁500��,	-11244
▁512���	-11245
▁73.7��	-11246
▁��7347	-11247
��54520	-11248
▁0-2����	-11249
▁02:30��	-11250
▁10:15��	-11251
▁115����	-11252
▁17:34��	-11253
▁1984���	-11254
▁2018��,	-11255
▁36.4���	-11256
▁36.8���	-11257
▁379��).	-11258
▁39,983,	-11259
▁40~50��	-11260
▁416��).	-11261
▁5.4%)��	-11262
▁68.8���	-11263
▁94,894,	-11264
▁��12600	-11265
▁��854��	-11266
����񱳹���	-11267
���󿩱����	-11268
portation	-11269
▁1482��).	-11270
▁2658��),	-11271
▁96��7854	-11272
▁Pianiste	-11273
▁��253786	-11274
421��)����	-11275
▁1,047����	-11276
▁2006��342	-11277
▁Institute	-11278
▁���񱸿�����	-11279
▁���󡤰�����	-11280
▁�񿵸�������	-11281
▁�򰡰�������	-11282
▁�򰡱�������	-11283
▁�򰡴�������	-11284
�(=�������	-11285
�(��12��),	-11286
�(��25��).	-11287
�(�����˻�)	-11288
�/��������	-11289
�1��������	-11290
�5��������	-11291
�6��������	-11292
�[��������	-11293
�¡�(������	-11294
�ʹ�������,	-11295
��(=������	-11296
��¿�������	-11297
���(2002��	-11298
���(��)(��	-11299
IASP	-11300
▁pot	-11301
42666	-11302
229,35	-11303
drowsy	-11304
▁76��~	-11305
▁96-52	-11306
▁inter	-11307
Western	-11308
▁1,001.	-11309
▁1,260,	-11310
▁111021	-11311
▁121��,	-11312
▁17:30�	-11313
▁19,888	-11314
▁19:50�	-11315
▁2��2],	-11316
▁5,845,	-11317
▁9,023,	-11318
▁System	-11319
▁[2001]	-11320
��15036	-11321
2,070��,	-11322
▁0.03%��	-11323
▁01:22��	-11324
▁04:12��	-11325
▁07:40��	-11326
▁07:55��	-11327
▁111485,	-11328
▁121��),	-11329
▁14,798,	-11330
▁16:22��	-11331
▁16:28��	-11332
▁18:40��	-11333
▁19:24��	-11334
▁2,800��	-11335
▁224����	-11336
▁23:24��	-11337
▁2~3�鿡��	-11338
▁2��2]��	-11339
▁333��).	-11340
▁78��639	-11341
▁96-50��	-11342
▁��ʺ���	-11343
▁��10527	-11344
▁��10634	-11345
▁��11037	-11346
▁���󺹱���	-11347
(��46��),	-11348
105,962��	-11349
8.305%)��	-11350
▁0.03����	-11351
▁0.04����	-11352
▁1,100��)	-11353
▁40.63���	-11354
▁450��338	-11355
▁472-54��	-11356
▁76��1313	-11357
▁941,721,	-11358
▁interest	-11359
▁��291��,	-11360
▁��667��,	-11361
▁�����񼮳󵵸�	-11362
�(��7��),	-11363
▁04:29����	-11364
▁04:48����	-11365
▁1,071,609	-11366
▁11,229,35	-11367
▁2710��)��	-11368
▁5,109����	-11369
▁��168����	-11370
▁��414����	-11371
▁���°�����	-11372
▁���󸶡�����	-11373
▁���󺹱�����	-11374
���-20%)��	-11375
����(2003.	-11376
����(2014.	-11377
����(����,	-11378
����1⁄4���	-11379
����°�����	-11380
����˻�����	-11381
����׺�����	-11382
����׿�����	-11383
�����(12��	-11384
�����)����	-11385
�����[����	-11386
������)[2]	-11387
������)]��	-11388
������߻���	-11389
�������˱��	-11390
�������⿡��	-11391
��������(�	-11392
��������),	-11393
��������ʹ�	-11394
��������߾�	-11395
���������·	-11396
(2003��4111	-11397
(������)��,	-11398
(����������	-11399
▁�󱸿�	-11400
10091)��	-11401
▁������	-11402
3,500����	-11403
7,850����	-11404
▁164,800�	-11405
▁64.203%,	-11406
▁93��2711	-11407
▁95��8713	-11408
���(��)�׺	-11409
48,000��(=	-11410
▁152,687��	-11411
▁2,520����	-11412
▁436������	-11413
▁52.15����	-11414
▁91��35106	-11415
▁94��36285	-11416
▁96��30113	-11417
▁96��30182	-11418
▁98��17602	-11419
▁99��38699	-11420
▁99��55533	-11421
▁��2004-85	-11422
�4��������	-11423
175,154����	-11424
1�(��������	-11425
382,880����	-11426
397,250����	-11427
4,929������	-11428
513.89��)��	-11429
638,421����	-11430
747,000����	-11431
781,463����	-11432
854,000����	-11433
isturbances	-11434
nephrectomy	-11435
termination	-11436
▁(10,009��/	-11437
▁***-****),	-11438
▁0.7~1.7)��	-11439
▁03:40:31��	-11440
▁1,000��¥��	-11441
▁1,002�����	-11442
▁1,160,543,	-11443
▁1,300��)��	-11444
▁1,582.94��	-11445
▁1.����)[3]	-11446
▁10,000,000	-11447
▁10.�����ʹ�	-11448
▁100,000��,	-11449
▁100��)����	-11450
▁10��(����,	-11451
▁11��������	-11452
▁12��������	-11453
▁15,250,000	-11454
▁164,800��,	-11455
▁1910������	-11456
▁1923������	-11457
▁192��(����	-11458
▁1992������	-11459
▁1997������	-11460
▁1998������	-11461
▁1999������	-11462
▁2,504,171,	-11463
▁20,000,000	-11464
▁2000������	-11465
▁2001��3764	-11466
▁2002��3445	-11467
▁2002��6834	-11468
▁2002��7005	-11469
▁2002������	-11470
▁2003��1493	-11471
▁2003��2802	-11472
▁2003��9794	-11473
▁2003������	-11474
▁2004��(���	-11475
▁2004��2965	-11476
▁2004��4165	-11477
▁2004��4703	-11478
▁2004��5207	-11479
▁2004��6261	-11480
▁2004��6784	-11481
▁2004������	-11482
▁2005��1611	-11483
▁2005��2491	-11484
▁2005��3815	-11485
▁2005��5843	-11486
▁2005��6212	-11487
▁2005��6223	-11488
▁2005��8125	-11489
▁2006��1157	-11490
▁2006��3561	-11491
▁2006��5130	-11492
▁2006��5404	-11493
▁2006��5412	-11494
▁2006��7908	-11495
▁2006��8278	-11496
▁2006��9089	-11497
▁2007��1328	-11498
▁2007��1824	-11499
(+)	-11500
AGE	-11501
EPA	-11502
KOS	-11503
how	-11504
5999	-11505
7-15	-11506
Deck	-11507
ESCO	-11508
hold	-11509
▁CGV	-11510
▁MDO	-11511
▁�⸶�	-11512
▁�󰡴�	-11513
▁�󵵷�	-11514
�߾�,	-11515
��⸦	-11516
��ࡤ�	-11517
��󵵡�	-11518
3⁄4�,	-11519
47271	-11520
KOSPI	-11521
Manif	-11522
RUCAM	-11523
▁1895	-11524
▁2781	-11525
▁2~7%	-11526
▁�_��	-11527
����	-11528
37325,	-11529
▁1906)	-11530
▁7~25)	-11531
▁faith	-11532
▁���𺸰�	-11533
���4-1	-11534
1⁄4��޻�	-11535
▁41,934	-11536
�'����)	-11537
�԰��࿡��	-11538
�￵�����	-11539
2073027,	-11540
LANGUAGE	-11541
Manifest	-11542
▁90��851	-11543
▁91��540	-11544
2,364����	-11545
threshold	-11546
▁2008��547	-11547
▁2011��420	-11548
▁2017��225	-11549
▁91��35571	-11550
▁95��24364	-11551
▁��1997-15	-11552
▁2007��2173	-11553
▁2007��2718	-11554
▁2007��3377	-11555
▁2007��4440	-11556
▁2007��6024	-11557
▁2007��6560	-11558
▁2007��7074	-11559
▁2007��8403	-11560
▁2007��8914	-11561
▁2007����34	-11562
▁2007������	-11563
▁2008��1541	-11564
▁2008��1842	-11565
▁2008��3690	-11566
▁2008��4093	-11567
▁2008��4802	-11568
▁2008��6646	-11569
▁2008��7795	-11570
▁2008��9059	-11571
▁2008��9503	-11572
▁2008��9952	-11573
▁2009��1285	-11574
▁2009��1512	-11575
▁2009��2195	-11576
▁2009��2629	-11577
▁2009��3126	-11578
▁2009��3585	-11579
▁2009��3637	-11580
▁2009��3638	-11581
▁2009��4093	-11582
▁2009��5292	-11583
▁2009��5384	-11584
▁2009��5958	-11585
▁2009��6203	-11586
▁2009��6303	-11587
▁2009��6998	-11588
▁2009��7446	-11589
▁2009��7731	-11590
▁2009��807,	-11591
▁2009��8078	-11592
▁2009��8161	-11593
▁2009��8350	-11594
▁2009��8384	-11595
▁2009��8554	-11596
▁2009��9539	-11597
▁2010��1234	-11598
▁2010��130,	-11599
Proj	-11600
▁App	-11601
▁CBS	-11602
▁�񸮷�	-11603
▁�󰡷�	-11604
���	-11605
��񽺰�	-11606
23181	-11607
26183	-11608
46747	-11609
58471	-11610
Means	-11611
▁0.1%	-11612
▁97%,	-11613
▁Rose	-11614
▁�ʽ��	-11615
��׷¿�	-11616
���񡤰�	-11617
012,22	-11618
95486,	-11619
▁496).	-11620
▁51084	-11621
▁Order	-11622
▁�𵿸���	-11623
▁�񳭹���	-11624
▁�񿵾���	-11625
2006��)	-11626
7,827��	-11627
Project	-11628
ranties	-11629
▁1,928,	-11630
▁1.09��	-11631
▁2,396,	-11632
▁2091(�	-11633
▁288,37	-11634
▁���˳��	-11635
▁���⸶��	-11636
▁�����	-11637
▁�����	-11638
negative	-11639
▁09:09��	-11640
▁73.42%,	-11641
▁��22525	-11642
▁��22815	-11643
▁��24880	-11644
▁�񵿺�����	-11645
��򰡱�����	-11646
��򰡼�����	-11647
012,227��	-11648
5.17�����	-11649
9,846����	-11650
▁90��2147	-11651
▁92��1353	-11652
▁94��3421	-11653
▁94��826,	-11654
▁95��2551	-11655
▁98��2365	-11656
▁��671��)	-11657
▁91��44834	-11658
▁96��26183	-11659
▁97��39308	-11660
▁98��46747	-11661
▁99��58471	-11662
▁99��65097	-11663
▁��(��29��	-11664
▁��2005-18	-11665
▁��389��),	-11666
▁�������󸶵�	-11667
5��~2006��)	-11668
▁1,710��)��	-11669
▁2,981,843,	-11670
▁2000��4210	-11671
▁2006��1427	-11672
▁2007��4965	-11673
▁2009��3904	-11674
▁2009��4725	-11675
▁2009��4924	-11676
▁2010��2259	-11677
▁2010��2696	-11678
▁2010��2697	-11679
▁2010��3451	-11680
▁2010��3689	-11681
▁2010��3889	-11682
▁2010��6159	-11683
▁2010��6388	-11684
▁2010��9306	-11685
▁2010��9597	-11686
▁2011��1139	-11687
▁2011��1279	-11688
▁2011��1736	-11689
▁2011��1857	-11690
▁2011��2992	-11691
▁2011��2997	-11692
▁2011��3930	-11693
▁2011��5455	-11694
▁2011��8861	-11695
▁2011��9814	-11696
▁2012��2835	-11697
▁2013��1886	-11698
▁2013��2529	-11699
Crund	-11700
doctr	-11701
facet	-11702
▁010-	-11703
▁26�←	-11704
▁70~9	-11705
▁�˿��	-11706
▁�⹰��	-11707
114712	-11708
Unjust	-11709
echely	-11710
fusion	-11711
utmost	-11712
▁0.5)�	-11713
▁4288�	-11714
▁69816	-11715
▁98.4%	-11716
▁Build	-11717
▁�󵿼���	-11718
��1244	-11719
����^�	-11720
��񽺡���	-11721
2002916	-11722
2027942	-11723
840��)�	-11724
Operate	-11725
▁0.05%~	-11726
▁124245	-11727
▁160���	-11728
▁2~5���	-11729
▁720,23	-11730
▁723,91	-11731
��23474	-11732
Crundall	-11733
doctrine	-11734
▁112,600	-11735
▁219~233	-11736
▁23~24��	-11737
▁3,300��	-11738
▁47.5%��	-11739
▁50.5��,	-11740
▁620,000	-11741
▁Bechely	-11742
▁��(=�߽�	-11743
▁��2~3�鿡	-11744
▁�����׾�	-11745
▁���𷡡���	-11746
▁���񽺸���	-11747
����޻���	-11748
2,700����	-11749
▁1.63����	-11750
▁105/64��	-11751
▁130/80��	-11752
▁70~90%��	-11753
▁���߾��,	-11754
▁128������	-11755
▁37,532,17	-11756
▁479������	-11757
▁560,000��	-11758
▁93��23879	-11759
▁93��34091	-11760
▁94��22897	-11761
▁96��14036	-11762
▁confusion	-11763
▁����159��	-11764
▁0.05%~1.5%	-11765
▁2000��8331	-11766
▁2005��8269	-11767
▁2013��3109	-11768
▁2013��3984	-11769
▁2013��5376	-11770
▁2013��5654	-11771
▁2013��8637	-11772
▁2014��3873	-11773
▁2015����35	-11774
▁2016��1455	-11775
▁2016��831,	-11776
▁2018��5039	-11777
▁2018��8610	-11778
▁20~30%����	-11779
▁20��������	-11780
▁216,552,08	-11781
▁25.�����ʹ�	-11782
▁26,175����	-11783
▁283,200��,	-11784
▁285.5�����	-11785
▁286��(����	-11786
▁2����(����	-11787
▁3.��������	-11788
▁340��(����	-11789
▁45��)����,	-11790
▁5,494,918,	-11791
▁679,620,80	-11792
▁7.��������	-11793
▁91��23707,	-11794
▁92,000����	-11795
▁92��48918,	-11796
▁947��(����	-11797
▁97��54604,	-11798
▁98.4%��(��	-11799
Simple	-11800
▁03:42	-11801
▁3.3%,	-11802
▁79,85	-11803
▁House	-11804
▁focal	-11805
▁oment	-11806
▁wound	-11807
▁����	-11808
▁���𵿸�	-11809
▁���񷦿�	-11810
▁���󡸺�	-11811
▁���󳻿�	-11812
▁�񽺵���	-11813
3,706��	-11814
3��1481	-11815
▁2/9)��	-11816
▁2023��	-11817
▁71,737	-11818
▁Woodar	-11819
�񡤰�����	-11820
�󿵰�����	-11821
6,269,79	-11822
6��13128	-11823
▁00:46��	-11824
▁05:18��	-11825
▁08:37��	-11826
▁11:21��	-11827
▁268,224	-11828
▁272��),	-11829
▁3,643��	-11830
▁5,400��	-11831
▁56,465,	-11832
▁dealing	-11833
▁omentum	-11834
▁����÷��	-11835
▁���󡤸���	-11836
142,388��	-11837
276,950��	-11838
▁0.133%��	-11839
▁137,750,	-11840
▁91��2762	-11841
▁��2-3��,	-11842
▁��235��)	-11843
▁��578��,	-11844
▁�����׺��	-11845
�(��3��),	-11846
drowsiness	-11847
▁1,070����	-11848
▁1,489,113	-11849
▁10~12����	-11850
▁92��25885	-11851
▁93��37342	-11852
▁94��32986	-11853
▁94��39567	-11854
▁95��37278	-11855
▁95��48025	-11856
▁96��41991	-11857
▁96��48527	-11858
▁97��25477	-11859
▁97��27022	-11860
▁98��15934	-11861
▁98��52513	-11862
▁Insurance	-11863
▁�����԰��࿡	-11864
��3�������	-11865
▁03:42:45��	-11866
▁2001��6947	-11867
▁2010��7577	-11868
▁98��27623,	-11869
▁98��51077,	-11870
▁99��17401,	-11871
▁99����754,	-11872
▁Deficiency	-11873
▁Enrichment	-11874
▁Investment	-11875
▁hemiplegia	-11876
▁potentials	-11877
▁�°�������,	-11878
▁�˹���(����	-11879
▁�˻�������,	-11880
▁�޸�������,	-11881
▁�޾��޿�����	-11882
▁�߻�����[2]	-11883
▁�߼����ʹ�(�	-11884
▁�߾��������	-11885
▁��(������)	-11886
▁��10����3,	-11887
▁��1116����	-11888
▁��14��(���	-11889
▁��14������	-11890
▁��16������	-11891
▁��2004-204	-11892
▁��2��).[3]	-11893
▁��3��(����	-11894
▁��3�����׼�	-11895
▁��496����,	-11896
▁��53������	-11897
▁��6�׿�����	-11898
▁��7��(����	-11899
▁�𸣳�,	-11900
1,500�	-11901
2,409,	-11902
▁27495	-11903
▁3,682	-11904
▁30472	-11905
▁422��	-11906
▁52-20	-11907
▁91376	-11908
▁92329	-11909
▁GOPöå	-11910
▁�˳���	-11911
��2080	-11912
�����	-11913
�����	-11914
▁40474,	-11915
▁[1922]	-11916
▁[1982]	-11917
▁�����	-11918
▁��7428	-11919
▁��9848	-11920
▁�����	-11921
2,867��,	-11922
Forslind	-11923
▁00:03��	-11924
▁125,424	-11925
▁19:54��	-11926
▁20.7%��	-11927
▁23:43��	-11928
▁3,806,5	-11929
▁6110-20	-11930
▁73%����	-11931
▁9,410��	-11932
▁Nitrate	-11933
▁���󡯶���	-11934
�(153,08	-11935
��157)��	-11936
��񽺻�����	-11937
▁1,543,45	-11938
▁141,500�	-11939
▁192,409,	-11940
▁2.78����	-11941
▁2418��),	-11942
▁301,238,	-11943
▁657,677,	-11944
▁���౳����	-11945
▁�������	-11946
�(��9��).	-11947
���𺴿�����	-11948
▁14,153,15	-11949
▁1953����,	-11950
▁1980�����	-11951
▁2008��281	-11952
▁29.74����	-11953
▁4��)�����	-11954
▁554.8����	-11955
▁77��1894,	-11956
▁92��49454	-11957
▁93��16222	-11958
▁93��39676	-11959
▁93��40454	-11960
▁94��53419	-11961
▁99��48801	-11962
▁��2000-56	-11963
▁�����򽺡���	-11964
▁���򽺷�����	-11965
▁�󡤰�������	-11966
���׿������	-11967
����(��65)	-11968
,808,049���	-11969
▁2003��7484	-11970
▁6110-2022,	-11971
▁��80������	-11972
▁��94������	-11973
▁���)������	-11974
▁���԰������	-11975
▁���׸������	-11976
▁���׿���[3]	-11977
▁���޹���[3]	-11978
▁���޹������	-11979
▁���޺������	-11980
▁���޻��¿���	-11981
▁���߿����׿�	-11982
▁���߿������	-11983
▁���ࡤ������	-11984
▁���������	-11985
▁���￰������	-11986
▁����(1993.	-11987
▁����(1998.	-11988
▁����(2002.	-11989
▁����(2010.	-11990
▁����(��1��	-11991
▁����(��3��	-11992
▁����.1����	-11993
▁����.����,	-11994
▁�����ʿ���,	-11995
▁�����࡯����	-11996
▁�����ࡱ����	-11997
▁�����࿵����	-11998
▁���������	-11999
▁princ	-12000
��1301	-12001
0,016��	-12002
Hemovac	-12003
▁10:32�	-12004
▁115715	-12005
▁17:00�	-12006
▁1981�⿡	-12007
▁2003�⵵	-12008
▁22:20�	-12009
▁580��,	-12010
▁breach	-12011
▁�޿1⁄2�	-12012
▁��5641	-12013
(29.74��	-12014
(�׼�����	-12015
Transfer	-12016
▁14,400�	-12017
▁21.02��	-12018
▁467��),	-12019
▁74��847	-12020
▁84,080�	-12021
▁��10924	-12022
▁��16867	-12023
�[��(��)	-12024
2,031��(=	-12025
31.01��),	-12026
492,419��	-12027
▁169.5��,	-12028
▁216�����	-12029
▁307,118,	-12030
▁37.5����	-12031
▁71��2193	-12032
▁75��1543	-12033
▁80~100),	-12034
▁94��2238	-12035
▁96��2151	-12036
▁96��9003	-12037
▁97��3121	-12038
▁98��7209	-12039
▁possible	-12040
▁��536��,	-12041
▁��647208	-12042
▁��730401	-12043
▁��742��,	-12044
��13013��	-12045
▁1,516,717	-12046
▁1.57~2.10	-12047
▁6��5.5��4	-12048
▁93��45831	-12049
▁94��16328	-12050
▁94��25339	-12051
▁96��24668	-12052
▁96��27889	-12053
▁98��39923	-12054
▁9��[��2��	-12055
▁principle	-12056
▁��287��),	-12057
▁��384��).	-12058
▁��668��).	-12059
�(��902��)	-12060
�����667��	-12061
054,263����	-12062
602,372����	-12063
77,400����,	-12064
repudiation	-12065
▁2006��8543	-12066
▁2009��2545	-12067
▁2017��5191	-12068
▁238��(����	-12069
▁������(=��	-12070
▁������(��)	-12071
▁������)[2]	-12072
▁������¡���	-12073
▁�������࡯��	-12074
▁�������࿬��	-12075
▁���������	-12076
▁���������	-12077
▁��������),	-12078
▁���������˵	-12079
▁���������⸦	-12080
▁�������𺴿��	-12081
▁�������񱫻�,	-12082
����������	-12083
�(=��������	-12084
�(������)��	-12085
�(���������	-12086
�7���������	-12087
�����(����	-12088
��(��11��),	-12089
��๰��������	-12090
���(��)(���	-12091
���)������,	-12092
���鿪������,	-12093
����������	-12094
����((1989.	-12095
����(������	-12096
�����(1938.	-12097
�����(1990.	-12098
�����(1997.	-12099
▁��7052	-12100
▁��7217	-12101
▁142��),	-12102
▁1960~19	-12103
▁2025117	-12104
▁28.64%,	-12105
▁767-200	-12106
▁83,977,	-12107
▁deficit	-12108
593��[15,	-12109
segmental	-12110
▁1,255,30	-12111
▁105.5��,	-12112
▁240-13),	-12113
▁526,315,	-12114
▁727,570,	-12115
▁72��2583	-12116
▁75��1100	-12117
▁79��1476	-12118
▁82%(����	-12119
▁82��1219	-12120
▁859����,	-12121
▁94��3052	-12122
▁94��6819	-12123
▁96��1397	-12124
▁96��5001	-12125
▁96����58	-12126
▁98��3818	-12127
▁Clendenn	-12128
,806,005��	-12129
2,499��)��	-12130
▁352,812,0	-12131
▁508(����)	-12132
▁91��28719	-12133
▁91��40498	-12134
▁92��19101	-12135
▁92��24325	-12136
▁92��28228	-12137
▁92��46226	-12138
▁95��34385	-12139
▁96��14807	-12140
▁96��16605	-12141
▁97��28391	-12142
▁99��10004	-12143
▁99��31667	-12144
▁99��45413	-12145
1,155������	-12146
425,635����	-12147
▁11,240,910	-12148
▁2,440,136,	-12149
▁2000��4424	-12150
▁2000��7028	-12151
▁2003��7859	-12152
▁2006��3049	-12153
▁2007��2145	-12154
▁2008��3108	-12155
▁2011��4039	-12156
▁612��)����	-12157
▁96��30465,	-12158
�����(2003.	-12159
�����(2004.	-12160
�����(2010.	-12161
�����(=����	-12162
�����(�����	-12163
�����-�����	-12164
�����425��,	-12165
������)����	-12166
������7����	-12167
������࿡����	-12168
�������)[3]	-12169
����������	-12170
��������򰡹��	-12171
(��46����2),	-12172
(������)����	-12173
,000(�����򰡼�	-12174
047,557��)��	-12175
17,120,062��	-12176
4,314,032���	-12177
86,000������	-12178
▁-71.51%����	-12179
▁00:03������	-12180
▁00:10������	-12181
▁00:13������	-12182
▁00:53������	-12183
▁03:00������	-12184
▁03:35������	-12185
▁03:40������	-12186
▁05:20������	-12187
▁07:10������	-12188
▁1,000������	-12189
▁1,100������	-12190
▁1,300������	-12191
▁1,354������	-12192
▁12����)����	-12193
▁152,687����	-12194
▁16,812,908,	-12195
▁16.��������	-12196
▁16:09������	-12197
▁18:00������	-12198
▁18:30������	-12199
▁16,714,	-12200
▁1947���	-12201
▁21~29),	-12202
▁2428��)	-12203
▁3,340��	-12204
▁Welding	-12205
��291)��	-12206
629,496��	-12207
▁5.4%(26%	-12208
▁753,509,	-12209
▁80��2315	-12210
▁��429��,	-12211
ticipatory	-12212
▁1113�����	-12213
▁122������	-12214
▁17.6%����	-12215
▁2,598,270	-12216
▁2005��115	-12217
▁2015��770	-12218
▁465,300��	-12219
▁72,985,08	-12220
▁88.573%��	-12221
▁92��17297	-12222
▁94��40734	-12223
▁94����260	-12224
▁95��33450	-12225
▁96,056��,	-12226
▁96��53413	-12227
▁97��44737	-12228
▁98��25061	-12229
▁98��44956	-12230
▁99��25136	-12231
▁Detection	-12232
▁��288��),	-12233
▁��92����2	-12234
�(��23��),	-12235
����(2001.	-12236
�����671��	-12237
(2002����35	-12238
2,066������	-12239
3��~1995��)	-12240
▁1/1000����	-12241
▁177,496,78	-12242
▁2003��8489	-12243
▁2003��8503	-12244
▁2004��2342	-12245
▁2004��5846	-12246
▁2007��4288	-12247
▁2008��2104	-12248
▁2008��3435	-12249
▁2013��1510	-12250
▁2013��2955	-12251
▁2016��7010	-12252
▁��112����3	-12253
▁��174��)��	-12254
▁��2002-137	-12255
70,940������	-12256
▁13.54������	-12257
▁19:00������	-12258
▁19:10������	-12259
▁19:50������	-12260
▁1����(����,	-12261
▁2,396,094��	-12262
▁200,132,950	-12263
▁2000��10208	-12264
▁2000��22607	-12265
▁2000��24856	-12266
▁2000��33607	-12267
▁2000��37265	-12268
▁2000��39629	-12269
▁2000��4517,	-12270
▁2000��51650	-12271
▁2000��57856	-12272
▁2000��62322	-12273
▁2000��63752	-12274
▁2000��67020	-12275
▁2000��68474	-12276
▁2000��8324,	-12277
▁2000�����ʹ�	-12278
▁2000������,	-12279
▁2001��11802	-12280
▁2001��27449	-12281
▁2001��27777	-12282
▁2001��28619	-12283
▁2001��33253	-12284
▁2001��33918	-12285
▁2001��36511	-12286
▁2001��38470	-12287
▁2001��44338	-12288
▁2001��52506	-12289
▁2001��53059	-12290
▁2001��59842	-12291
▁2001��65977	-12292
▁2001��72678	-12293
▁2001��73107	-12294
▁2001�����ʹ�	-12295
▁2002��32301	-12296
▁2002��32679	-12297
▁2002��33069	-12298
▁2002��34581	-12299
▁��10690	-12300
▁1,756,30	-12301
▁17,403,2	-12302
▁84��2953	-12303
▁881,625�	-12304
▁98��2631	-12305
▁98��3757	-12306
▁Premises	-12307
���(37��)	-12308
(13.83��),	-12309
3����31013	-12310
5��102717,	-12311
Electronic	-12312
injunctive	-12313
▁2,975����	-12314
▁651,603,7	-12315
▁91��36628	-12316
▁91��37522	-12317
▁92��32821	-12318
▁93��21521	-12319
▁93��24735	-12320
▁93��27604	-12321
▁93��41938	-12322
▁94��13046	-12323
▁94��28437	-12324
▁94��29928	-12325
▁96��11440	-12326
▁96��20093	-12327
▁97��19038	-12328
▁97��36613	-12329
▁98��35730	-12330
▁98��60590	-12331
▁Financing	-12332
▁��279��),	-12333
,000��(��1�	-12334
▁2004��6917	-12335
▁2009��1149	-12336
▁2011��2769	-12337
▁2012��4904	-12338
▁2015��5075	-12339
▁3,267,273,	-12340
▁��1116(2)(	-12341
▁����(��73,	-12342
▁2001��47733	-12343
▁2002��35850	-12344
▁2002��38927	-12345
▁2002��41794	-12346
▁2002��45284	-12347
▁2002��46515	-12348
▁2002��53995	-12349
▁2002��56116	-12350
▁2002��60610	-12351
▁2002��63558	-12352
▁2002��65073	-12353
▁2002��68485	-12354
▁2002��70044	-12355
▁2003��10763	-12356
▁2003��12899	-12357
▁2003��15501	-12358
▁2003��16771	-12359
▁2003��18685	-12360
▁2003��24390	-12361
▁2003��24499	-12362
▁2003��27054	-12363
▁2003��29661	-12364
▁2003��33875	-12365
▁2003��34038	-12366
▁2003��34045	-12367
▁2003��41746	-12368
▁2003��49009	-12369
▁2003��51057	-12370
▁2003��52142	-12371
▁2003��54599	-12372
▁2003��60778	-12373
▁2003��66691	-12374
▁2003��67755	-12375
▁2003����660	-12376
▁2003����670	-12377
▁2004��13533	-12378
▁2004��20326	-12379
▁2004��20807	-12380
▁2004��25934	-12381
▁2004��26256	-12382
▁2004��27150	-12383
▁2004��37294	-12384
▁2004��39238	-12385
▁2004��39511	-12386
▁2004��48508	-12387
▁2004��48829	-12388
▁2004��50747	-12389
▁2004��51887	-12390
▁2004��55162	-12391
▁2004��60447	-12392
▁2004��64067	-12393
▁2004��66911	-12394
▁2004����246	-12395
▁2005��19378	-12396
▁2005��23858	-12397
▁2005��25632	-12398
▁2005��26606	-12399
▁99��8377	-12400
▁��2007-3	-12401
▁��741��,	-12402
595,404���	-12403
885,804��,	-12404
▁331������	-12405
▁93��13810	-12406
▁93��23367	-12407
▁93��60144	-12408
▁94��17253	-12409
▁96��37268	-12410
▁96��42420	-12411
▁97��15104	-12412
▁97��23150	-12413
▁97��26043	-12414
▁97��36507	-12415
▁99��57126	-12416
▁1,117,366,	-12417
▁2003��7616	-12418
▁2005��1705	-12419
▁2006��4177	-12420
▁2008��5805	-12421
▁2009��4116	-12422
▁2010��9320	-12423
▁2011��7576	-12424
▁2012��1078	-12425
▁2013��5441	-12426
▁412.19����	-12427
▁7.296(����	-12428
▁79,527����	-12429
▁��789����3	-12430
�(��209��).	-12431
▁11:36������	-12432
▁2000��47316	-12433
▁2001��10455	-12434
▁2001��52889	-12435
▁2002��29138	-12436
▁2003��13307	-12437
▁2003��40293	-12438
▁2003��49542	-12439
▁2003��64602	-12440
▁2004��11162	-12441
▁2004��19012	-12442
▁2004��24557	-12443
▁2004��34929	-12444
▁2004��59959	-12445
▁2004��89785	-12446
▁2005��15700	-12447
▁2005��23445	-12448
▁2005��31439	-12449
▁2005��32809	-12450
▁2005��35226	-12451
▁2005��38492	-12452
▁2005��44114	-12453
▁2005��55312	-12454
▁2005��55411	-12455
▁2005��57707	-12456
▁2005��5812,	-12457
▁2005��64552	-12458
▁2005��65579	-12459
▁2005��65678	-12460
▁2005��68532	-12461
▁2005��69245	-12462
▁2005��70597	-12463
▁2005��72058	-12464
▁2005��74902	-12465
▁2005��75002	-12466
▁2005��77091	-12467
▁2005��77848	-12468
▁2005��85834	-12469
▁2006��1183,	-12470
▁2006��12129	-12471
▁2006��15474	-12472
▁2006��16550	-12473
▁2006��16765	-12474
▁2006��17409	-12475
▁2006��18015	-12476
▁2006��19054	-12477
▁2006��20580	-12478
▁2006��25066	-12479
▁2006��28775	-12480
▁2006��30730	-12481
▁2006��35223	-12482
▁2006��37892	-12483
▁2006��39935	-12484
▁2006��40430	-12485
▁2006��41471	-12486
▁2006��46346	-12487
▁2006��50338	-12488
▁2006��60908	-12489
▁2006��64573	-12490
▁2006��70189	-12491
▁2006��72093	-12492
▁2006��72765	-12493
▁2006��73218	-12494
▁2006��7587,	-12495
▁2006��78336	-12496
▁2006��81981	-12497
▁2006��84126	-12498
▁2006��87158	-12499
▁��231��,	-12500
�(��814��	-12501
▁2007��555	-12502
▁4.72%����	-12503
▁90��11776	-12504
▁92��26673	-12505
▁92��43586	-12506
▁93��62645	-12507
▁Singapore	-12508
▁��464��),	-12509
▁��464��],	-12510
)2012��568,	-12511
▁10��[��1��	-12512
▁2006��8334	-12513
▁2008��7213	-12514
▁2008��7257	-12515
▁2011��8463	-12516
▁2014��4088	-12517
▁2015��4108	-12518
▁2016��1303	-12519
▁2017��1006	-12520
▁320,303,58	-12521
▁554��)����	-12522
▁94��34692,	-12523
▁Normalized	-12524
▁convulsion	-12525
▁���񡤰����ʿ�	-12526
▁05:40~08:30	-12527
▁13:00~16:40	-12528
▁13:40������	-12529
▁2000��20731	-12530
▁2000��41349	-12531
▁2002��12659	-12532
▁2002��49071	-12533
▁2006��3742,	-12534
▁2006��42610	-12535
▁2006��87798	-12536
▁2006��87903	-12537
▁2006��92129	-12538
▁2006��94637	-12539
▁2006��95159	-12540
▁2006��96589	-12541
▁2007��10139	-12542
▁2007��10245	-12543
▁2007��13455	-12544
▁2007��16007	-12545
▁2007��16627	-12546
▁2007��18102	-12547
▁2007��25157	-12548
▁2007��27566	-12549
▁2007��31990	-12550
▁2007��34654	-12551
▁2007��36445	-12552
▁2007��40031	-12553
▁2007��42433	-12554
▁2007��44774	-12555
▁2007��51239	-12556
▁2007��53442	-12557
▁2007��53785	-12558
▁2007��54421	-12559
▁2007��5511,	-12560
▁2007��55477	-12561
▁2007��57949	-12562
▁2007��58339	-12563
▁2007��60080	-12564
▁2007��62505	-12565
▁2007��64600	-12566
▁2007��66088	-12567
▁2007��66769	-12568
▁2007��70445	-12569
▁2007��72665	-12570
▁2007��77149	-12571
▁2007��8205,	-12572
▁2007��83427	-12573
▁2007��83908	-12574
▁2007��85890	-12575
▁2007��88644	-12576
▁2007��90982	-12577
▁2008��10349	-12578
▁2008��10592	-12579
▁2008��10814	-12580
▁2008��11784	-12581
▁2008��12491	-12582
▁2008��12507	-12583
▁2008��13101	-12584
▁2008��15216	-12585
▁2008��15865	-12586
▁2008��16396	-12587
▁2008��17050	-12588
▁2008��17146	-12589
▁2008��17762	-12590
▁2008��17793	-12591
▁2008��18598	-12592
▁2008��18925	-12593
▁2008��20065	-12594
▁2008��20109	-12595
▁2008��20751	-12596
▁2008��20768	-12597
▁2008��20901	-12598
▁2008��21518	-12599
▁95��11436	-12600
▁95��11689	-12601
▁95��28410	-12602
▁95��38677	-12603
▁96��42789	-12604
▁98��31868	-12605
▁99��41749	-12606
▁��1366��,	-12607
�÷����׽���	-12608
=10��(����,	-12609
Lamborghini	-12610
▁20,075,580	-12611
▁2004��8508	-12612
▁2005��4002	-12613
▁2012��4141	-12614
▁2014��4476	-12615
▁786.1�����	-12616
▁98.8%(����	-12617
▁hemorrhage	-12618
▁vegetative	-12619
[=10��(����,	-12620
▁07:30~13:30	-12621
▁08:50������	-12622
▁2001��22840	-12623
▁2001��37613	-12624
▁2002��41633	-12625
▁2002��49040	-12626
▁2003��39927	-12627
▁2004��10749	-12628
▁2004��10909	-12629
▁2004��19524	-12630
▁2004��22100	-12631
▁2004��47734	-12632
▁2004��68519	-12633
▁2005��31828	-12634
▁2006��24872	-12635
▁2006��25745	-12636
▁2006��30440	-12637
▁2006��53214	-12638
▁2006��64863	-12639
▁2007��33803	-12640
▁2007��80079	-12641
▁2008��21980	-12642
▁2008��22030	-12643
▁2008��25299	-12644
▁2008��26577	-12645
▁2008��27721	-12646
▁2008��30399	-12647
▁2008��30699	-12648
▁2008��30712	-12649
▁2008��33599	-12650
▁2008��35762	-12651
▁2008��35779	-12652
▁2008��35943	-12653
▁2008��38157	-12654
▁2008��38325	-12655
▁2008��39939	-12656
▁2008��44542	-12657
▁2008��44568	-12658
▁2008��46021	-12659
▁2008��49129	-12660
▁2008��5119,	-12661
▁2008��6373,	-12662
▁2008��65541	-12663
▁2008��74156	-12664
▁2008��74613	-12665
▁2008��74963	-12666
▁2008��82582	-12667
▁2008��83761	-12668
▁2008��87556	-12669
▁2008��91878	-12670
▁2008��92329	-12671
▁2008��92336	-12672
▁2008��9358,	-12673
▁2008��94990	-12674
▁2008��97708	-12675
▁2008��99384	-12676
▁2008��99933	-12677
▁2009��10140	-12678
▁2009��10249	-12679
▁2009��10669	-12680
▁2009��10959	-12681
▁2009��11020	-12682
▁2009��11607	-12683
▁2009��12971	-12684
▁2009��13172	-12685
▁2009��13347	-12686
▁2009��13474	-12687
▁2009��14267	-12688
▁2009��14340	-12689
▁2009��16247	-12690
▁2009��16337	-12691
▁2009��17417	-12692
▁2009��17976	-12693
▁2009��18900	-12694
▁2009��19888	-12695
▁2009��20338	-12696
▁2009��2075,	-12697
▁2009��21043	-12698
▁2009��22053	-12699
▁warranties	-12700
���4-1�����	-12701
▁1,260,065,9	-12702
▁2009��22266	-12703
▁2009��22463	-12704
▁2009��23282	-12705
▁2009��24479	-12706
▁2009��24842	-12707
▁2009��26048	-12708
▁2009��26823	-12709
▁2009��27973	-12710
▁2009��28150	-12711
▁2009��30762	-12712
▁2009��31156	-12713
▁2009��31323	-12714
▁2009��32135	-12715
▁2009��32409	-12716
▁2009��33596	-12717
▁2009��34405	-12718
▁2009��3509,	-12719
▁2009��35318	-12720
▁2009��36588	-12721
▁2009��37830	-12722
▁2009��38438	-12723
▁2009��38544	-12724
▁2009��42185	-12725
▁2009��42446	-12726
▁2009��42666	-12727
▁2009��44563	-12728
▁2009��45230	-12729
▁2009��47052	-12730
▁2009��48932	-12731
▁2009��50751	-12732
▁2009��51288	-12733
▁2009��51684	-12734
▁2009��52571	-12735
▁2009��52757	-12736
▁2009��55077	-12737
▁2009��56957	-12738
▁2009��57134	-12739
▁2009��58144	-12740
▁2009��58234	-12741
▁2009��63412	-12742
▁2009��63924	-12743
▁2009��64651	-12744
▁2009��64925	-12745
▁2009��65012	-12746
▁2009��65340	-12747
▁2009��65678	-12748
▁2009��6584,	-12749
▁2009��65973	-12750
▁2009��69595	-12751
▁2009��7212,	-12752
▁2009��72645	-12753
▁2009��73011	-12754
▁2009��75088	-12755
▁2009��75574	-12756
▁2009��76876	-12757
▁2009��77541	-12758
▁2009��77848	-12759
▁2009��79729	-12760
▁2009��80026	-12761
▁2009��80637	-12762
▁2009��81304	-12763
▁2009��82215	-12764
▁2009��82831	-12765
▁2009��84431	-12766
▁2009��85122	-12767
▁2009��87777	-12768
▁2009��87876	-12769
▁2009��89698	-12770
▁2009��91387	-12771
▁2009��92142	-12772
▁2009��92861	-12773
▁2009��94515	-12774
▁2009��96474	-12775
▁2009��96984	-12776
▁2009��97750	-12777
▁2009��98652	-12778
▁2009��98706	-12779
▁2010��13151	-12780
▁2010��14478	-12781
▁2010��15532	-12782
▁2010��15983	-12783
▁2010��16542	-12784
▁2010��17169	-12785
▁2010��18355	-12786
▁2010��2238,	-12787
▁2010��25933	-12788
▁2010��25959	-12789
▁2010��27229	-12790
▁2010��2774,	-12791
▁2010��28569	-12792
▁2010��28840	-12793
▁2010��29012	-12794
▁2010��29453	-12795
▁2010��30782	-12796
▁2010��32360	-12797
▁2010��34892	-12798
▁2010��34984	-12799
▁2010��35541	-12800
▁2010��41159	-12801
▁2010��41647	-12802
▁2010��42241	-12803
▁2010��42532	-12804
▁2010��46123	-12805
▁2010��48561	-12806
▁2010��52126	-12807
▁2010��55318	-12808
▁2010��56427	-12809
▁2010��61528	-12810
▁2010��62413	-12811
▁2010��66691	-12812
▁2010��67890	-12813
▁2010��6900,	-12814
▁2010��69209	-12815
▁2010��69331	-12816
▁2010��77141	-12817
▁2010��77293	-12818
▁2010��77318	-12819
▁2010��78588	-12820
▁2010��78852	-12821
▁2010��79031	-12822
▁2010��88912	-12823
▁2010��89533	-12824
▁2010��90809	-12825
▁2010��92553	-12826
▁2010��95361	-12827
▁2010��95390	-12828
▁2010��95949	-12829
▁2010��97558	-12830
▁2010��97749	-12831
▁2010��99318	-12832
▁2010��99705	-12833
▁2011��10402	-12834
▁2011��11007	-12835
▁2011��13219	-12836
▁2011��14345	-12837
▁2011��15369	-12838
▁2011��16201	-12839
▁2011��17107	-12840
▁2011��1801,	-12841
▁2011��21563	-12842
▁2011��33858	-12843
▁2011��36932	-12844
▁2011��47635	-12845
▁2011��53289	-12846
▁2011��56509	-12847
▁2011��57869	-12848
▁2011��61457	-12849
▁2011��63017	-12850
▁2011��68357	-12851
▁2011��74949	-12852
▁2011��75999	-12853
▁2011��81482	-12854
▁2011��85552	-12855
▁2011��86782	-12856
▁2011��86845	-12857
▁2011��88254	-12858
▁2011��92123	-12859
▁2011����199	-12860
▁2012��10119	-12861
▁2012��10513	-12862
▁2012��11038	-12863
▁2012��12209	-12864
▁2012��16313	-12865
▁2012��19194	-12866
▁2012��19510	-12867
▁2012��21234	-12868
▁2012��24040	-12869
▁2012��24179	-12870
▁2012��24707	-12871
▁2012��25592	-12872
▁2012��27611	-12873
▁2012��38010	-12874
▁2012��40904	-12875
▁2012��42696	-12876
▁2012��55068	-12877
▁2012��56216	-12878
▁2012��56520	-12879
▁2012��62280	-12880
▁2012��65317	-12881
▁2012��75000	-12882
▁2012��75606	-12883
▁2012��7591,	-12884
▁2012��79295	-12885
▁2012��93628	-12886
▁2012��96955	-12887
▁2013��20619	-12888
▁2013��33609	-12889
▁2013��43361	-12890
▁2013��48397	-12891
▁2013��50855	-12892
▁2013��69431	-12893
▁2014��11888	-12894
▁2014��13148	-12895
▁2014��14375	-12896
▁2014��1614,	-12897
▁2014��17252	-12898
▁2014��2540,	-12899
▁2014��28121	-12900
▁2014��42110	-12901
▁2014��47787	-12902
▁2014��52673	-12903
▁2014��54489	-12904
▁2014��5805,	-12905
▁2014��60148	-12906
▁2015��11341	-12907
▁2015��14473	-12908
▁2015��3420,	-12909
▁2015��35699	-12910
▁2015��48754	-12911
▁2015��66600	-12912
▁2015��72834	-12913
▁2016��11665	-12914
▁2016��15531	-12915
▁2016��22326	-12916
▁2016��49525	-12917
▁2016��59140	-12918
▁2016��62667	-12919
▁2016��81989	-12920
▁2017��44138	-12921
▁2017��59466	-12922
▁2018��58323	-12923
▁2018��73102	-12924
▁207��������	-12925
▁21:35������	-12926
▁22:03������	-12927
▁22:08������	-12928
▁22:55������	-12929
▁23:10������	-12930
▁25.��������	-12931
▁29.��������	-12932
▁3,203,438��	-12933
▁3,483,977,4	-12934
▁3.���������	-12935
▁39,199,145.	-12936
▁451.89��)��	-12937
▁461,725����	-12938
▁499��(�����	-12939
▁4��)����1��	-12940
▁4����������	-12941
▁5,000������	-12942
▁5,076��/���	-12943
▁5,200������	-12944
▁50%(�������	-12945
▁523~525��).	-12946
▁6��)�������	-12947
▁7.35~7.45),	-12948
▁76��~99����	-12949
▁8��)�������	-12950
▁8����������	-12951
▁9,023,482��	-12952
▁935.17�����	-12953
▁Clendenning	-12954
▁Development	-12955
▁Integration	-12956
▁Petroexport	-12957
▁compression	-12958
▁decerebrate	-12959
▁hemiparesis	-12960
▁polyethylen	-12961
▁¡�������鿡��	-12962
▁�ʼ���������	-12963
▁�˻���������	-12964
▁�޼���������	-12965
▁��(��147��,	-12966
▁��(��66��8,	-12967
▁��103������	-12968
▁��105������	-12969
▁��109������	-12970
▁��10����7��	-12971
▁��126������	-12972
▁��135������	-12973
▁��13����4��	-12974
▁��149������	-12975
▁��174������	-12976
▁��185����5,	-12977
▁��191����13	-12978
▁��203������	-12979
▁��21����2).	-12980
▁��273������	-12981
▁��2��(����)	-12982
▁��31��(����	-12983
▁��391����2,	-12984
▁��393������	-12985
▁��3��(2005.	-12986
▁��403������	-12987
▁��423������	-12988
▁��447����3,	-12989
▁��496������	-12990
▁��4��������	-12991
▁��535������	-12992
▁��53����2��	-12993
▁��570������	-12994
▁��57��)����	-12995
▁��584������	-12996
▁��5��(��9��	-12997
▁��5��������	-12998
▁��756������	-12999
▁��794������	-13000
▁���1⁄4�����	-13001
▁���±�������	-13002
▁���¿�������	-13003
▁���޼���(���	-13004
▁���޾�������	-13005
▁���߾�������	-13006
▁���๰�����,	-13007
▁����(=2005.	-13008
▁����(=����)	-13009
▁����(=�����	-13010
▁����(׵��)��	-13011
▁����(����),	-13012
▁����).�׸���	-13013
▁����2������	-13014
▁����][[����	-13015
▁�����°�����	-13016
▁�����͹߻����	-13017
▁�����׸�����	-13018
▁�����޹�����	-13019
▁�������°���	-13020
▁�������¿���	-13021
▁�������˻���	-13022
▁�������԰���	-13023
▁�������޹���	-13024
▁�������⸻���	-13025
▁��������(=�	-13026
▁��������[3]	-13027
▁��������[4]	-13028
▁���������ʹ�	-13029
▁���������ʿ�	-13030
▁���������˷�	-13031
▁���������˿�	-13032
▁���������׼�	-13033
▁���������࡯)	-13034
▁���������󿡰�	-13035
▁�������𺴿���	-13036
▁�������񰡰���	-13037
▁�����򰡾�����	-13038
▁���𰡴�������	-13039
▁�񴢱���������	-13040
▁�򰡺���������	-13041
�(�����˻�)��	-13042
�߻����������	-13043
��(��17��)��	-13044
��(����)����	-13045
��)2009��236	-13046
��)2010��944	-13047
���(��������	-13048
���߻���(����	-13049
������·�����	-13050
�������3⁄4�,	-13051
���������(1,	-13052
���������5��	-13053
����򰡾�������	-13054
)������������	-13055
071,609,000��	-13056
3,969,050����	-13057
67,954,800���	-13058
intracerebral	-13059
▁1,261��(����	-13060
▁10,990,000��	-13061
▁105,000,000�	-13062
▁10��)�������	-13063
▁11.(������),	-13064
▁14,146,720��	-13065
▁1487��)����,	-13066
▁1489��)����,	-13067
▁15,250,000��	-13068
▁16��)�������	-13069
▁17,400,000��	-13070
▁18,812,908,1	-13071
▁1923��������	-13072
▁1950��������	-13073
▁1958��������	-13074
▁1960~1970���	-13075
▁1986��������	-13076
▁1989��������	-13077
▁1994��������	-13078
▁1998��������	-13079
▁1999��������	-13080
▁1��)��������	-13081
▁2,427��(����	-13082
▁20,552,955��	-13083
▁2000��29356,	-13084
▁2000��44928,	-13085
▁2002����2337	-13086
▁2003��18449,	-13087
▁2004��22094,	-13088
▁2004��27488,	-13089
▁2004��41651,	-13090
▁2004����4809	-13091
▁2005��60017,	-13092
▁2005����5739	-13093
▁2005����6317	-13094
▁2005��������	-13095
▁2006��37894,	-13096
▁2006��67602,	-13097
▁2006��������	-13098
▁2007��100867	-13099
▁2007��102467	-13100
▁2007��114712	-13101
▁2007��117551	-13102
▁2007��122775	-13103
▁2007��122881	-13104
▁2007��23397,	-13105
▁2007��29287,	-13106
▁2007��36933,	-13107
▁2007����3517	-13108
▁2007����5304	-13109
▁2008��102600	-13110
▁2008��106312	-13111
▁2008��108448	-13112
▁2008��110137	-13113
▁2008��111444	-13114
▁2008��112782	-13115
▁2008��115828	-13116
▁2008��118674	-13117
▁2008��119240	-13118
▁2008��13132,	-13119
▁2008��19898,	-13120
▁2008��37331,	-13121
▁2008��40136,	-13122
▁2008��40467,	-13123
▁2008��76060,	-13124
▁2008��92161,	-13125
▁2008����5079	-13126
▁2008��������	-13127
▁2009��101343	-13128
▁2009��102140	-13129
▁2009��102964	-13130
▁2009��103950	-13131
▁2009��105062	-13132
▁2009��105064	-13133
▁2009��105750	-13134
▁2009��106647	-13135
▁2009��110523	-13136
▁2009��112741	-13137
▁2009��115665	-13138
▁2009��118480	-13139
▁2009��118855	-13140
▁2009��121530	-13141
▁2009��16058,	-13142
▁2009��45221,	-13143
▁2009��59444,	-13144
▁2009��64613,	-13145
▁2009��68448,	-13146
▁2009��69809,	-13147
▁2009��77198,	-13148
▁2009��82046,	-13149
▁2009��84608,	-13150
▁200����(����	-13151
▁2010��102542	-13152
▁2010��103439	-13153
▁2010��109260	-13154
▁2010��111591	-13155
▁2010��114255	-13156
▁2010��116800	-13157
▁2010��12043,	-13158
▁2010��120434	-13159
▁2010��123181	-13160
▁2010��15363,	-13161
▁2010��36829,	-13162
▁2010��37325,	-13163
▁2010��55967,	-13164
▁2010��70520,	-13165
▁2010��75044,	-13166
▁2010��91345,	-13167
▁2010��91369,	-13168
▁2011��101980	-13169
▁2011��110692	-13170
▁2011��30666,	-13171
▁2011��38921,	-13172
▁2011��50080,	-13173
▁2011��59834,	-13174
▁2012��100205	-13175
▁2012��105484	-13176
▁2012��106296	-13177
▁2012��42666,	-13178
▁2012��43246,	-13179
▁2012��51485,	-13180
▁2012��95486,	-13181
▁2013��203529	-13182
▁2013��206429	-13183
▁2013��207323	-13184
▁2013��70363,	-13185
▁2013��80216,	-13186
▁2013��95360,	-13187
▁2014��107558	-13188
▁2014��300081	-13189
▁2015��230228	-13190
▁2016��201128	-13191
▁2016��242273	-13192
▁2016��248806	-13193
▁2016��265511	-13194
▁2017��72256,	-13195
▁2018��281883	-13196
▁21,075,692��	-13197
▁21.��)������	-13198
▁219~233��)��	-13199
▁22,000������	-13200
▁22,276,950��	-13201
▁22:00�����ʹ�	-13202
▁29,500,000��	-13203
▁3,120,000���	-13204
▁3,350,490��)	-13205
▁3,540,533���	-13206
▁30.����)����	-13207
▁39,983,800��	-13208
▁4,526��(����	-13209
▁416����(����	-13210
▁45,616,000��	-13211
▁46,123,780��	-13212
▁46,900,000��	-13213
▁49,629,496��	-13214
▁5,109��(����	-13215
▁5,117��(����	-13216
▁505-30������	-13217
▁51,045,000��	-13218
▁51.28��(����	-13219
▁51��/��(����	-13220
▁54,492,419��	-13221
▁54,772,686��	-13222
▁57,063,500��	-13223
▁7,090��(����	-13224
▁7,596,269,79	-13225
▁70,000������	-13226
▁80,677,613��	-13227
▁9,990��(����	-13228
▁Construction	-13229
▁anticipatory	-13230
▁disturbances	-13231
▁��(��919��),	-13232
▁��10��������	-13233
▁��15��������	-13234
▁��161����2��	-13235
▁��163����2),	-13236
▁��173����8��	-13237
▁��266����4��	-13238
▁��30��(2005.	-13239
▁��35��������	-13240
▁��382����3��	-13241
▁��447����3��	-13242
▁��55��)����,	-13243
▁��682��).[2]	-13244
▁��6��(������	-13245
▁��735-11����	-13246
▁��745-11����	-13247
▁���1�(������	-13248
▁���޾���(����	-13249
▁����(=�˻�)��	-13250
▁����(��1����	-13251
▁����(������,	-13252
▁����)�������	-13253
▁����.[������	-13254
▁����.��.����	-13255
▁�����������	-13256
▁������(1995.	-13257
▁������(1997.	-13258
▁������(��1��	-13259
▁������(��3��	-13260
▁������(��7��	-13261
▁������(����,	-13262
▁������)����.	-13263
▁������¡����(	-13264
▁�������°�)��	-13265
▁�������࿡����	-13266
▁�������⿵����	-13267
▁���������3��	-13268
�(2009��1939)	-13269
�(����������)	-13270
�(����������,	-13271
�.�׼���������	-13272
�.��(��14��)�	-13273
�߿�����������	-13274
��)2009��229,	-13275
��)2011��2626	-13276
��)2011��3469	-13277
��)2013��1481	-13278
��÷�������)��	-13279
���[(��������	-13280
����)��������	-13281
����¡��������	-13282
����°�������,	-13283
�����(=������	-13284
�����(�������	-13285
�������(1999.	-13286
�������(2016.	-13287
�������(���߿�	-13288
�������(�����	-13289
���������˰���	-13290
����������)��	-13291
����������⵵��	-13292
������������	-13293
(2002����35475	-13294
(���޺���������	-13295
cybersquatting	-13296
▁1(1964����)��	-13297
▁1,000,000����	-13298
▁1,479,846����	-13299
▁1,500,000����	-13300
▁1,513.89��)��	-13301
▁1,740,000����	-13302
▁1,756,307��(=	-13303
▁1,798,684����	-13304
▁1,928,291����	-13305
▁100,000,000��	-13306
▁106,610,834��	-13307
▁109,000������	-13308
▁11,289��(����	-13309
▁110,012,227��	-13310
▁111,178,354��	-13311
▁115,000,000��	-13312
▁126,500,000��	-13313
▁135,000,000��	-13314
▁150,000,000��	-13315
▁153,419,765��	-13316
▁2,000,000����	-13317
▁2,100,000����	-13318
▁2,632,770����	-13319
▁2,636,310����	-13320
▁2,663,047��(=	-13321
▁2.5��/��(����	-13322
▁2004����11165	-13323
▁2004����18539	-13324
▁2006����11422	-13325
▁2006����35268	-13326
▁2008����8637,	-13327
▁2008����94375	-13328
▁2009��103907,	-13329
▁2009��111014,	-13330
▁2010��111478,	-13331
▁2010��115708,	-13332
▁2010��124238,	-13333
▁2013��2010916	-13334
▁2013��2010930	-13335
▁2013��2014277	-13336
▁2013��2020746	-13337
▁2013����31013	-13338
▁2014��2010418	-13339
▁2014��2027942	-13340
▁2015��2047271	-13341
▁2015��2049789	-13342
▁2016��2002916	-13343
▁2016��2010955	-13344
▁2016��2016656	-13345
▁2016��2018485	-13346
▁2016��2087313	-13347
▁2017��2020010	-13348
▁2017��2076556	-13349
▁2017��225978,	-13350
▁2200.04-160-8	-13351
▁23,200,000��,	-13352
▁253,000,000��	-13353
▁253,400,000��	-13354
▁258,545,739��	-13355
▁2652-2653��).	-13356
▁3,000,000����	-13357
▁3,048,000��(=	-13358
▁3,105,000����	-13359
▁3,277,850����	-13360
▁3,350,490����	-13361
▁3,765,789����	-13362
▁30,000,000��,	-13363
▁397,225,863��	-13364
▁4,762,364����	-13365
▁4.(������)��,	-13366
▁41,524,298���	-13367
▁41,934,000���	-13368
▁475,097,827��	-13369
▁5,160,097����	-13370
▁5,943,500����	-13371
▁556,225,020��	-13372
▁57,600,000��,	-13373
▁591,956,347��	-13374
▁6,385,000����	-13375
▁6,578,144����	-13376
▁623,000,000��	-13377
▁7,000,000����	-13378
▁726,196,720��	-13379
▁729,196,720��	-13380
▁791,000,000��	-13381
▁80,500,000��,	-13382
▁882,000,000��	-13383
▁900,000������	-13384
▁912,533,325��	-13385
▁96,954,652��)	-13386
▁somatosensory	-13387
▁�߻�����������	-13388
▁��102��������	-13389
▁��10����4����	-13390
▁��366��(2009.	-13391
▁��6��(��56��,	-13392
▁��798��������	-13393
▁���׹���������	-13394
▁���߼�)�������	-13395
▁����(1955����	-13396
▁����(����)[6]	-13397
▁����.��������	-13398
▁����¡��������	-13399
▁�����˻�������	-13400
▁�����͸�������	-13401
▁�����߻�������	-13402
▁������(=�����	-13403
▁������)������	-13404
▁������[������	-13405
▁�������·�)]��	-13406
▁�������˻�����	-13407
▁�������׿�����	-13408
▁�������޹�����	-13409
▁��������(=���	-13410
▁��������(���⿡	-13411
▁�����������˴�	-13412
▁���������񹮾���	-13413
▁�������񽺾�����	-13414
▁�������󸲸�����	-13415
▁�򰡴�����������	-13416
▁�󼼾�����������	-13417
�(2008��1137),	-13418
�(����������),	-13419
���(18.305%)��	-13420
���(88.573%)��	-13421
���(����������	-13422
���-20%)��1.74	-13423
���10���������	-13424
�����(1����)��	-13425
�����(����)���	-13426
��������˻�����	-13427
������������˴�	-13428
(6/26-8/26)����	-13429
-20%)��1.74����	-13430
600��(105,962��	-13431
representations	-13432
▁0.03%(0.47%-0.	-13433
▁1,060.30������	-13434
▁1,862/4,526���	-13435
▁106,610,834���	-13436
▁10��27��������	-13437
▁11,517,125����	-13438
▁11,977,600����	-13439
▁117,494,740��,	-13440
▁127,300,000���	-13441
▁14,798,460����	-13442
▁16,862,510����	-13443
▁16,867,000����	-13444
▁17,403,225����	-13445
▁17,497,210��(=	-13446
▁17,706,569����	-13447
▁18,970,000����	-13448
▁19,262,031��(=	-13449
▁19,500,000����	-13450
▁19,888,000����	-13451
▁192,000,000��,	-13452
▁20,000,000����	-13453
▁200,000,000��,	-13454
▁2007����113422	-13455
▁2015��2073027,	-13456
▁2015����357612	-13457
▁2017����100148	-13458
▁21,075,692����	-13459
▁21,991,506����	-13460
▁23,677,100����	-13461
▁266,885,804��,	-13462
▁273,000,000��,	-13463
▁295,853,770��,	-13464
▁3.(������)����	-13465
▁3.24��(29.74��	-13466
▁32,294,000����	-13467
▁34,070,722����	-13468
▁34,550,044��(=	-13469
▁365,000,000��,	-13470
▁37,532,175����	-13471
▁397,225,863���	-13472
▁42,568,000����	-13473
▁438,808,049���	-13474
▁44,276,950����	-13475
▁44,976,520����	-13476
▁45,501,560����	-13477
▁45,616,000����	-13478
▁46,123,780����	-13479
▁466,172,867��,	-13480
▁47,382,880����	-13481
▁475,097,827��,	-13482
▁498,902,350��,	-13483
▁50,000,000����	-13484
▁52,349,110����	-13485
▁555,857,500���	-13486
▁56,465,113��(=	-13487
▁60,747,000����	-13488
▁603,110,235��,	-13489
▁635,000,000���	-13490
▁641,721,394��,	-13491
▁65,178,500����	-13492
▁657,677,959��,	-13493
▁69,073,465��(=	-13494
▁70,041,164����	-13495
▁71,737,000����	-13496
▁72,985,085��(=	-13497
▁720,230,685��,	-13498
▁723,912,070��,	-13499
▁756,756,756��,	-13500
▁76,800,000����	-13501
▁8,897,720����,	-13502
▁80,000,000����	-13503
▁83,093,286����	-13504
▁83,977,850����	-13505
▁84,056,460����	-13506
▁94,894,870����	-13507
▁96,954,652����	-13508
▁Transportation	-13509
▁�������������	-13510
▁��447����3����	-13511
▁��92,000������	-13512
▁���޺���(2002��	-13513
▁���ࡤ����������	-13514
▁����(31.01��),	-13515
▁����(��78)����	-13516
▁����(������)��	-13517
▁�����¡��������	-13518
▁�����÷���(����	-13519
▁�����˾���(����	-13520
▁�����޼��������	-13521
▁������(=������	-13522
▁������(��5��),	-13523
▁�������°������	-13524
▁�������޼������	-13525
▁�������߻������	-13526
▁��������(2003.	-13527
▁��������14����	-13528
▁�����������࿡��	-13529
꡼�����°�������,	-13530
�(154,142,388��	-13531
�(459,980,016��	-13532
�(��29��)������	-13533
�(����������)��	-13534
�7�������������	-13535
���(=������)[2]	-13536
���(��)('������	-13537
���(��)(�������	-13538
���(��)�������	-13539
�������(��13��)	-13540
���������(2003.	-13541
���������(2006.	-13542
������������)��	-13543
��������򰡹������	-13544
810,000��(1998��	-13545
▁(10,009��/��)��	-13546
▁(����)2008��56,	-13547
▁(����)2009��698	-13548
▁(����)2009��787	-13549
▁(����)2011��264	-13550
▁(����)2012��411	-13551
▁-34,917,757����	-13552
▁1,001.90������,	-13553
▁1,117,366,072��	-13554
▁1,500,000������	-13555
▁1,543,453,706��	-13556
▁1,774,967,831��	-13557
▁104,397,250����	-13558
▁104,714,350����	-13559
▁106,610,834����	-13560
▁10��27����(����	-13561
▁114,100,000����	-13562
▁119,244,000����	-13563
▁134,400,000����	-13564
▁14,146,720����,	-13565
▁14,972,000����,	-13566
▁141,000,000����	-13567
▁142,800,000����	-13568
▁151,806,000����	-13569
▁153,419,765����	-13570
▁154,854,000����	-13571
▁165,023,840��)�	-13572
▁166,764,765����	-13573
▁167,955,700��(=	-13574
▁169,781,463����	-13575
▁177,496,783����	-13576
▁2,000,000������	-13577
▁2,006,854,995��	-13578
▁2,415,806,005��	-13579
▁2,440,136,455��	-13580
▁200,000,000����	-13581
▁2000������(����	-13582
▁2009������(����	-13583
▁216,552,088��(=	-13584
▁235,000,000����	-13585
▁240,000,000����	-13586
▁241,850,000����	-13587
▁250,175,154����	-13588
▁258,545,739����	-13589
▁266,600,000����	-13590
▁278,329,040����	-13591
▁3,251,680,582��	-13592
▁3,483,977,400��	-13593
▁3,934,000,000��	-13594
▁300,000,000����	-13595
▁301,238,400����	-13596
▁307,118,600����	-13597
▁324,240,778��)�	-13598
▁337,802,328��(=	-13599
▁34,611,502�����	-13600
▁350,000,000����	-13601
▁352,812,039����	-13602
▁360,000,000����	-13603
▁397,225,863��(=	-13604
▁4,329,237,747��	-13605
▁4,599,516,000��	-13606
▁4,709,593��[15,	-13607
▁40.63��(81.26��	-13608
▁42,568,000��)��	-13609
▁453,719,360����	-13610
▁5,845,287,318��	-13611
▁526,315,789����	-13612
▁572,000,000����	-13613
▁591,956,347����	-13614
▁632,884,244����	-13615
▁651,603,768����	-13616
▁655,900,820����	-13617
▁679,620,803����	-13618
▁727,570,530����	-13619
▁753,509,858����	-13620
▁756,039,553����	-13621
▁800,000,000����	-13622
▁875,259,000����	-13623
▁876.33��/100���	-13624
▁9,621,018,454��	-13625
▁9,700,000,000��	-13626
▁912,533,325����	-13627
▁941,721,394����	-13628
▁��1,500,000����	-13629
▁��10��27������)	-13630
▁��2��],��2007�⵵	-13631
▁���߾�����������	-13632
▁����(=���������	-13633
▁����(��65)����,	-13634
▁����(����)(����	-13635
▁����/�������˱��	-13636
▁����¡����(2011.	-13637
▁�������÷�������	-13638
▁�������׿�������	-13639
▁��������[����(�	-13640
▁�����������׿���	-13641
▁������������(��	-13642
▁�������������⸻�	-13643
▁��������������)	-13644
▁��������������,	-13645
▁���������󸶡�����	-13646
▁�򰡺�������(��32,	-13647
�����(��101��)��	-13648
�������53����2��	-13649
�������°�������,	-13650
���������(2����)	-13651
���������(������	-13652
����������(2003.	-13653
����������(2010.	-13654
����������)�����	-13655
�����������(����	-13656
�����������4����	-13657
%-	-13658
(-	-13659
(3	-13660
(9	-13661
(˭	-13662
)2	-13663
,4	-13664
,7	-13665
-(	-13666
-5	-13667
-7	-13668
.0	-13669
.2	-13670
.3	-13671
.9	-13672
.[	-13673
/5	-13674
1߻	-13675
1⁄	-13676
2:	-13677
3(	-13678
3:	-13679
4;	-13680
4	-13681
5/	-13682
6%	-13683
6/	-13684
BI	-13685
BT	-13686
Be	-13687
CG	-13688
Ca	-13689
Co	-13690
ED	-13691
Fi	-13692
Fr	-13693
GY	-13694
HE	-13695
ID	-13696
In	-13697
Ir	-13698
LP	-13699
0]	-13700
MB	-13701
MO	-13702
OD	-13703
Pa	-13704
Pr	-13705
RA	-13706
RS	-13707
Ra	-13708
SR	-13709
Si	-13710
TC	-13711
Th	-13712
Wo	-13713
[2	-13714
[3	-13715
[7	-13716
[8	-13717
[=	-13718
]�	-13719
au	-13720
ba	-13721
co	-13722
cr	-13723
da	-13724
ds	-13725
ez	-13726
fo	-13727
ha	-13728
ix	-13729
ke	-13730
ll	-13731
mH	-13732
me	-13733
mp	-13734
mu	-13735
my	-13736
nf	-13737
ni	-13738
nj	-13739
nv	-13740
oh	-13741
op	-13742
pg	-13743
pl	-13744
pu	-13745
rp	-13746
rs	-13747
ru	-13748
sa	-13749
su	-13750
sy	-13751
ta	-13752
uc	-13753
va	-13754
vi	-13755
we	-13756
wo	-13757
ya	-13758
yt	-13759
zh	-13760
~�	-13761
±޿	-13762
±�	-13763
·ʹ	-13764
âƲ	-13765
ûŹ	-13766
ľǵ	-13767
ȨƮ	-13768
ɷȰ	-13769
ʾ	-13770
˭�	-13771
˵�	-13772
˼�	-13773
׵)	-13774
׷¿	-13775
׻�	-13776
شي	-13777
لى	-13778
ޡޱ	-13779
޶󡱴	-13780
޿1	-13781
࿡�	-13782
࿬�	-13783
᳻�	-13784
⿬�	-13785
鿩�	-13786
�	-13787
�	-13788
�	-13789
,	-13790
�	-13791
￰�	-13792
￴�	-13793
￵�	-13794
�;	-13795
�¥	-13796
�¶	-13797
�·	-13798
�»	-13799
,1	-13800
7/	-13801
CI	-13802
Ll	-13803
RL	-13804
WA	-13805
sh	-13806
ym	-13807
¥�	-13808
õȣ	-13809
▁t	-13810
▁°	-13811
�¿	-13812
�ʼ	-13813
�ʿ	-13814
�˵	-13815
�˿	-13816
�׶	-13817
�׷	-13818
�׺	-13819
�׿	-13820
�޹	-13821
�޻	-13822
�ࡤ	-13823
�ࡱ	-13824
�⸻	-13825
�⿹	-13826
�䷮	-13827
�	-13828
�	-13829
�	-13830
�	-13831
�	-13832
�	-13833
�	-13834
�	-13835
�	-13836
�	-13837
�	-13838
�	-13839
�￴	-13840
�𰡾	-13841
�𳪹	-13842
�𵨷	-13843
�𷫼	-13844
�𸷿	-13845
�𿡰	-13846
�񡯶	-13847
�񱳸	-13848
�񱸿	-13849
�񳭰	-13850
�񵿺	-13851
�񹮾	-13852
�񽺵	-13853
�񽺸	-13854
�񽺼	-13855
�񿵸	-13856
�񿵾	-13857
�򰡹	-13858
�򰡾	-13859
�򼺰	-13860
�󡸺	-13861
�󰡷	-13862
�󵵴	-13863
�󵵸	-13864
�󵵿	-13865
�󸰰	-13866
�󸶡	-13867
�󹰿	-13868
�󺸴	-13869
�󺹱	-13870
�󼳱	-13871
𰡾�	-13872
𸥴�	-13873
𺴿�	-13874
񰡿�	-13875
񱳡�	-13876
񱸿�	-13877
񳭰�	-13878
񴢱�	-13879
񵿺�	-13880
񺰷�	-13881
񽺡�	-13882
񽺱�	-13883
񽺼�	-13884
񽺾�	-13885
񿵸�	-13886
񿵾�	-13887
򰡡�	-13888
򰡶�	-13889
򰡾׸	-13890
򰡾�	-13891
򽺡�	-13892
򽺷�	-13893
󰡰�	-13894
󵿼�	-13895
󸲸�	-13896
󸲺�	-13897
󸶡�	-13898
󿬱�	-13899
(5	-13900
.�	-13901
3~	-13902
Ld	-13903
Re	-13904
pC	-13905
¡'	-13906
ٰ́	-13907
׹޾	-13908
׺�	-13909
رۇ	-13910
قم	-13911
�	-13912
�	-13913
�3	-13914
�4	-13915
�˱	-13916
�׻	-13917
�࿵	-13918
�񽺰	-13919
�󼼾	-13920
�󿩱	-13921
󿵰�	-13922
(1)	-13923
(�˴	-13924
,11	-13925
,21	-13926
,23	-13927
,45	-13928
,47	-13929
,54	-13930
,99	-13931
-8/	-13932
/��	-13933
0,5	-13934
0.4	-13935
0.7	-13936
0.8	-13937
0.9	-13938
003	-13939
00~	-13940
03%	-13941
040	-13942
046	-13943
05.	-13944
058	-13945
06.	-13946
061	-13947
09,	-13948
1.(	-13949
1.9	-13950
10%	-13951
10-	-13952
111	-13953
124	-13954
154	-13955
16.	-13956
184	-13957
19.	-13958
190	-13959
2,6	-13960
210	-13961
251	-13962
26.	-13963
29.	-13964
3),	-13965
3,6	-13966
30~	-13967
315	-13968
334	-13969
35%	-13970
389	-13971
3:2	-13972
40.	-13973
401	-13974
410	-13975
415	-13976
42]	-13977
43,	-13978
46,	-13979
478	-13980
5,0	-13981
5.�	-13982
51.	-13983
515	-13984
52.	-13985
527	-13986
53]	-13987
6.,	-13988
6.3	-13989
6.4	-13990
61.	-13991
610	-13992
61�	-13993
66.	-13994
661	-13995
67.	-13996
7.2	-13997
7.5	-13998
7.�	-13999
2;	-14000
ER	-14001
MD	-14002
WO	-14003
ns	-14004
pi	-14005
ue	-14006
ħŻ	-14007
ɵȴ	-14008
ʽ�	-14009
޶󡯰	-14010
࿵�	-14011
↓�	-14012
�8	-14013
�ʺ	-14014
�͸	-14015
�	-14016
�񱳡	-14017
�󵵵	-14018
�󵵷	-14019
�󿬱	-14020
𰡰�	-14021
󡤱�	-14022
0.5	-14023
33.	-14024
367	-14025
703	-14026
708	-14027
709	-14028
715	-14029
732	-14030
733	-14031
75.	-14032
750	-14033
760	-14034
767	-14035
77.	-14036
79.	-14037
7�⿡	-14038
8%,	-14039
8,4	-14040
8.5	-14041
8.6	-14042
825	-14043
837	-14044
863	-14045
877	-14046
883	-14047
885	-14048
89%	-14049
897	-14050
8�⿡	-14051
9,9	-14052
9.)	-14053
9.5	-14054
9.8	-14055
90,	-14056
915	-14057
92,	-14058
93.	-14059
930	-14060
945	-14061
95.	-14062
96)	-14063
96.	-14064
97.	-14065
98.	-14066
989	-14067
99.	-14068
:32	-14069
:36	-14070
;׿�	-14071
ERE	-14072
Feb	-14073
ILP	-14074
MCA	-14075
MPS	-14076
Res	-14077
act	-14078
ali	-14079
arm	-14080
arw	-14081
bar	-14082
blo	-14083
cet	-14084
cti	-14085
ean	-14086
ear	-14087
enc	-14088
ene	-14089
eni	-14090
ger	-14091
hil	-14092
iab	-14093
iru	-14094
len	-14095
mag	-14096
mol	-14097
ned	-14098
omm	-14099
ET	-14100
Lt	-14101
OC	-14102
Pe	-14103
UA	-14104
[5	-14105
by	-14106
dg	-14107
nd	-14108
pe	-14109
rm	-14110
rn	-14111
~4	-14112
ʼ�	-14113
᡼�	-14114
▁'	-14115
�~	-14116
�˹	-14117
�׾	-14118
�⿵	-14119
�	-14120
�𿡸	-14121
�򰡰	-14122
�󱸿	-14123
�󸲸	-14124
𳪹�	-14125
𸣰�	-14126
,68	-14127
001	-14128
077	-14129
624	-14130
8.(	-14131
816	-14132
88.	-14133
92.	-14134
958	-14135
oss	-14136
pat	-14137
pol	-14138
rec	-14139
red	-14140
rem	-14141
sed	-14142
tor	-14143
tud	-14144
van	-14145
war	-14146
way	-14147
~5�	-14148
~��	-14149
¡�(	-14150
°�)	-14151
ʹ�(	-14152
ʹ��	-14153
ʾ�,	-14154
˰�,	-14155
˷��	-14156
˻�(	-14157
˾��	-14158
׵��	-14159
׹��	-14160
׽��	-14161
޴��	-14162
޷�(	-14163
޷�)	-14164
޷�,	-14165
޷��	-14166
޺��	-14167
޻��	-14168
޽��	-14169
߼��	-14170
߾�,	-14171
߿��	-14172
ࡱ��	-14173
ࡹ��	-14174
౳��	-14175
࿵��	-14176
⁄4	-14177
↓��	-14178
▁(3	-14179
▁1-	-14180
▁4-	-14181
▁7]	-14182
▁84	-14183
▁87	-14184
▁98	-14185
▁AG	-14186
▁BB	-14187
▁BT	-14188
▁Be	-14189
▁GC	-14190
▁HC	-14191
▁IA	-14192
▁Im	-14193
▁OI	-14194
▁PT	-14195
▁WE	-14196
▁[3	-14197
▁he	-14198
▁�»	-14199
)[	-14200
9�	-14201
DI	-14202
OS	-14203
PF	-14204
PT	-14205
[1	-14206
bl	-14207
bo	-14208
ga	-14209
ma	-14210
vo	-14211
ys	-14212
Žü	-14213
๰,	-14214
▁j	-14215
⹰�	-14216
�	-14217
�	-14218
�	-14219
�	-14220
�2	-14221
�9	-14222
�˰	-14223
�׵	-14224
�׸	-14225
�׼	-14226
�޴	-14227
�޸	-14228
�⵶	-14229
�	-14230
�	-14231
�𵨰	-14232
𸣳�	-14233
𸮾�	-14234
󼼺�	-14235
152	-14236
34.	-14237
423	-14238
8.1	-14239
80.	-14240
Ren	-14241
och	-14242
˰��	-14243
▁�޵	-14244
▁�鿩	-14245
▁�	-14246
▁�󰡴	-14247
䷮��	-14248
꡼��	-14249
��	-14250
��	-14251
��	-14252
��	-14253
�(4	-14254
�)(	-14255
�)]	-14256
�.1	-14257
�10	-14258
�޷�	-14259
�޿�	-14260
��-	-14261
��0	-14262
��8	-14263
��£	-14264
��ʿ	-14265
��͸	-14266
��׵	-14267
��׽	-14268
��׿	-14269
��޷	-14270
��޸	-14271
��޽	-14272
��߽	-14273
��ࡤ	-14274
��೻	-14275
��๮	-14276
��⵶	-14277
��	-14278
��	-14279
��	-14280
��	-14281
��񰡰	-14282
��񽺸	-14283
��񽺿	-14284
��򰡾	-14285
��󵵡	-14286
𰡰��	-14287
𰡴��	-14288
𵨸��	-14289
𵿸��	-14290
𷡡��	-14291
񡤰��	-14292
񱳡��	-14293
񱳹��	-14294
񱸿��	-14295
񼮳��	-14296
񽺸��	-14297
񽺼��	-14298
򰡰��	-14299
.4	-14300
3⁄	-14301
=2	-14302
Ac	-14303
Ar	-14304
DV	-14305
Fo	-14306
PC	-14307
Tr	-14308
[4	-14309
gm	-14310
»�	-14311
ʾ�	-14312
׶�	-14313
޶�	-14314
޼�	-14315
๰�	-14316
⿩�	-14317
�	-14318
�6	-14319
�ʾ	-14320
�˷	-14321
�˸	-14322
�˾	-14323
�׹	-14324
�޵	-14325
�޶	-14326
�޼	-14327
�޿	-14328
�఻	-14329
�๮	-14330
�๰	-14331
�࿬	-14332
�⿩	-14333
�	-14334
�	-14335
�𰡰	-14336
�񸮷	-14337
�򰡸	-14338
�󡯰	-14339
�󸶳	-14340
�󼭸	-14341
�󿡴	-14342
򰡱�	-14343
󡤼�	-14344
-16	-14345
027	-14346
435	-14347
ʼ��	-14348
▁[2	-14349
▁�󼼺	-14350
𰡾��	-14351
𷡴��	-14352
񳭰��	-14353
򰡶��	-14354
򰡹��	-14355
򰡾��	-14356
򽺡��	-14357
򽺷��	-14358
󡤹��	-14359
󡤼��	-14360
󰢺��	-14361
󸲺��	-14362
󸶵��	-14363
󺹱��	-14364
󼳱��	-14365
󼼾��	-14366
󿬱��	-14367
󿵰��	-14368
%��(	-14369
)200	-14370
)�ʹ�	-14371
,006	-14372
,500	-14373
,700	-14374
-202	-14375
0,09	-14376
0.47	-14377
0.��	-14378
001.	-14379
006.	-14380
0116	-14381
0149	-14382
0200	-14383
0916	-14384
0��4	-14385
0��5	-14386
1,00	-14387
1034	-14388
1038	-14389
1069	-14390
1361	-14391
1436	-14392
1461	-14393
1536	-14394
1650	-14395
1665	-14396
1925	-14397
1951	-14398
196,	-14399
(4	-14400
,0	-14401
1(	-14402
5%	-14403
8-	-14404
Go	-14405
Hu	-14406
MP	-14407
Na	-14408
Pi	-14409
[6	-14410
[[	-14411
nz	-14412
tw	-14413
öü	-14414
ɼǰ	-14415
˱�	-14416
⸣�	-14417
�	-14418
�	-14419
�	-14420
�˺	-14421
�޺	-14422
�⹰	-14423
�	-14424
�	-14425
�	-14426
�	-14427
�𷡡	-14428
�񳭹	-14429
�񿡼	-14430
�򰡵	-14431
�򰡿	-14432
�󵵰	-14433
�󸲺	-14434
�󼭴	-14435
�󼺰	-14436
�󼼺	-14437
󾾿�	-14438
1:2	-14439
324	-14440
667	-14441
[...]
